{
  "version": "1.0",
  "truncation": null,
  "padding": null,
  "added_tokens": [
    {
      "id": 0,
      "content": "[UNK]",
      "single_word": false,
      "lstrip": false,
      "rstrip": false,
      "normalized": false,
      "special": true
    },
    {
      "id": 1,
      "content": "[CLS]",
      "single_word": false,
      "lstrip": false,
      "rstrip": false,
      "normalized": false,
      "special": true
    },
    {
      "id": 2,
      "content": "[SEP]",
      "single_word": false,
      "lstrip": false,
      "rstrip": false,
      "normalized": false,
      "special": true
    },
    {
      "id": 3,
      "content": "[PAD]",
      "single_word": false,
      "lstrip": false,
      "rstrip": false,
      "normalized": false,
      "special": true
    },
    {
      "id": 4,
      "content": "[MASK]",
      "single_word": false,
      "lstrip": false,
      "rstrip": false,
      "normalized": false,
      "special": true
    }
  ],
  "normalizer": null,
  "pre_tokenizer": {
    "type": "Whitespace"
  },
  "post_processor": null,
  "decoder": null,
  "model": {
    "type": "BPE",
    "dropout": null,
    "unk_token": "[UNK]",
    "continuing_subword_prefix": null,
    "end_of_word_suffix": null,
    "fuse_unk": false,
    "byte_fallback": false,
    "ignore_merges": false,
    "vocab": {
      "[UNK]": 0,
      "[CLS]": 1,
      "[SEP]": 2,
      "[PAD]": 3,
      "[MASK]": 4,
      "\u0014": 5,
      "\u001b": 6,
      "!": 7,
      "\"": 8,
      "#": 9,
      "$": 10,
      "%": 11,
      "&": 12,
      "'": 13,
      "(": 14,
      ")": 15,
      "*": 16,
      "+": 17,
      ",": 18,
      "-": 19,
      ".": 20,
      "/": 21,
      "0": 22,
      "1": 23,
      "2": 24,
      "3": 25,
      "4": 26,
      "5": 27,
      "6": 28,
      "7": 29,
      "8": 30,
      "9": 31,
      ":": 32,
      ";": 33,
      "<": 34,
      "=": 35,
      ">": 36,
      "?": 37,
      "@": 38,
      "A": 39,
      "B": 40,
      "C": 41,
      "D": 42,
      "E": 43,
      "F": 44,
      "G": 45,
      "H": 46,
      "I": 47,
      "J": 48,
      "K": 49,
      "L": 50,
      "M": 51,
      "N": 52,
      "O": 53,
      "P": 54,
      "Q": 55,
      "R": 56,
      "S": 57,
      "T": 58,
      "U": 59,
      "V": 60,
      "W": 61,
      "X": 62,
      "Y": 63,
      "Z": 64,
      "[": 65,
      "\\": 66,
      "]": 67,
      "^": 68,
      "_": 69,
      "`": 70,
      "a": 71,
      "b": 72,
      "c": 73,
      "d": 74,
      "e": 75,
      "f": 76,
      "g": 77,
      "h": 78,
      "i": 79,
      "j": 80,
      "k": 81,
      "l": 82,
      "m": 83,
      "n": 84,
      "o": 85,
      "p": 86,
      "q": 87,
      "r": 88,
      "s": 89,
      "t": 90,
      "u": 91,
      "v": 92,
      "w": 93,
      "x": 94,
      "y": 95,
      "z": 96,
      "{": 97,
      "|": 98,
      "}": 99,
      "~": 100,
      "": 101,
      "": 102,
      "": 103,
      "": 104,
      "": 105,
      "": 106,
      "": 107,
      "": 108,
      "": 109,
      "": 110,
      "": 111,
      "": 112,
      "": 113,
      "": 114,
      "": 115,
      "": 116,
      "": 117,
      "": 118,
      "": 119,
      "": 120,
      "": 121,
      "": 122,
      "": 123,
      "": 124,
      "": 125,
      "": 126,
      "": 127,
      "": 128,
      "¡": 129,
      "¢": 130,
      "£": 131,
      "¤": 132,
      "¥": 133,
      "¦": 134,
      "§": 135,
      "¨": 136,
      "©": 137,
      "ª": 138,
      "«": 139,
      "¬": 140,
      "­": 141,
      "®": 142,
      "¯": 143,
      "°": 144,
      "±": 145,
      "²": 146,
      "³": 147,
      "´": 148,
      "µ": 149,
      "¶": 150,
      "·": 151,
      "¸": 152,
      "¹": 153,
      "º": 154,
      "¼": 155,
      "½": 156,
      "¾": 157,
      "¿": 158,
      "Â": 159,
      "Ä": 160,
      "Æ": 161,
      "Ç": 162,
      "É": 163,
      "Ê": 164,
      "Î": 165,
      "Ð": 166,
      "Ó": 167,
      "Ô": 168,
      "Ö": 169,
      "×": 170,
      "Ú": 171,
      "Û": 172,
      "Ü": 173,
      "à": 174,
      "á": 175,
      "â": 176,
      "ä": 177,
      "å": 178,
      "æ": 179,
      "ç": 180,
      "è": 181,
      "é": 182,
      "í": 183,
      "ñ": 184,
      "ò": 185,
      "ó": 186,
      "õ": 187,
      "ö": 188,
      "÷": 189,
      "ù": 190,
      "ú": 191,
      "ü": 192,
      "ý": 193,
      "þ": 194,
      "ā": 195,
      "Ă": 196,
      "Ą": 197,
      "ą": 198,
      "Ć": 199,
      "ć": 200,
      "Č": 201,
      "č": 202,
      "ď": 203,
      "Ę": 204,
      "Ě": 205,
      "ě": 206,
      "ı": 207,
      "Ĺ": 208,
      "ĺ": 209,
      "Ľ": 210,
      "ľ": 211,
      "ł": 212,
      "Ň": 213,
      "ň": 214,
      "ő": 215,
      "ŕ": 216,
      "ř": 217,
      "Ś": 218,
      "ś": 219,
      "Ş": 220,
      "ş": 221,
      "Š": 222,
      "š": 223,
      "Ţ": 224,
      "ţ": 225,
      "Ť": 226,
      "ť": 227,
      "ů": 228,
      "ű": 229,
      "Ż": 230,
      "ż": 231,
      "Ž": 232,
      "ž": 233,
      "ɓ": 234,
      "ɪ": 235,
      "ʼ": 236,
      "ˇ": 237,
      "ː": 238,
      "˙": 239,
      "˚": 240,
      "˛": 241,
      "˜": 242,
      "˝": 243,
      "̀": 244,
      "́": 245,
      "̃": 246,
      "̄": 247,
      "̈": 248,
      "̊": 249,
      "̧": 250,
      "̪": 251,
      "ͧ": 252,
      ";": 253,
      "Δ": 254,
      "Θ": 255,
      "Λ": 256,
      "Π": 257,
      "Ω": 258,
      "α": 259,
      "β": 260,
      "γ": 261,
      "η": 262,
      "θ": 263,
      "ι": 264,
      "κ": 265,
      "λ": 266,
      "μ": 267,
      "ν": 268,
      "π": 269,
      "τ": 270,
      "φ": 271,
      "ψ": 272,
      "ω": 273,
      "ώ": 274,
      "Ѕ": 275,
      "А": 276,
      "Д": 277,
      "С": 278,
      "Т": 279,
      "У": 280,
      "Ч": 281,
      "а": 282,
      "в": 283,
      "д": 284,
      "е": 285,
      "ж": 286,
      "и": 287,
      "й": 288,
      "н": 289,
      "о": 290,
      "п": 291,
      "р": 292,
      "ю": 293,
      "є": 294,
      "֦": 295,
      "ֹ": 296,
      "׃": 297,
      "،": 298,
      "آ": 299,
      "إ": 300,
      "ا": 301,
      "ت": 302,
      "ج": 303,
      "ح": 304,
      "د": 305,
      "ر": 306,
      "س": 307,
      "ق": 308,
      "ل": 309,
      "م": 310,
      "ن": 311,
      "ٓ": 312,
      "ٕ": 313,
      "ی": 314,
      "ँ": 315,
      "ं": 316,
      "ः": 317,
      "अ": 318,
      "आ": 319,
      "इ": 320,
      "ई": 321,
      "उ": 322,
      "ऊ": 323,
      "ऋ": 324,
      "ऌ": 325,
      "ऍ": 326,
      "ऎ": 327,
      "ए": 328,
      "ऐ": 329,
      "ऑ": 330,
      "ऒ": 331,
      "ओ": 332,
      "औ": 333,
      "क": 334,
      "ख": 335,
      "ग": 336,
      "घ": 337,
      "ङ": 338,
      "च": 339,
      "छ": 340,
      "ज": 341,
      "झ": 342,
      "ञ": 343,
      "ट": 344,
      "ठ": 345,
      "ड": 346,
      "ढ": 347,
      "ण": 348,
      "त": 349,
      "थ": 350,
      "द": 351,
      "ध": 352,
      "न": 353,
      "ऩ": 354,
      "प": 355,
      "फ": 356,
      "ब": 357,
      "भ": 358,
      "म": 359,
      "य": 360,
      "र": 361,
      "ऱ": 362,
      "ल": 363,
      "ळ": 364,
      "ऴ": 365,
      "व": 366,
      "श": 367,
      "ष": 368,
      "स": 369,
      "ह": 370,
      "़": 371,
      "ऽ": 372,
      "ा": 373,
      "ि": 374,
      "ी": 375,
      "ु": 376,
      "ू": 377,
      "ृ": 378,
      "ॄ": 379,
      "ॅ": 380,
      "ॆ": 381,
      "े": 382,
      "ै": 383,
      "ॉ": 384,
      "ॊ": 385,
      "ो": 386,
      "ौ": 387,
      "्": 388,
      "ॐ": 389,
      "॑": 390,
      "॒": 391,
      "॓": 392,
      "॔": 393,
      "क़": 394,
      "ख़": 395,
      "ग़": 396,
      "ज़": 397,
      "ड़": 398,
      "ढ़": 399,
      "फ़": 400,
      "य़": 401,
      "ॠ": 402,
      "ॡ": 403,
      "ॣ": 404,
      "।": 405,
      "॥": 406,
      "०": 407,
      "१": 408,
      "२": 409,
      "३": 410,
      "४": 411,
      "५": 412,
      "६": 413,
      "७": 414,
      "८": 415,
      "९": 416,
      "॰": 417,
      "ক": 418,
      "চ": 419,
      "ঠ": 420,
      "থ": 421,
      "দ": 422,
      "ন": 423,
      "ব": 424,
      "ভ": 425,
      "র": 426,
      "ষ": 427,
      "স": 428,
      "া": 429,
      "ী": 430,
      "ু": 431,
      "্": 432,
      "ਦ": 433,
      "ਲ": 434,
      "ਿ": 435,
      "ੀ": 436,
      "ੱ": 437,
      "પ": 438,
      "બ": 439,
      "ા": 440,
      "ુ": 441,
      "​": 442,
      "‌": 443,
      "‍": 444,
      "‎": 445,
      "‑": 446,
      "–": 447,
      "—": 448,
      "―": 449,
      "‘": 450,
      "’": 451,
      "‚": 452,
      "“": 453,
      "”": 454,
      "„": 455,
      "†": 456,
      "‡": 457,
      "•": 458,
      "…": 459,
      "′": 460,
      "⁰": 461,
      "⁴": 462,
      "⁵": 463,
      "⁶": 464,
      "⁷": 465,
      "⁻": 466,
      "₀": 467,
      "₁": 468,
      "₂": 469,
      "€": 470,
      "₹": 471,
      "™": 472,
      "⅓": 473,
      "⅔": 474,
      "⅕": 475,
      "⅖": 476,
      "⅗": 477,
      "⅘": 478,
      "⅙": 479,
      "→": 480,
      "⇒": 481,
      "∂": 482,
      "−": 483,
      "∕": 484,
      "√": 485,
      "∞": 486,
      "∣": 487,
      "∨": 488,
      "≠": 489,
      "≤": 490,
      "≥": 491,
      "⌈": 492,
      "⌉": 493,
      "⌊": 494,
      "⌋": 495,
      "⌘": 496,
      "⏎": 497,
      "─": 498,
      "═": 499,
      "■": 500,
      "☺": 501,
      "☻": 502,
      "♪": 503,
      "♫": 504,
      "➣": 505,
      "か": 506,
      "な": 507,
      "中": 508,
      "國": 509,
      "堀": 510,
      "字": 511,
      "漢": 512,
      "秦": 513,
      "続": 514,
      "设": 515,
      "": 516,
      "": 517,
      "": 518,
      "": 519,
      "": 520,
      "﻿": 521,
      "￼": 522,
      "�": 523,
      "के": 524,
      "्र": 525,
      "ार": 526,
      "है": 527,
      "ें": 528,
      "या": 529,
      "ने": 530,
      "ों": 531,
      "में": 532,
      "कर": 533,
      "का": 534,
      "से": 535,
      "की": 536,
      "और": 537,
      "कि": 538,
      "ता": 539,
      "र्": 540,
      "स्": 541,
      "को": 542,
      "प्र": 543,
      "्य": 544,
      "ना": 545,
      "क्": 546,
      "ान": 547,
      "वि": 548,
      "ही": 549,
      "पर": 550,
      "वा": 551,
      "ति": 552,
      "लि": 553,
      "ला": 554,
      "नि": 555,
      "हो": 556,
      "न्": 557,
      "जा": 558,
      "सा": 559,
      "रा": 560,
      "ते": 561,
      "सं": 562,
      "ित": 563,
      "कार": 564,
      "दे": 565,
      "ले": 566,
      "मा": 567,
      "तु": 568,
      "हा": 569,
      "दि": 570,
      "हैं": 571,
      "त्": 572,
      "था": 573,
      "ती": 574,
      "ोग": 575,
      "इस": 576,
      "भी": 577,
      "लिए": 578,
      "ड़": 579,
      "क्ष": 580,
      "एक": 581,
      "उस": 582,
      "दा": 583,
      "हीं": 584,
      "जो": 585,
      "सम": 586,
      "सी": 587,
      "उन": 588,
      "तो": 589,
      "बा": 590,
      "त्र": 591,
      "अप": 592,
      "द्": 593,
      "जि": 594,
      "नहीं": 595,
      "ज़": 596,
      "हु": 597,
      "तुम": 598,
      "हम": 599,
      "ल्": 600,
      "ष्": 601,
      "पा": 602,
      "िक": 603,
      "गा": 604,
      "नी": 605,
      "वे": 606,
      "तर": 607,
      "भा": 608,
      "मु": 609,
      "चा": 610,
      "किया": 611,
      "यह": 612,
      "ली": 613,
      "कु": 614,
      "यों": 615,
      "री": 616,
      "वह": 617,
      "श्": 618,
      "ष्ट": 619,
      "मि": 620,
      "रू": 621,
      "अन": 622,
      "मान": 623,
      "ारा": 624,
      "पू": 625,
      "करने": 626,
      "लोग": 627,
      "अध": 628,
      "ये": 629,
      "ंग": 630,
      "मे": 631,
      "रे": 632,
      "खा": 633,
      "जी": 634,
      "ख़": 635,
      "दी": 636,
      "शा": 637,
      "हि": 638,
      "वर्": 639,
      "देश": 640,
      "क़": 641,
      "रह": 642,
      "ारे": 643,
      "अपने": 644,
      "भार": 645,
      "्या": 646,
      "सक": 647,
      "न्ह": 648,
      "सि": 649,
      "सु": 650,
      "फ़": 651,
      "स्थ": 652,
      "िर": 653,
      "उप": 654,
      "सू": 655,
      "गे": 656,
      "शि": 657,
      "क्र": 658,
      "च्": 659,
      "अनु": 660,
      "जिस": 661,
      "ार्": 662,
      "व्य": 663,
      "पु": 664,
      "दो": 665,
      "प्": 666,
      "गया": 667,
      "ओं": 668,
      "ैं": 669,
      "तथा": 670,
      "सर": 671,
      "आप": 672,
      "ारी": 673,
      "कुछ": 674,
      "उन्ह": 675,
      "रूप": 676,
      "निर्": 677,
      "तक": 678,
      "जब": 679,
      "्ह": 680,
      "किसी": 681,
      "द्व": 682,
      "तुम्ह": 683,
      "मी": 684,
      "्री": 685,
      "रि": 686,
      "साथ": 687,
      "परि": 688,
      "पूर्": 689,
      "ंध": 690,
      "योग": 691,
      "प्रा": 692,
      "ुदा": 693,
      "गी": 694,
      "कोई": 695,
      "दू": 696,
      "ंड": 697,
      "म्": 698,
      "प्रति": 699,
      "यो": 700,
      "थे": 701,
      "उनके": 702,
      "हर": 703,
      "वी": 704,
      "कृ": 705,
      "द्ध": 706,
      "बी": 707,
      "इन": 708,
      "द्वारा": 709,
      "बना": 710,
      "िया": 711,
      "जन": 712,
      "वर": 713,
      "क्ति": 714,
      "ज्": 715,
      "लोगों": 716,
      "करें": 717,
      "धार": 718,
      "ढ़": 719,
      "करते": 720,
      "फिर": 721,
      "बे": 722,
      "दिया": 723,
      "ची": 724,
      "रो": 725,
      "क्त": 726,
      "राज": 727,
      "भारत": 728,
      "गर": 729,
      "राष्ट": 730,
      "जाए": 731,
      "यु": 732,
      "नों": 733,
      "गु": 734,
      "टी": 735,
      "पह": 736,
      "लाह": 737,
      "पी": 738,
      "ंत्र": 739,
      "अल्": 740,
      "टा": 741,
      "कार्य": 742,
      "लो": 743,
      "मैं": 744,
      "थी": 745,
      "क्या": 746,
      "अं": 747,
      "ग्र": 748,
      "स्त": 749,
      "बंध": 750,
      "सब": 751,
      "द्य": 752,
      "उत्": 753,
      "स्था": 754,
      "कह": 755,
      "कहा": 756,
      "अधि": 757,
      "ज्ञ": 758,
      "ख़ुदा": 759,
      "जाता": 760,
      "रख": 761,
      "अल्लाह": 762,
      "उसके": 763,
      "दु": 764,
      "चार": 765,
      "रहे": 766,
      "ब्": 767,
      "अपनी": 768,
      "ड़ा": 769,
      "करना": 770,
      "मू": 771,
      "अव": 772,
      "द्र": 773,
      "लों": 774,
      "ियों": 775,
      "बहु": 776,
      "रु": 777,
      "भि": 778,
      "त्य": 779,
      "निय": 780,
      "बर": 781,
      "न्न": 782,
      "क्षे": 783,
      "क्षा": 784,
      "च्छ": 785,
      "प्त": 786,
      "बात": 787,
      "वाले": 788,
      "ानी": 789,
      "बि": 790,
      "हुए": 791,
      "चे": 792,
      "टे": 793,
      "बाद": 794,
      "शन": 795,
      "चु": 796,
      "लग": 797,
      "उन्हें": 798,
      "शी": 799,
      "डा": 800,
      "करता": 801,
      "स्व": 802,
      "होता": 803,
      "20": 804,
      "दर्": 805,
      "विध": 806,
      "क्षेत्र": 807,
      "रहा": 808,
      "ोंने": 809,
      "जान": 810,
      "उसे": 811,
      "अधिक": 812,
      "सकता": 813,
      "ड़े": 814,
      "वन": 815,
      "देख": 816,
      "पै": 817,
      "शु": 818,
      "समय": 819,
      "दान": 820,
      "चि": 821,
      "चित": 822,
      "जै": 823,
      "बु": 824,
      "बहुत": 825,
      "राष्ट्र": 826,
      "मो": 827,
      "मह": 828,
      "्यों": 829,
      "मिल": 830,
      "र्थ": 831,
      "कर्": 832,
      "भू": 833,
      "19": 834,
      "काम": 835,
      "त्व": 836,
      "हे": 837,
      "शे": 838,
      "पति": 839,
      "ड़ी": 840,
      "पास": 841,
      "पूर्ण": 842,
      "तीय": 843,
      "पि": 844,
      "णा": 845,
      "कारी": 846,
      "निक": 847,
      "लय": 848,
      "तरह": 849,
      "डि": 850,
      "वर्ष": 851,
      "विश्": 852,
      "टि": 853,
      "भाग": 854,
      "टर": 855,
      "हू": 856,
      "कम": 857,
      "करण": 858,
      "वं": 859,
      "उन्होंने": 860,
      "हुआ": 861,
      "पहले": 862,
      "दर": 863,
      "सम्": 864,
      "योज": 865,
      "यदि": 866,
      "पे": 867,
      "हमने": 868,
      "चना": 869,
      "जिन": 870,
      "दिन": 871,
      "मत": 872,
      "समा": 873,
      "हों": 874,
      "कों": 875,
      "होने": 876,
      "उनकी": 877,
      "तुम्हारे": 878,
      "चाहि": 879,
      "नाम": 880,
      "धि": 881,
      "मुख": 882,
      "छो": 883,
      "होगा": 884,
      "व्यक्ति": 885,
      "ज़ा": 886,
      "्रे": 887,
      "गत": 888,
      "संबंध": 889,
      "एं": 890,
      "पर्": 891,
      "गई": 892,
      "्रीय": 893,
      "गए": 894,
      "मन": 895,
      "हां": 896,
      "झे": 897,
      "अन्य": 898,
      "बो": 899,
      "ौर": 900,
      "हमारे": 901,
      "्रा": 902,
      "ओर": 903,
      "िति": 904,
      "सभी": 905,
      "ऐसे": 906,
      "दार": 907,
      "वाला": 908,
      "करो": 909,
      "बद": 910,
      "एँ": 911,
      "राष्ट्रपति": 912,
      "स्ता": 913,
      "दन": 914,
      "धान": 915,
      "बार": 916,
      "स्ट": 917,
      "यी": 918,
      "प्राप्त": 919,
      "..": 920,
      "ग़": 921,
      "श्य": 922,
      "नियम": 923,
      "भाव": 924,
      "प्रकार": 925,
      "स्थान": 926,
      "सकते": 927,
      "हाँ": 928,
      "राज्य": 929,
      "अच्छ": 930,
      "लन": 931,
      "इसके": 932,
      "साम": 933,
      "चाहिए": 934,
      "जाने": 935,
      "डी": 936,
      "हित": 937,
      "उसकी": 938,
      "पूर्व": 939,
      "तों": 940,
      "बढ़": 941,
      "लिया": 942,
      "सार": 943,
      "न्द": 944,
      "किए": 945,
      "दूस": 946,
      "्यू": 947,
      "सर्": 948,
      "किन": 949,
      "होती": 950,
      "ज्ञान": 951,
      "ईमान": 952,
      "क्रम": 953,
      "सरकार": 954,
      "विका": 955,
      "माण": 956,
      "गार": 957,
      "अगर": 958,
      "समझ": 959,
      "चाह": 960,
      "खु": 961,
      "करे": 962,
      "शेष": 963,
      "योजना": 964,
      "न्या": 965,
      "ीन": 966,
      "ऐसा": 967,
      "वार": 968,
      "यन": 969,
      "जे": 970,
      "विक": 971,
      "तन": 972,
      "अभि": 973,
      "एवं": 974,
      "पो": 975,
      "ट्": 976,
      "धन": 977,
      "इल": 978,
      "कारण": 979,
      "ठा": 980,
      "पहु": 981,
      "अब": 982,
      "भारतीय": 983,
      "व्या": 984,
      "लगा": 985,
      "द्योग": 986,
      "ंच": 987,
      "क्षण": 988,
      "मुझे": 989,
      "विकास": 990,
      "वै": 991,
      "क्यों": 992,
      "भे": 993,
      "रसू": 994,
      "तः": 995,
      "सो": 996,
      "मार्": 997,
      "फल": 998,
      "सद": 999,
      "गो": 1000,
      "ध्य": 1001,
      "क्रिया": 1002,
      "धारा": 1003,
      "मंत्र": 1004,
      "हुई": 1005,
      "खो": 1006,
      "निश्": 1007,
      "भाष": 1008,
      "वृ": 1009,
      "जू": 1010,
      "डर": 1011,
      "त्म": 1012,
      "यू": 1013,
      "आर": 1014,
      "ंद": 1015,
      "स्थिति": 1016,
      "कृति": 1017,
      "च्च": 1018,
      "दिखा": 1019,
      "सह": 1020,
      "00": 1021,
      "रसूल": 1022,
      "वल": 1023,
      "मौ": 1024,
      "मूल": 1025,
      "उसने": 1026,
      "रब": 1027,
      "दोनों": 1028,
      "ेंगे": 1029,
      "स्तु": 1030,
      "लेकिन": 1031,
      "आई": 1032,
      "अपना": 1033,
      "दृ": 1034,
      "विष": 1035,
      "प्रे": 1036,
      "फा": 1037,
      "बै": 1038,
      "जाती": 1039,
      "युक्त": 1040,
      "तुम्हें": 1041,
      "विश्व": 1042,
      "जीवन": 1043,
      "on": 1044,
      "ख्या": 1045,
      "प्रदान": 1046,
      "वाद": 1047,
      "पत्र": 1048,
      "पार": 1049,
      "विशेष": 1050,
      "ऐसी": 1051,
      "आय": 1052,
      "वाली": 1053,
      "उपयोग": 1054,
      "लिख": 1055,
      "माल": 1056,
      "ंक": 1057,
      "णी": 1058,
      "प्रयोग": 1059,
      "चल": 1060,
      "कै": 1061,
      "होते": 1062,
      "हाय": 1063,
      "जु": 1064,
      "कं": 1065,
      "कता": 1066,
      "जैसे": 1067,
      "बन": 1068,
      "श्री": 1069,
      "ख्": 1070,
      "डे": 1071,
      "निया": 1072,
      "बीच": 1073,
      "रही": 1074,
      "ंत": 1075,
      "बारे": 1076,
      "काश": 1077,
      "स्वा": 1078,
      "ण्": 1079,
      "पं": 1080,
      "वास": 1081,
      "उसका": 1082,
      "सहाय": 1083,
      "लेख": 1084,
      "कू": 1085,
      "तना": 1086,
      "।\"": 1087,
      "आव": 1088,
      "राष्ट्रीय": 1089,
      "me": 1090,
      "ष्ठ": 1091,
      "मै": 1092,
      "आधार": 1093,
      "काल": 1094,
      "र्म": 1095,
      "फ़ा": 1096,
      "सेवा": 1097,
      "मेरे": 1098,
      "स्थाप": 1099,
      "सके": 1100,
      "एस": 1101,
      "भर": 1102,
      "भिन्न": 1103,
      "ti": 1104,
      "नीति": 1105,
      "धी": 1106,
      "अंत": 1107,
      "शक": 1108,
      "िय": 1109,
      "उनका": 1110,
      "विचार": 1111,
      "जाएगा": 1112,
      "देने": 1113,
      "हमें": 1114,
      "वही": 1115,
      "201": 1116,
      "केवल": 1117,
      "मित": 1118,
      "तम": 1119,
      "चीज़": 1120,
      "माम": 1121,
      "शो": 1122,
      "यर": 1123,
      "बू": 1124,
      "जिसमें": 1125,
      "स्प": 1126,
      "चय": 1127,
      "परा": 1128,
      "आवश्य": 1129,
      "ताकि": 1130,
      "हूँ": 1131,
      "प्रत्य": 1132,
      "मान्य": 1133,
      "धा": 1134,
      "सूचना": 1135,
      "ंभ": 1136,
      "श्र": 1137,
      "पत्": 1138,
      "ल्प": 1139,
      "कृत": 1140,
      "निर्धार": 1141,
      "पैदा": 1142,
      "वालों": 1143,
      "जाना": 1144,
      "खे": 1145,
      "लें": 1146,
      "उसी": 1147,
      "ष्टि": 1148,
      "क्स": 1149,
      "हमारी": 1150,
      "दूसरे": 1151,
      "इसे": 1152,
      "आज": 1153,
      "सबसे": 1154,
      "बड़ा": 1155,
      "सन": 1156,
      "त्या": 1157,
      "न्तु": 1158,
      "संग": 1159,
      "मद": 1160,
      "तंत्र": 1161,
      "उत्पा": 1162,
      "मार्ग": 1163,
      "फ्": 1164,
      "भव": 1165,
      "अन्": 1166,
      "वान": 1167,
      "पश्": 1168,
      "in": 1169,
      "घा": 1170,
      "वेश": 1171,
      "तब": 1172,
      "अथ": 1173,
      "मार": 1174,
      "लब्": 1175,
      "ज्ञा": 1176,
      "जाते": 1177,
      "लोक": 1178,
      "इसमें": 1179,
      "गति": 1180,
      "स्वी": 1181,
      "ज़ि": 1182,
      "घर": 1183,
      "क्योंकि": 1184,
      "अधिनियम": 1185,
      "अधिकार": 1186,
      "कंप": 1187,
      "त्ता": 1188,
      "शक्ति": 1189,
      "देता": 1190,
      "स्त्र": 1191,
      "समान": 1192,
      "जिसे": 1193,
      "व्यव": 1194,
      "बस": 1195,
      "बल्": 1196,
      "यार": 1197,
      "नो": 1198,
      "भाषा": 1199,
      "उपलब्": 1200,
      "छा": 1201,
      "हरा": 1202,
      "ग्रा": 1203,
      "फी": 1204,
      "लू": 1205,
      "अथवा": 1206,
      "इं": 1207,
      "अर्": 1208,
      "दूर": 1209,
      "उनसे": 1210,
      "क्षम": 1211,
      "उद्": 1212,
      "ताओं": 1213,
      "पन": 1214,
      "an": 1215,
      "संदेश": 1216,
      "ध्या": 1217,
      "भु": 1218,
      "पुर": 1219,
      "वाह": 1220,
      "उससे": 1221,
      "यालय": 1222,
      "कभी": 1223,
      "टन": 1224,
      "भूमि": 1225,
      "खि": 1226,
      "बैं": 1227,
      "दों": 1228,
      "दाय": 1229,
      "ठी": 1230,
      "कुल": 1231,
      "परवर": 1232,
      "तै": 1233,
      "दिगार": 1234,
      "फ़ाइल": 1235,
      "सान": 1236,
      "हूं": 1237,
      "षण": 1238,
      "शिक्षा": 1239,
      "महा": 1240,
      "परवरदिगार": 1241,
      "अंतर": 1242,
      "सूची": 1243,
      "त्रा": 1244,
      "सकती": 1245,
      "ार्थ": 1246,
      "स्ते": 1247,
      "वो": 1248,
      "tion": 1249,
      "कान": 1250,
      "मिक": 1251,
      "स्तर": 1252,
      "चर": 1253,
      "दौर": 1254,
      "करा": 1255,
      "यं": 1256,
      "कट": 1257,
      "रत": 1258,
      "बन्": 1259,
      "वरण": 1260,
      "लं": 1261,
      "पहुँ": 1262,
      "करती": 1263,
      "शब्": 1264,
      "ब्र": 1265,
      "बड़ी": 1266,
      "महत्व": 1267,
      "उपलब्ध": 1268,
      "तू": 1269,
      "पुन": 1270,
      "बरा": 1271,
      "इसलिए": 1272,
      "स्ति": 1273,
      "सहायता": 1274,
      "हाल": 1275,
      "उत्तर": 1276,
      "प्रो": 1277,
      "कई": 1278,
      "अलग": 1279,
      "लिये": 1280,
      "याद": 1281,
      "संख्या": 1282,
      "मं": 1283,
      "लाभ": 1284,
      "ग्रह": 1285,
      "गि": 1286,
      "ीय": 1287,
      "मेरी": 1288,
      "आया": 1289,
      "ट्र": 1290,
      "छोड़": 1291,
      "कला": 1292,
      "फि": 1293,
      "ताब": 1294,
      "अति": 1295,
      "तान": 1296,
      "होना": 1297,
      "निर्माण": 1298,
      "पता": 1299,
      "बल्कि": 1300,
      "er": 1301,
      "न्द्र": 1302,
      "उनमें": 1303,
      "संस्": 1304,
      "जिन्ह": 1305,
      "सुर": 1306,
      "पक": 1307,
      "अर्थ": 1308,
      "होगी": 1309,
      "उठा": 1310,
      "परिवर्": 1311,
      "इससे": 1312,
      "बता": 1313,
      "फे": 1314,
      "सल": 1315,
      "शामिल": 1316,
      "अधीन": 1317,
      "सदस्": 1318,
      "कॉ": 1319,
      "िका": 1320,
      "सामान्य": 1321,
      "विभिन्न": 1322,
      "सफल": 1323,
      "यहाँ": 1324,
      "इसी": 1325,
      "कर्म": 1326,
      "द्धि": 1327,
      "भग": 1328,
      "शै": 1329,
      "स्थित": 1330,
      "उच्च": 1331,
      "आगे": 1332,
      "ame": 1333,
      "पड़": 1334,
      "200": 1335,
      "कहते": 1336,
      "जहां": 1337,
      "करके": 1338,
      "बल": 1339,
      "दौरान": 1340,
      "िकी": 1341,
      "धर": 1342,
      "वस्तु": 1343,
      "मंत्री": 1344,
      "विद्": 1345,
      "लित": 1346,
      "लिक": 1347,
      "अंग": 1348,
      "खंड": 1349,
      "त्मक": 1350,
      "वित": 1351,
      "यही": 1352,
      "्व": 1353,
      "मृ": 1354,
      "वास्त": 1355,
      "घट": 1356,
      "उनको": 1357,
      "स्पष्ट": 1358,
      "कें": 1359,
      "विषय": 1360,
      "जल": 1361,
      "अनुसार": 1362,
      "र्इ": 1363,
      "बैठ": 1364,
      "अवसर": 1365,
      "मुख्य": 1366,
      "एम": 1367,
      "त्त": 1368,
      "ंगा": 1369,
      "हाथ": 1370,
      "पूरा": 1371,
      "जिसके": 1372,
      "ेक": 1373,
      "दुनिया": 1374,
      "छे": 1375,
      "हत": 1376,
      "मीन": 1377,
      "सित": 1378,
      "यां": 1379,
      "होंगे": 1380,
      "सामने": 1381,
      "तरफ": 1382,
      "कौ": 1383,
      "इसका": 1384,
      "मर": 1385,
      "नेक": 1386,
      "अच्छा": 1387,
      "हार": 1388,
      "संर": 1389,
      "परी": 1390,
      "बढ़ा": 1391,
      "प्रक्रिया": 1392,
      "धु": 1393,
      "समू": 1394,
      "गह": 1395,
      "पृ": 1396,
      "pr": 1397,
      "क्षित": 1398,
      "पक्ष": 1399,
      "उसमें": 1400,
      "जाएँ": 1401,
      "ंतु": 1402,
      "कल": 1403,
      "आपको": 1404,
      "यास": 1405,
      "टो": 1406,
      "संबंधित": 1407,
      "पद": 1408,
      "देते": 1409,
      "सौ": 1410,
      "करेगा": 1411,
      "तैयार": 1412,
      "साइ": 1413,
      "निश्चित": 1414,
      "नई": 1415,
      "रंग": 1416,
      "बाहर": 1417,
      "रखा": 1418,
      "जार": 1419,
      "फो": 1420,
      "र्ष": 1421,
      "जह": 1422,
      "जित": 1423,
      "पानी": 1424,
      "es": 1425,
      "लाने": 1426,
      "प्रत्येक": 1427,
      "लगे": 1428,
      "प्रौ": 1429,
      "जारी": 1430,
      "चाहते": 1431,
      "किताब": 1432,
      "राम": 1433,
      "बड़े": 1434,
      "विधा": 1435,
      "...": 1436,
      "पढ़": 1437,
      "तार": 1438,
      "योजन": 1439,
      "लने": 1440,
      "अग": 1441,
      "र्ट": 1442,
      "समर्थ": 1443,
      "ज्या": 1444,
      "महि": 1445,
      "तीन": 1446,
      "चुन": 1447,
      "तुम्हारी": 1448,
      "रात": 1449,
      "अध्य": 1450,
      "प्रकाश": 1451,
      "देशों": 1452,
      "शान": 1453,
      "बनाने": 1454,
      "गू": 1455,
      "निश्चय": 1456,
      "सिद्ध": 1457,
      "धर्म": 1458,
      "लु": 1459,
      "खुदा": 1460,
      "आदि": 1461,
      "ून": 1462,
      "प्रार": 1463,
      "फै": 1464,
      "पूरी": 1465,
      "स्वयं": 1466,
      "रुप": 1467,
      "कार्यक्रम": 1468,
      "सां": 1469,
      "एन": 1470,
      "शुरू": 1471,
      "झु": 1472,
      "यम": 1473,
      "सभा": 1474,
      "शत": 1475,
      "ध्यम": 1476,
      "तरी": 1477,
      "श्रे": 1478,
      "अत्य": 1479,
      "गल": 1480,
      "प्रौद्योग": 1481,
      "आपके": 1482,
      "सन्": 1483,
      "दृष्टि": 1484,
      "गुण": 1485,
      "स्थापित": 1486,
      "आं": 1487,
      "निर्धारित": 1488,
      "यान": 1489,
      "क़ा": 1490,
      "व्यवस्था": 1491,
      "जें": 1492,
      "अज़ा": 1493,
      "संघ": 1494,
      "प्रधान": 1495,
      "प्रयास": 1496,
      "गण": 1497,
      "गै": 1498,
      "पस": 1499,
      "al": 1500,
      "ऊपर": 1501,
      "मगर": 1502,
      "सुन": 1503,
      "मदद": 1504,
      "उन्": 1505,
      "हास": 1506,
      "देह": 1507,
      "ह्": 1508,
      "गये": 1509,
      "ण्ड": 1510,
      "परियोजना": 1511,
      "जरू": 1512,
      "सिवा": 1513,
      "दर्शन": 1514,
      "अज़ाब": 1515,
      "अनेक": 1516,
      "ठीक": 1517,
      "गिर": 1518,
      "आद": 1519,
      "हेतु": 1520,
      "लौ": 1521,
      "अंतर्": 1522,
      "विश्वास": 1523,
      "कार्": 1524,
      "गें": 1525,
      "भावना": 1526,
      "हरी": 1527,
      "विज्ञान": 1528,
      "प्रणा": 1529,
      "चाहता": 1530,
      "बैंक": 1531,
      "हिं": 1532,
      "बनाया": 1533,
      "षि": 1534,
      "तुम्हारा": 1535,
      "उद्योग": 1536,
      "भवन": 1537,
      "यत": 1538,
      "10": 1539,
      "ोर": 1540,
      "महत्वपूर्ण": 1541,
      "गयी": 1542,
      "ग्": 1543,
      "विधान": 1544,
      "प्रभाव": 1545,
      "आए": 1546,
      "ियाँ": 1547,
      "सिं": 1548,
      "जोड़": 1549,
      "शील": 1550,
      "वादी": 1551,
      "प्रमाण": 1552,
      "मूल्य": 1553,
      "त्रु": 1554,
      "प्रबंध": 1555,
      "फ़ो": 1556,
      "प्रौद्योगिकी": 1557,
      "न्त": 1558,
      "देखा": 1559,
      "प्रतिशत": 1560,
      "क्षेत्रों": 1561,
      "परिणा": 1562,
      "ंजी": 1563,
      "तियों": 1564,
      "मैंने": 1565,
      "संस्थान": 1566,
      "जमा": 1567,
      "शरी": 1568,
      "आर्थ": 1569,
      "बह": 1570,
      "यहां": 1571,
      "कित": 1572,
      "लाए": 1573,
      "ध्यान": 1574,
      "''": 1575,
      "जिसने": 1576,
      "ल्डर": 1577,
      "घु": 1578,
      "सीमा": 1579,
      "बेशक": 1580,
      "नीचे": 1581,
      "देना": 1582,
      "वर्ग": 1583,
      "ंति": 1584,
      "मौजू": 1585,
      "फर": 1586,
      "साहित": 1587,
      "पीछे": 1588,
      "पाठ": 1589,
      "करेंगे": 1590,
      "बिना": 1591,
      "नीय": 1592,
      "शब्द": 1593,
      "शासन": 1594,
      "धित": 1595,
      "ज़ी": 1596,
      "प्रमुख": 1597,
      "la": 1598,
      "18": 1599,
      "उल्": 1600,
      "समाज": 1601,
      "it": 1602,
      "आर्थिक": 1603,
      "दिष्ट": 1604,
      "ज़मीन": 1605,
      "तिहास": 1606,
      "आवश्यकता": 1607,
      "नु": 1608,
      "राह": 1609,
      "च्चे": 1610,
      "जिसका": 1611,
      "ज्यादा": 1612,
      "परिणाम": 1613,
      "स्या": 1614,
      "हिस्": 1615,
      "लाया": 1616,
      "केंद्र": 1617,
      "दिर": 1618,
      "चाहे": 1619,
      "रखने": 1620,
      "सत": 1621,
      "इन्": 1622,
      "or": 1623,
      "लेकर": 1624,
      "किन्तु": 1625,
      "कवि": 1626,
      "चित्र": 1627,
      "धरती": 1628,
      "्त": 1629,
      "ग्री": 1630,
      "माध्यम": 1631,
      "चौ": 1632,
      "जबकि": 1633,
      "बेह": 1634,
      "आने": 1635,
      "पड़े": 1636,
      "विदेश": 1637,
      "दें": 1638,
      "दारी": 1639,
      "44": 1640,
      "ोह": 1641,
      "ज्य": 1642,
      "र्ड": 1643,
      "विस्त": 1644,
      "रोग": 1645,
      "घो": 1646,
      "अतः": 1647,
      "गुना": 1648,
      "कंपनी": 1649,
      "शिष्ट": 1650,
      "आग": 1651,
      "अमे": 1652,
      "कृषि": 1653,
      "दर्श": 1654,
      "कठ": 1655,
      "अच्छे": 1656,
      "दिए": 1657,
      "इसकी": 1658,
      "हिन्": 1659,
      "लड़": 1660,
      "सुधार": 1661,
      "पिछ": 1662,
      "सुविधा": 1663,
      "विधि": 1664,
      "लना": 1665,
      "प्रभा": 1666,
      "पन्न": 1667,
      "ल्ली": 1668,
      "होकर": 1669,
      "निर्दिष्ट": 1670,
      "विंड": 1671,
      "निष्": 1672,
      "लाल": 1673,
      "झा": 1674,
      "क्षि": 1675,
      "कार्या": 1676,
      "राशि": 1677,
      "जिक": 1678,
      "र्य": 1679,
      "रहने": 1680,
      "ल्म": 1681,
      "मेरा": 1682,
      "नाथ": 1683,
      "अभी": 1684,
      "मध्य": 1685,
      "नियंत्र": 1686,
      "रिक्त": 1687,
      "विद्य": 1688,
      "परिवर्तन": 1689,
      "विभाग": 1690,
      "इनकार": 1691,
      "धिक": 1692,
      "जैसा": 1693,
      "उद्देश": 1694,
      "समूह": 1695,
      "एल": 1696,
      "कर्ता": 1697,
      "भो": 1698,
      "जनता": 1699,
      "तुमसे": 1700,
      "वर्ण": 1701,
      "ic": 1702,
      "15": 1703,
      "थो": 1704,
      "लाम": 1705,
      "पश्चा": 1706,
      "शं": 1707,
      "सामा": 1708,
      "प्रणाली": 1709,
      "बद्ध": 1710,
      "लगभग": 1711,
      "जानकारी": 1712,
      "लक्ष": 1713,
      "साल": 1714,
      "सारे": 1715,
      "क़ौ": 1716,
      "रखते": 1717,
      "निम्": 1718,
      "स्वीकार": 1719,
      "कहीं": 1720,
      "पर्या": 1721,
      "मंड": 1722,
      "सहयोग": 1723,
      "अवधि": 1724,
      "अमेरि": 1725,
      "टक": 1726,
      "वर्त": 1727,
      "फ़ोल्डर": 1728,
      "विद्यालय": 1729,
      "बदला": 1730,
      "अच्छी": 1731,
      "काफी": 1732,
      "संगठ": 1733,
      "ढा": 1734,
      "पर्क": 1735,
      "ऋण": 1736,
      "समस्या": 1737,
      "धे": 1738,
      "दम": 1739,
      "संस्था": 1740,
      "लागू": 1741,
      "मानव": 1742,
      "बन्द": 1743,
      "लॉ": 1744,
      "जानता": 1745,
      "वहां": 1746,
      "व्यापार": 1747,
      "सदस्य": 1748,
      "वक्त": 1749,
      "tr": 1750,
      "ee": 1751,
      "ंतर": 1752,
      "12": 1753,
      "ट्टी": 1754,
      "सामाजिक": 1755,
      "प्रती": 1756,
      "नेट": 1757,
      "देव": 1758,
      "मिला": 1759,
      "मामले": 1760,
      "कोशि": 1761,
      "आदेश": 1762,
      "गम": 1763,
      "सका": 1764,
      "जों": 1765,
      "डाल": 1766,
      "र्फ": 1767,
      "चान": 1768,
      "आख़": 1769,
      "इस्": 1770,
      "प्रस्तु": 1771,
      "ंचा": 1772,
      "मर्": 1773,
      "डियो": 1774,
      "दिल": 1775,
      "पोर्ट": 1776,
      "कल्प": 1777,
      "गर्": 1778,
      "निका": 1779,
      "ंट": 1780,
      "जाएगी": 1781,
      "बराबर": 1782,
      "यक़": 1783,
      "रिया": 1784,
      "पट": 1785,
      "क़ु": 1786,
      "क्षमता": 1787,
      "षित": 1788,
      "घटना": 1789,
      "आवश्यक": 1790,
      "लाई": 1791,
      "सुरक्षा": 1792,
      "म्बर": 1793,
      "लिखित": 1794,
      "जाओ": 1795,
      "उसको": 1796,
      "धारण": 1797,
      "संदेह": 1798,
      "वाई": 1799,
      "चन": 1800,
      "राय": 1801,
      "ht": 1802,
      "निवेश": 1803,
      "जगह": 1804,
      "¤¾": 1805,
      "उदा": 1806,
      "नया": 1807,
      "सै": 1808,
      "पित": 1809,
      "लेने": 1810,
      "आत": 1811,
      "वेब": 1812,
      "हमे": 1813,
      "यात्रा": 1814,
      "महिला": 1815,
      "किस": 1816,
      "साह": 1817,
      "जानते": 1818,
      "क़ौम": 1819,
      "कोर्इ": 1820,
      "वों": 1821,
      "युद्ध": 1822,
      "निर्ण": 1823,
      "जिससे": 1824,
      "हरण": 1825,
      "निम्न": 1826,
      "हक़": 1827,
      "तिक": 1828,
      "ुष": 1829,
      "लिम": 1830,
      "संधान": 1831,
      "पार्": 1832,
      "सही": 1833,
      "सत्य": 1834,
      "निस्": 1835,
      "पाल": 1836,
      "नए": 1837,
      "ंगे": 1838,
      "चुका": 1839,
      "ूम": 1840,
      "अभ": 1841,
      "रों": 1842,
      "आकार": 1843,
      "जाय": 1844,
      "तौर": 1845,
      "तिम": 1846,
      "तुमने": 1847,
      "ियां": 1848,
      "न्याय": 1849,
      "रोक": 1850,
      "अतिरिक्त": 1851,
      "प्ति": 1852,
      "बुरा": 1853,
      "कूल": 1854,
      "रहते": 1855,
      "तें": 1856,
      "उत्पादन": 1857,
      "कहने": 1858,
      "भाई": 1859,
      "आन": 1860,
      "ab": 1861,
      "op": 1862,
      "स्क": 1863,
      "बच्च": 1864,
      "अनुसंधान": 1865,
      "चुके": 1866,
      "चला": 1867,
      "मंदिर": 1868,
      "वेदन": 1869,
      "योग्य": 1870,
      "अंतर्गत": 1871,
      "मूसा": 1872,
      "पृष्ठ": 1873,
      "आकाश": 1874,
      "स्र": 1875,
      "यातना": 1876,
      "छु": 1877,
      "एफ": 1878,
      "महान": 1879,
      "समिति": 1880,
      "जाये": 1881,
      "बचा": 1882,
      "कृतिक": 1883,
      "शल": 1884,
      "वरी": 1885,
      "¥": 1886,
      "क्ता": 1887,
      "माँ": 1888,
      "र्च": 1889,
      "समु": 1890,
      "नही": 1891,
      "क्ट": 1892,
      "पश्चि": 1893,
      "वास्तव": 1894,
      "पाद": 1895,
      "उद्देश्य": 1896,
      "फू": 1897,
      "मेल": 1898,
      "माना": 1899,
      "साय": 1900,
      "हुक्": 1901,
      "जिन्हें": 1902,
      "ंस": 1903,
      "हाला": 1904,
      "वर्तमान": 1905,
      "en": 1906,
      "रान": 1907,
      "ंश": 1908,
      "कौन": 1909,
      "रोध": 1910,
      "स्वतंत्र": 1911,
      "ड्": 1912,
      "सिर्फ": 1913,
      "वर्षों": 1914,
      "खोज": 1915,
      "ष्ण": 1916,
      "संपर्क": 1917,
      "प्रारंभ": 1918,
      "परिवार": 1919,
      "लाइन": 1920,
      "ज़र": 1921,
      "अधिकारी": 1922,
      "स्वास्थ": 1923,
      "उपधारा": 1924,
      "ंधी": 1925,
      "मनुष": 1926,
      "छि": 1927,
      "प्रदेश": 1928,
      "कम्": 1929,
      "बनाए": 1930,
      "गीत": 1931,
      "परन्तु": 1932,
      "साहित्य": 1933,
      "विशिष्ट": 1934,
      "रिश्": 1935,
      "स्तान": 1936,
      "हमारा": 1937,
      "बेहतर": 1938,
      "इतिहास": 1939,
      "निकाल": 1940,
      "th": 1941,
      "इंड": 1942,
      "दक्षि": 1943,
      "अल": 1944,
      "दूसरी": 1945,
      "दुर्": 1946,
      "जन्": 1947,
      "संभव": 1948,
      "त्मा": 1949,
      "नित": 1950,
      "आरंभ": 1951,
      "ar": 1952,
      "स्वास्थ्य": 1953,
      "याँ": 1954,
      "तुमको": 1955,
      "बदल": 1956,
      "सेना": 1957,
      "निर्णय": 1958,
      "न्यू": 1959,
      "छवि": 1960,
      "ूब": 1961,
      "मुद्र": 1962,
      "दिल्ली": 1963,
      "पत्ति": 1964,
      "त्रुटि": 1965,
      "वहाँ": 1966,
      "ख़ा": 1967,
      "प्रशि": 1968,
      "शहर": 1969,
      "निर": 1970,
      "एक्स": 1971,
      "थीं": 1972,
      "टों": 1973,
      "हुक्म": 1974,
      "विवरण": 1975,
      "शरीर": 1976,
      "सिल": 1977,
      "भेज": 1978,
      "वत": 1979,
      "आख़िर": 1980,
      "झुठ": 1981,
      "उपा": 1982,
      "खी": 1983,
      "न्यायालय": 1984,
      "नर": 1985,
      "ot": 1986,
      "तरा": 1987,
      "शीर्ष": 1988,
      "जवा": 1989,
      "वहार": 1990,
      "न्यास": 1991,
      "स्थानी": 1992,
      "नौ": 1993,
      "डॉ": 1994,
      "¤": 1995,
      "पण": 1996,
      "¤°": 1997,
      "थम": 1998,
      "निर्देश": 1999,
      "gm": 2000,
      "सलमान": 2001,
      "बत": 2002,
      "प्रधानमंत्री": 2003,
      "अंग्रे": 2004,
      "लाख": 2005,
      "पालन": 2006,
      "जर": 2007,
      "सम्बन्": 2008,
      "11": 2009,
      "सिक": 2010,
      "वार्": 2011,
      "चै": 2012,
      "दया": 2013,
      "अपे": 2014,
      "परे": 2015,
      "मति": 2016,
      "बच्चों": 2017,
      "पुरा": 2018,
      "र्क": 2019,
      "मुसलमान": 2020,
      "सिंह": 2021,
      "छोटे": 2022,
      "ii": 2023,
      "श्रेणी": 2024,
      "ृत": 2025,
      "जिनके": 2026,
      "देखते": 2027,
      "kgm": 2028,
      "विश्वविद्यालय": 2029,
      "प्रस्तुत": 2030,
      "हमेशा": 2031,
      "प्रश्": 2032,
      "le": 2033,
      "सार्": 2034,
      "उत्पाद": 2035,
      "क्षर": 2036,
      "यक": 2037,
      "देगा": 2038,
      "वासी": 2039,
      "००": 2040,
      "अमेरिका": 2041,
      "कैसे": 2042,
      "मंत्रा": 2043,
      "विकसित": 2044,
      "परंतु": 2045,
      "जहाँ": 2046,
      "वास्ते": 2047,
      "संसा": 2048,
      "शिया": 2049,
      "वीं": 2050,
      "वृद्धि": 2051,
      "निर्धारण": 2052,
      "अग्र": 2053,
      "उदाहरण": 2054,
      "पुस्": 2055,
      "आसमान": 2056,
      "रचना": 2057,
      "त्ति": 2058,
      "थि": 2059,
      "लै": 2060,
      "योजित": 2061,
      "मौजूद": 2062,
      "द्वि": 2063,
      "स्थानीय": 2064,
      "name": 2065,
      "वित्": 2066,
      "निकल": 2067,
      "ब्रि": 2068,
      "पथ": 2069,
      "निधि": 2070,
      "विदेशी": 2071,
      "कित्": 2072,
      "स्वरूप": 2073,
      "Name": 2074,
      "जिन्होंने": 2075,
      "चीन": 2076,
      "संबंधी": 2077,
      "चू": 2078,
      "लेखा": 2079,
      "तहत": 2080,
      "भूत": 2081,
      "प्रस्ता": 2082,
      "ज़े": 2083,
      "प्रथम": 2084,
      "मक": 2085,
      "साइट": 2086,
      "श्वर": 2087,
      "लक": 2088,
      "दस्ता": 2089,
      "तारी": 2090,
      "मिले": 2091,
      "सक्र": 2092,
      "रण": 2093,
      "),": 2094,
      "फ़ि": 2095,
      "मिटा": 2096,
      "199": 2097,
      "मिन": 2098,
      "आधारित": 2099,
      "क़ि": 2100,
      "हटा": 2101,
      "स्थापना": 2102,
      "अफ": 2103,
      "भेजा": 2104,
      "अंतिम": 2105,
      "तत्व": 2106,
      "सार्व": 2107,
      "टिंग": 2108,
      "पाया": 2109,
      "वायु": 2110,
      "दिशा": 2111,
      "दृश्य": 2112,
      "किये": 2113,
      "प्रवेश": 2114,
      "सक्रिय": 2115,
      "अला": 2116,
      "गां": 2117,
      "समाप्त": 2118,
      "झू": 2119,
      "रिक": 2120,
      "करी": 2121,
      "जन्म": 2122,
      "प्रेम": 2123,
      "अनुभव": 2124,
      "ल्या": 2125,
      "निस्संदेह": 2126,
      "दारों": 2127,
      "लत": 2128,
      "विस्तार": 2129,
      "लगता": 2130,
      "भूमिका": 2131,
      "कारा": 2132,
      "जिसकी": 2133,
      "गांधी": 2134,
      "जल्": 2135,
      "जाति": 2136,
      "मित्र": 2137,
      "मॉ": 2138,
      "संयुक्त": 2139,
      "पहचान": 2140,
      "र्जा": 2141,
      "खेल": 2142,
      "पुरु": 2143,
      "ंब": 2144,
      "आस": 2145,
      "मांग": 2146,
      "वित्तीय": 2147,
      "आम": 2148,
      "दय": 2149,
      "चिकित्": 2150,
      "दस्तावे": 2151,
      "लक्ष्य": 2152,
      "राजनीति": 2153,
      "अनुमति": 2154,
      "ज़िल": 2155,
      "¥": 2156,
      "नियंत्रण": 2157,
      "पुस्तक": 2158,
      "स्‍": 2159,
      "पहुँचा": 2160,
      "नागर": 2161,
      "तृ": 2162,
      "रहता": 2163,
      "केन्द्र": 2164,
      "पुरुष": 2165,
      "चले": 2166,
      "बंद": 2167,
      "सर्व": 2168,
      "यक़ीन": 2169,
      "ड़ों": 2170,
      "विकल्प": 2171,
      "मूर्": 2172,
      "तकनी": 2173,
      "कमी": 2174,
      "बाजार": 2175,
      "पहुंच": 2176,
      "सला": 2177,
      "अप्र": 2178,
      "ऊँ": 2179,
      "सेट": 2180,
      "सफलता": 2181,
      "शर्": 2182,
      "ख़ु": 2183,
      "ल्क": 2184,
      "संरचना": 2185,
      "किसान": 2186,
      "दियों": 2187,
      "जहन्न": 2188,
      "मंत्रालय": 2189,
      "हिस्सा": 2190,
      "त्यु": 2191,
      "अन्त": 2192,
      "तत्": 2193,
      "सरकारी": 2194,
      "प्रयोजन": 2195,
      "डाक": 2196,
      "र्स": 2197,
      "यात": 2198,
      "मनुष्य": 2199,
      "option": 2200,
      "बाहरी": 2201,
      "सहायक": 2202,
      "रीब": 2203,
      "मल": 2204,
      "अनि": 2205,
      "नाज़िल": 2206,
      "30": 2207,
      "इत": 2208,
      "संविधान": 2209,
      "क्षक": 2210,
      "शाली": 2211,
      "मृत्यु": 2212,
      "प्रेर": 2213,
      "16": 2214,
      "जांच": 2215,
      "विंडो": 2216,
      "सत्ता": 2217,
      "खाता": 2218,
      "स्ती": 2219,
      "पहली": 2220,
      "प्रगति": 2221,
      "जीव": 2222,
      "ans": 2223,
      "पौ": 2224,
      "पूंजी": 2225,
      "कृप": 2226,
      "प्रबंधन": 2227,
      "भुग": 2228,
      "पहुँच": 2229,
      "टै": 2230,
      "पैग़": 2231,
      "is": 2232,
      "टल": 2233,
      "ीकरण": 2234,
      "पिछले": 2235,
      "कठि": 2236,
      "000": 2237,
      "do": 2238,
      "उपकरण": 2239,
      "पर्य": 2240,
      "लेते": 2241,
      "ज्ञात": 2242,
      "नागरिक": 2243,
      "सहित": 2244,
      "मही": 2245,
      "दिनों": 2246,
      "पुनर्": 2247,
      "50": 2248,
      "कांग": 2249,
      "पूर्वक": 2250,
      "समर्थन": 2251,
      "रहो": 2252,
      "कृपया": 2253,
      "यामत": 2254,
      "सोच": 2255,
      "वैज्ञान": 2256,
      "अलावा": 2257,
      "दक्षिण": 2258,
      "निशान": 2259,
      "गैर": 2260,
      "पड़ा": 2261,
      "सामग्री": 2262,
      "पसं": 2263,
      "सर्वर": 2264,
      "राजा": 2265,
      "पुनः": 2266,
      "भुगतान": 2267,
      "सहे": 2268,
      "साधारण": 2269,
      "लोड": 2270,
      "व्यवहार": 2271,
      "ज़रू": 2272,
      "रखता": 2273,
      "वैज्ञानिक": 2274,
      "ानि": 2275,
      "चरण": 2276,
      "स्रो": 2277,
      "च्छा": 2278,
      "म्मे": 2279,
      "मात्रा": 2280,
      "भीतर": 2281,
      "संशो": 2282,
      "बच": 2283,
      "वास्तविक": 2284,
      "इस्ते": 2285,
      "लिखा": 2286,
      "उत्पन्न": 2287,
      "टु": 2288,
      "अध्ययन": 2289,
      "क्रा": 2290,
      "वेद": 2291,
      "ंकि": 2292,
      "trans": 2293,
      "आदमी": 2294,
      "at": 2295,
      "प्रशिक्षण": 2296,
      "चर्": 2297,
      "बाप": 2298,
      "राज्यों": 2299,
      "लयों": 2300,
      "ब्रा": 2301,
      "बाज़": 2302,
      "बोर्ड": 2303,
      "खाते": 2304,
      "यंत्र": 2305,
      "वस": 2306,
      "खरी": 2307,
      "ऊर्जा": 2308,
      "ैंड": 2309,
      "उठ": 2310,
      "समुदा": 2311,
      "क्षमा": 2312,
      "नियों": 2313,
      "फाइल": 2314,
      "पल": 2315,
      "सुनिश्चित": 2316,
      "आधु": 2317,
      "मजब": 2318,
      "क़यामत": 2319,
      "च्चा": 2320,
      "बच्चे": 2321,
      "optional": 2322,
      "प्रश्न": 2323,
      "transla": 2324,
      "अर": 2325,
      "बान": 2326,
      "साब": 2327,
      "मजबू": 2328,
      "छ्": 2329,
      "जोर": 2330,
      "रक्षा": 2331,
      "जय": 2332,
      "यदा": 2333,
      "िता": 2334,
      "टू": 2335,
      "सियों": 2336,
      "सुना": 2337,
      "14": 2338,
      "सम्मान": 2339,
      "तौ": 2340,
      "विन": 2341,
      "उम्": 2342,
      "उनपर": 2343,
      "वापस": 2344,
      "जैसी": 2345,
      "सार्वज": 2346,
      "उपबंध": 2347,
      "हैः": 2348,
      "यद": 2349,
      "बर्": 2350,
      "फ़िर": 2351,
      "प्रकृति": 2352,
      "स्थायी": 2353,
      "खुद": 2354,
      "भौ": 2355,
      "वृत्ति": 2356,
      "साफ": 2357,
      "मरा": 2358,
      "इतना": 2359,
      "तीस": 2360,
      "परिक": 2361,
      "?\"": 2362,
      "सार्वजनिक": 2363,
      "युवा": 2364,
      "आत्म": 2365,
      "ील": 2366,
      "भ्र": 2367,
      "कमा": 2368,
      "जाएँगे": 2369,
      "दर्भ": 2370,
      "इस्तेमाल": 2371,
      "समझा": 2372,
      "ँच": 2373,
      "हस्ता": 2374,
      "ण्श्": 2375,
      "ऊण्श्": 2376,
      "छ्ष्": 2377,
      "ऊण्श्छ्ष्": 2378,
      "निकट": 2379,
      "पूर्ति": 2380,
      "काली": 2381,
      "न्व": 2382,
      "--": 2383,
      "शुभ": 2384,
      "धिकार": 2385,
      "चुनें": 2386,
      "चुना": 2387,
      "स्कार": 2388,
      "विष्य": 2389,
      "ly": 2390,
      "स्टे": 2391,
      "बातें": 2392,
      "भागी": 2393,
      "गठ": 2394,
      "उद्य": 2395,
      "भविष्य": 2396,
      "पूरे": 2397,
      "यें": 2398,
      "केंद": 2399,
      "क्रि": 2400,
      "देखने": 2401,
      "हरे": 2402,
      "मामलों": 2403,
      "बिल": 2404,
      "जरूरत": 2405,
      "र्जी": 2406,
      "ँह": 2407,
      "दशा": 2408,
      "दौ": 2409,
      "मय": 2410,
      "संगठन": 2411,
      "्रेस": 2412,
      "प्रिय": 2413,
      "पात": 2414,
      "म्ब": 2415,
      "जिनमें": 2416,
      "मालूम": 2417,
      "ौती": 2418,
      "अपरा": 2419,
      "जवाब": 2420,
      "ध्व": 2421,
      "ग्रामी": 2422,
      "लौट": 2423,
      "अत्यन्त": 2424,
      "उल्लेख": 2425,
      "मात्र": 2426,
      "बाव": 2427,
      "बातों": 2428,
      "वेबसाइट": 2429,
      "ेंट": 2430,
      "च्छे": 2431,
      "25": 2432,
      "ग्रामीण": 2433,
      "प्रभु": 2434,
      "वाही": 2435,
      "पहा": 2436,
      "pro": 2437,
      "कहो": 2438,
      "कोशिश": 2439,
      "13": 2440,
      "सक्षम": 2441,
      "दिखाएँ": 2442,
      "संके": 2443,
      "चारी": 2444,
      "संसद": 2445,
      "शख्": 2446,
      "्यूटर": 2447,
      "पश्चात": 2448,
      "यक़ीनन": 2449,
      "सदस्यों": 2450,
      "खिला": 2451,
      "om": 2452,
      "णि": 2453,
      "त्रि": 2454,
      "रिपोर्ट": 2455,
      "सवा": 2456,
      "लिंग": 2457,
      "लती": 2458,
      "मुँह": 2459,
      "बंगा": 2460,
      "बने": 2461,
      "नदी": 2462,
      "भारी": 2463,
      "ity": 2464,
      "करोड़": 2465,
      "ल्यू": 2466,
      "अर्था": 2467,
      "कने": 2468,
      "शख्स": 2469,
      "मुक्त": 2470,
      "कानून": 2471,
      "पैग़म्बर": 2472,
      "वर्ती": 2473,
      "समार": 2474,
      "म्भ": 2475,
      "उचित": 2476,
      "मों": 2477,
      "आँ": 2478,
      "रोप": 2479,
      "लिस": 2480,
      "196": 2481,
      "अपेक्षा": 2482,
      "नक": 2483,
      "सात": 2484,
      "क्टर": 2485,
      "हक": 2486,
      "केंद्रीय": 2487,
      "पिता": 2488,
      "प्रोत्": 2489,
      "शास्त्र": 2490,
      "आधुनिक": 2491,
      "एशिया": 2492,
      "ख़बर": 2493,
      "अध्यक्ष": 2494,
      "व्यापक": 2495,
      "मुद्रा": 2496,
      "वर्क": 2497,
      "गं": 2498,
      "नल": 2499,
      "डो": 2500,
      "//": 2501,
      "दल": 2502,
      "फु": 2503,
      "प्रस": 2504,
      "औद्योग": 2505,
      "¤¸": 2506,
      "एच": 2507,
      "'%": 2508,
      "आयु": 2509,
      "ईसा": 2510,
      "लिका": 2511,
      "संदर्भ": 2512,
      "ोगे": 2513,
      "पुकार": 2514,
      "पुरस्कार": 2515,
      "परीक्षा": 2516,
      "दिखाई": 2517,
      "ूँ": 2518,
      "कामना": 2519,
      "देती": 2520,
      "¤¿": 2521,
      "इनमें": 2522,
      "मुझ": 2523,
      "व्यक्त": 2524,
      "महत्": 2525,
      "निजी": 2526,
      "१९": 2527,
      "ख्त": 2528,
      "ठहरा": 2529,
      "बदले": 2530,
      "ग्रहण": 2531,
      "बयान": 2532,
      "सृ": 2533,
      "घोष": 2534,
      "ोग्रा": 2535,
      "प्राथ": 2536,
      "शायद": 2537,
      "संस्कृति": 2538,
      "वजह": 2539,
      "रोज": 2540,
      "नाटक": 2541,
      "बाल": 2542,
      "re": 2543,
      "://": 2544,
      "प्रदर्श": 2545,
      "कोण": 2546,
      "निर्भर": 2547,
      "क्रमण": 2548,
      "#-": 2549,
      "प्राथमिक": 2550,
      "गाह": 2551,
      "पेश": 2552,
      "केन्द": 2553,
      "se": 2554,
      "नू": 2555,
      "लाइ": 2556,
      "17": 2557,
      "बं": 2558,
      "मीटर": 2559,
      "कांग्रेस": 2560,
      "सदी": 2561,
      "योगदान": 2562,
      "सर्वो": 2563,
      "अधिका": 2564,
      "तय": 2565,
      "डिस्क": 2566,
      "पाए": 2567,
      "वधान": 2568,
      "पूछ": 2569,
      "ऑफ": 2570,
      "संगीत": 2571,
      "नगर": 2572,
      "निर्यात": 2573,
      "रखे": 2574,
      "स्वतंत्रता": 2575,
      "translation": 2576,
      "इस्लाम": 2577,
      "not": 2578,
      "शता": 2579,
      "स्य": 2580,
      "परिष": 2581,
      "चयनित": 2582,
      "आवेदन": 2583,
      "वित्त": 2584,
      "किंतु": 2585,
      "शांति": 2586,
      "व्यक्तियों": 2587,
      "नै": 2588,
      "‍य": 2589,
      "प्रस्ताव": 2590,
      "tp": 2591,
      "रखना": 2592,
      "¤": 2593,
      "्म": 2594,
      "चाहिये": 2595,
      "माता": 2596,
      "नमा": 2597,
      "श्त": 2598,
      "कीय": 2599,
      "मंडल": 2600,
      "लब": 2601,
      "हृ": 2602,
      "आतंक": 2603,
      "औद्योगिक": 2604,
      "रहेंगे": 2605,
      "अदा": 2606,
      "आशा": 2607,
      "क्का": 2608,
      "आयतों": 2609,
      "प्रकट": 2610,
      "eed": 2611,
      "रखो": 2612,
      "रल": 2613,
      "किंग": 2614,
      "सुरक्षित": 2615,
      "हन": 2616,
      "लियों": 2617,
      "ंख": 2618,
      "दिवस": 2619,
      "ंज": 2620,
      "रहम": 2621,
      "लागत": 2622,
      "बनी": 2623,
      "ित्व": 2624,
      "बिल्": 2625,
      "दीन": 2626,
      "लर": 2627,
      "युक्ति": 2628,
      "चर्चा": 2629,
      "http": 2630,
      "समारोह": 2631,
      "ट्स": 2632,
      "कार्यालय": 2633,
      "क्रो": 2634,
      "स्रोत": 2635,
      "कत": 2636,
      "मुद्": 2637,
      "need": 2638,
      "क़र": 2639,
      "¤¨": 2640,
      "आवा": 2641,
      "अवश्य": 2642,
      "पांच": 2643,
      "ंचे": 2644,
      "रकम": 2645,
      "चयन": 2646,
      "हद": 2647,
      "कारों": 2648,
      "दूसरा": 2649,
      "फार": 2650,
      "कार्ड": 2651,
      "कम्प": 2652,
      "रक्त": 2653,
      "प्रभावित": 2654,
      "शुरु": 2655,
      "ंकन": 2656,
      "यल": 2657,
      "अध्या": 2658,
      "ब्या": 2659,
      "मना": 2660,
      "आयोजित": 2661,
      "हट": 2662,
      "198": 2663,
      "प्रकाशित": 2664,
      "ढंग": 2665,
      "ताल": 2666,
      "संपत्ति": 2667,
      "मुस्": 2668,
      "चालन": 2669,
      "ृह": 2670,
      "इयों": 2671,
      "चो": 2672,
      "नव": 2673,
      "शताब्": 2674,
      "त्री": 2675,
      "डेटा": 2676,
      "शिका": 2677,
      "छू": 2678,
      "शुल्क": 2679,
      "समुदाय": 2680,
      "डाला": 2681,
      "ंगी": 2682,
      "विशा": 2683,
      "खोल": 2684,
      "ूप": 2685,
      "ड़ाई": 2686,
      "मेलन": 2687,
      "जिला": 2688,
      "पश्चिम": 2689,
      "फ़ॉ": 2690,
      "विभा": 2691,
      "प्राय": 2692,
      "रुद्ध": 2693,
      "राजनीतिक": 2694,
      "दोलन": 2695,
      "मशी": 2696,
      "सॉ": 2697,
      "तरण": 2698,
      "194": 2699,
      "संरक्षण": 2700,
      "ीप": 2701,
      "मारी": 2702,
      "ंग्": 2703,
      "कूट": 2704,
      "रेल": 2705,
      "निर्धारिती": 2706,
      "बंगाल": 2707,
      "क्शन": 2708,
      "पर्याप्त": 2709,
      "विद्या": 2710,
      "bab": 2711,
      "फ़ी": 2712,
      "दंड": 2713,
      "कदम": 2714,
      "मुसलमानों": 2715,
      "पाने": 2716,
      "बुद्धि": 2717,
      "City": 2718,
      "बोल": 2719,
      "संस्करण": 2720,
      "प्रशा": 2721,
      "सीधे": 2722,
      "does": 2723,
      "अवस्था": 2724,
      "देंगे": 2725,
      "पदार्थ": 2726,
      "लाते": 2727,
      "probab": 2728,
      "probably": 2729,
      "भंड": 2730,
      "वें": 2731,
      "चुकी": 2732,
      "समझौ": 2733,
      "छोटी": 2734,
      "यद्य": 2735,
      "सलाह": 2736,
      "बैठे": 2737,
      "शख़": 2738,
      "फ्ट": 2739,
      "हासिल": 2740,
      "टिक": 2741,
      "दायित्व": 2742,
      "आपकी": 2743,
      "बाग़": 2744,
      "केन्द्रीय": 2745,
      "सेवाओं": 2746,
      "आस्ति": 2747,
      "आत्मा": 2748,
      "बॉ": 2749,
      "मुखर्जी": 2750,
      "झी": 2751,
      "यथा": 2752,
      "विविध": 2753,
      "यद्यपि": 2754,
      "गुनाह": 2755,
      "लघु": 2756,
      "चिकित्सा": 2757,
      "इका": 2758,
      "हार्": 2759,
      "निम्नलिखित": 2760,
      "ड़क": 2761,
      "ज़रूर": 2762,
      "सिद्धा": 2763,
      "शैली": 2764,
      "प्रण": 2765,
      "वान्": 2766,
      "प्रमाणपत्र": 2767,
      "हिन्दी": 2768,
      "ol": 2769,
      "झूठ": 2770,
      "उल": 2771,
      "चक": 2772,
      "प्रभावी": 2773,
      "दस": 2774,
      "नमाज़": 2775,
      "):": 2776,
      "डिया": 2777,
      "197": 2778,
      "पंजी": 2779,
      "र्ण": 2780,
      "ान्": 2781,
      "हीन": 2782,
      "योक्ता": 2783,
      "हवा": 2784,
      "उट": 2785,
      "शेयर": 2786,
      "भूति": 2787,
      "केट": 2788,
      "कहना": 2789,
      "ँकि": 2790,
      "प्रत्यक्ष": 2791,
      "तरीके": 2792,
      "ou": 2793,
      "घ्र": 2794,
      "तेरे": 2795,
      "शब्दों": 2796,
      "धाई": 2797,
      "सकें": 2798,
      "आती": 2799,
      "नेता": 2800,
      "मियों": 2801,
      "रिए": 2802,
      "विशाल": 2803,
      "वत्ता": 2804,
      "हानि": 2805,
      "शाह": 2806,
      "फ़र": 2807,
      "आता": 2808,
      "वेयर": 2809,
      "आयोग": 2810,
      "स्कूल": 2811,
      "संसाधन": 2812,
      "हीम": 2813,
      "पद्ध": 2814,
      "जहन्नु": 2815,
      "पादन": 2816,
      "दृढ़": 2817,
      "ज़ु": 2818,
      "प्ता": 2819,
      "आयात": 2820,
      "हिक": 2821,
      "सूचित": 2822,
      "भेद": 2823,
      "पृथ": 2824,
      "st": 2825,
      "ज़ालिम": 2826,
      "सों": 2827,
      "बधाई": 2828,
      "निदेश": 2829,
      "आख़िरत": 2830,
      "विरुद्ध": 2831,
      "हल": 2832,
      "अत्या": 2833,
      "195": 2834,
      "मेहर": 2835,
      "गुणवत्ता": 2836,
      "सारी": 2837,
      "म्र": 2838,
      "सिर": 2839,
      "प्राकृतिक": 2840,
      "वार्य": 2841,
      "उपस्थित": 2842,
      "निर्मित": 2843,
      "शीघ्र": 2844,
      "भीर": 2845,
      "महारा": 2846,
      "सच": 2847,
      "men": 2848,
      "24": 2849,
      "धनों": 2850,
      "षक": 2851,
      "बैठक": 2852,
      "नेटवर्क": 2853,
      "पान": 2854,
      "अनिवार्य": 2855,
      "रखी": 2856,
      "भंडार": 2857,
      "चढ़": 2858,
      "पंचा": 2859,
      "पकड़": 2860,
      "अता": 2861,
      "मिली": 2862,
      "आते": 2863,
      "इला": 2864,
      "सीमित": 2865,
      "स्म": 2866,
      "छात्र": 2867,
      "धार्": 2868,
      "प्राचीन": 2869,
      "सम्बन्ध": 2870,
      "बौ": 2871,
      "प्राधि": 2872,
      "च्छेद": 2873,
      "फ्र": 2874,
      "पसंद": 2875,
      "टाइ": 2876,
      "प्रोग्रा": 2877,
      "संशोधन": 2878,
      "लगी": 2879,
      "छोड़कर": 2880,
      "उम्मी": 2881,
      "जनक": 2882,
      "इच्छा": 2883,
      "भोजन": 2884,
      "of": 2885,
      "समृ": 2886,
      "ज़ार": 2887,
      "प्रसन्न": 2888,
      "जली": 2889,
      "श्रम": 2890,
      "प्रदर्शन": 2891,
      "बन्दों": 2892,
      "दूरी": 2893,
      "बताया": 2894,
      "धार्मिक": 2895,
      "वीडियो": 2896,
      "कंप्यूटर": 2897,
      "लेना": 2898,
      "धीरे": 2899,
      "अगले": 2900,
      "ग़र": 2901,
      "वार्ष": 2902,
      "nic": 2903,
      "जल्दी": 2904,
      "क्रे": 2905,
      "दर्शा": 2906,
      "फेर": 2907,
      "हस्ताक्षर": 2908,
      "माइ": 2909,
      "दोष": 2910,
      "अक्": 2911,
      "वर्णन": 2912,
      "खर": 2913,
      "काट": 2914,
      "पें": 2915,
      "ग्राम": 2916,
      "तुलना": 2917,
      "डरा": 2918,
      "संचार": 2919,
      "घोषणा": 2920,
      "सम्मेलन": 2921,
      "खाने": 2922,
      "मर्श": 2923,
      "थर": 2924,
      "गतिविध": 2925,
      "पाक": 2926,
      "चारियों": 2927,
      "खड़े": 2928,
      "ब्याज": 2929,
      "ईश्वर": 2930,
      "कालीन": 2931,
      "हिदाय": 2932,
      "¤²": 2933,
      "व्यय": 2934,
      "अधिकारियों": 2935,
      "द्वार": 2936,
      "चिह्": 2937,
      "ूं": 2938,
      "समाधान": 2939,
      "पंक्ति": 2940,
      "पहुंचा": 2941,
      "कुंजी": 2942,
      "रखें": 2943,
      "अधिकांश": 2944,
      "अपील": 2945,
      "स्वामी": 2946,
      "प्ले": 2947,
      "गर्इ": 2948,
      "पॉ": 2949,
      "आउट": 2950,
      "पट्टी": 2951,
      "सख्त": 2952,
      "बनाना": 2953,
      "िश": 2954,
      "नियमित": 2955,
      "पश्चात्": 2956,
      "संकल्प": 2957,
      "लम": 2958,
      "पेट": 2959,
      "मरी": 2960,
      "संस्थानों": 2961,
      "सम्मि": 2962,
      "मूर्ति": 2963,
      "स्टर": 2964,
      "तुमपर": 2965,
      "आपका": 2966,
      "न्ट": 2967,
      "जोड़ें": 2968,
      "परं": 2969,
      "il": 2970,
      "डु": 2971,
      "उन्हीं": 2972,
      "हिदायत": 2973,
      "सिस्ट": 2974,
      "ंबर": 2975,
      "संभावना": 2976,
      "खर्च": 2977,
      "मिलता": 2978,
      "वैश्": 2979,
      "संस्कृत": 2980,
      "कार्यों": 2981,
      "कविता": 2982,
      "कृष्ण": 2983,
      "हालत": 2984,
      "संसार": 2985,
      "माने": 2986,
      "di": 2987,
      "ल्ड": 2988,
      "ैल": 2989,
      "द्वीप": 2990,
      "सच्चे": 2991,
      "तल": 2992,
      "तित": 2993,
      "तुममें": 2994,
      "चालित": 2995,
      "इबरा": 2996,
      "मीर": 2997,
      "स्थल": 2998,
      "टिश": 2999,
      "न्याया": 3000,
      "शुद्ध": 3001,
      "शाखा": 3002,
      "करनी": 3003,
      "परंपरा": 3004,
      "मजबूत": 3005,
      "व्र": 3006,
      "नसी": 3007,
      "फॉ": 3008,
      "आकर्": 3009,
      "उत": 3010,
      "शैतान": 3011,
      "इबराहीम": 3012,
      "प्रणब": 3013,
      "फरमा": 3014,
      "निर्वा": 3015,
      "जरूरी": 3016,
      "श्रेणीः": 3017,
      "तारीख": 3018,
      "इंडिया": 3019,
      "मुस्लिम": 3020,
      "ग़ा": 3021,
      "de": 3022,
      "तथ": 3023,
      "रिश्ते": 3024,
      "न्नत": 3025,
      "खाना": 3026,
      "फोन": 3027,
      "इज": 3028,
      "देखो": 3029,
      "बिल्कुल": 3030,
      "ग़रज़": 3031,
      "परिस्थिति": 3032,
      "समझते": 3033,
      "अना": 3034,
      "संपाद": 3035,
      "ैव": 3036,
      "शक़": 3037,
      "्यु": 3038,
      "दिलों": 3039,
      "रहती": 3040,
      "अपराध": 3041,
      "पुलिस": 3042,
      "रहना": 3043,
      "्राष्ट": 3044,
      "छोटा": 3045,
      "कट्": 3046,
      "फ़ार": 3047,
      "दुख": 3048,
      "पात्र": 3049,
      "स्क्र": 3050,
      "इंटर": 3051,
      "अनुप्रयोग": 3052,
      "खरीद": 3053,
      "मानते": 3054,
      "सें": 3055,
      "विरोध": 3056,
      "खिल": 3057,
      "वहन": 3058,
      "पीठ": 3059,
      "ब्रिटिश": 3060,
      "आश्": 3061,
      "नें": 3062,
      "हजार": 3063,
      "शताब्दी": 3064,
      "वंश": 3065,
      "शय": 3066,
      "अत": 3067,
      "असफल": 3068,
      "इन्ह": 3069,
      "ानों": 3070,
      "विफल": 3071,
      "आपने": 3072,
      "ww": 3073,
      "नाक": 3074,
      "दर्शी": 3075,
      "बले": 3076,
      "दिक": 3077,
      "चिं": 3078,
      "अंग्रेजी": 3079,
      "तला": 3080,
      "लैंड": 3081,
      "प्राप्ति": 3082,
      "#-#-": 3083,
      "अक": 3084,
      "तया": 3085,
      "गलत": 3086,
      "उम्मीद": 3087,
      "करनेवालों": 3088,
      "मेंट": 3089,
      "दाता": 3090,
      "अंश": 3091,
      "भाषण": 3092,
      "सामान": 3093,
      "सचि": 3094,
      "विवाह": 3095,
      "व्यक्तिगत": 3096,
      "किसानों": 3097,
      "साद": 3098,
      "प्रतीक": 3099,
      "सज़ा": 3100,
      "पुस्त": 3101,
      "अर्थव्यवस्था": 3102,
      "गुज": 3103,
      "पर्यावरण": 3104,
      "htm": 3105,
      "टुक": 3106,
      "द्धा": 3107,
      "समुद्र": 3108,
      "सौं": 3109,
      "विचारों": 3110,
      "रेखा": 3111,
      "हालाँकि": 3112,
      "आंदोलन": 3113,
      "कात": 3114,
      "औन": 3115,
      "शाला": 3116,
      "जहन्नुम": 3117,
      "सांस्": 3118,
      "संघर्ष": 3119,
      "अप्रैल": 3120,
      "राब": 3121,
      "अनुच्छेद": 3122,
      "प्रसार": 3123,
      "कानू": 3124,
      "्राष्ट्रीय": 3125,
      "रोजगार": 3126,
      "भय": 3127,
      "लाओ": 3128,
      "23": 3129,
      "संगत": 3130,
      "लग्": 3131,
      "मौजूदा": 3132,
      "आकाशों": 3133,
      "सत्या": 3134,
      "संतु": 3135,
      "परिषद": 3136,
      "संकेत": 3137,
      "साफ़": 3138,
      "सूर": 3139,
      "णु": 3140,
      "जूद": 3141,
      "काव्य": 3142,
      "जंग": 3143,
      "हम्": 3144,
      "इट": 3145,
      "कृष्ट": 3146,
      "द्द": 3147,
      "खुलती": 3148,
      "कोड": 3149,
      "प्रदर्शित": 3150,
      "आदर्श": 3151,
      "लता": 3152,
      "प्रवि": 3153,
      "अह": 3154,
      "मार्च": 3155,
      "अत्यंत": 3156,
      "लेखक": 3157,
      "कीमत": 3158,
      "कुफ्": 3159,
      "कां": 3160,
      "मानी": 3161,
      "कठिन": 3162,
      "महीने": 3163,
      "त्तर": 3164,
      "तरफ़": 3165,
      "झग": 3166,
      "प्रयोजनों": 3167,
      "ल्स": 3168,
      "सम्मिलित": 3169,
      "मिट्टी": 3170,
      "गिरोह": 3171,
      "चं": 3172,
      "चलते": 3173,
      "डल": 3174,
      "विंडों": 3175,
      "हिर": 3176,
      "नियमों": 3177,
      "अभिलेख": 3178,
      "देखें": 3179,
      "युग": 3180,
      "पद्धति": 3181,
      "नतम": 3182,
      "बख्": 3183,
      "देय": 3184,
      "सहम": 3185,
      "मिलने": 3186,
      "जिम्मे": 3187,
      "घरों": 3188,
      "सांस्कृतिक": 3189,
      "पों": 3190,
      "सदैव": 3191,
      "नये": 3192,
      "यूनि": 3193,
      "अफ्री": 3194,
      "बीमा": 3195,
      "पहला": 3196,
      "प्राण": 3197,
      "गांव": 3198,
      "तकनीकी": 3199,
      "गढ़": 3200,
      "क्षेत्रीय": 3201,
      "सारा": 3202,
      "जाँच": 3203,
      "भली": 3204,
      "पंजा": 3205,
      "मशीन": 3206,
      "बहा": 3207,
      "कक्ष": 3208,
      "लगाया": 3209,
      "तेजी": 3210,
      "संभा": 3211,
      "ार्थियों": 3212,
      "निशानियाँ": 3213,
      "गुरु": 3214,
      "लम्": 3215,
      "जिसको": 3216,
      "रहेगा": 3217,
      "कथा": 3218,
      "लियन": 3219,
      "न्त्र": 3220,
      "बढ़ाने": 3221,
      "अंदर": 3222,
      "शानी": 3223,
      "कथ": 3224,
      "कोशिका": 3225,
      "ल्ला": 3226,
      "खों": 3227,
      "ुत": 3228,
      "ªà": 3229,
      "अभिया": 3230,
      "महत्त्व": 3231,
      "इनके": 3232,
      "ment": 3233,
      "सागर": 3234,
      "तरित": 3235,
      "हृदय": 3236,
      "फ़ै": 3237,
      "गिज़": 3238,
      "दृष्टिकोण": 3239,
      "26": 3240,
      "बुरी": 3241,
      "र्व": 3242,
      "कहेंगे": 3243,
      "मालिक": 3244,
      "कश्": 3245,
      "खूब": 3246,
      "विवाद": 3247,
      "पना": 3248,
      "आर्": 3249,
      "आंक": 3250,
      "सरों": 3251,
      "तर्क": 3252,
      "वस्तुओं": 3253,
      "गरी": 3254,
      "गंभीर": 3255,
      "ंदर": 3256,
      "विनिर्दिष्ट": 3257,
      "प्रसिद्ध": 3258,
      "खाद्य": 3259,
      "प्रतिनि": 3260,
      "टेड": 3261,
      "तेज": 3262,
      "बिजली": 3263,
      "स्मृ": 3264,
      "प्रशं": 3265,
      "प्रशासन": 3266,
      "यण": 3267,
      "विदा": 3268,
      "बौद्ध": 3269,
      "आपस": 3270,
      "पत्थर": 3271,
      "वाक़ि": 3272,
      "सिस्टम": 3273,
      "घन": 3274,
      "पढ़ा": 3275,
      "जीवित": 3276,
      "सत्र": 3277,
      "खड़ा": 3278,
      "मंच": 3279,
      "लेता": 3280,
      "विद्व": 3281,
      "ंबई": 3282,
      "एह": 3283,
      "व्": 3284,
      "अंतरराष्ट्रीय": 3285,
      "रुपये": 3286,
      "जिनका": 3287,
      "एँगे": 3288,
      "सबको": 3289,
      "जादू": 3290,
      "दीर्": 3291,
      "वैश्विक": 3292,
      "पाई": 3293,
      "रहें": 3294,
      "पड़ता": 3295,
      "ह्म": 3296,
      "मज़": 3297,
      "बनाकर": 3298,
      "क़ुरान": 3299,
      "नियत": 3300,
      "नवी": 3301,
      "भाग्य": 3302,
      "पश्चिमी": 3303,
      "शिकायत": 3304,
      "एजें": 3305,
      "धो": 3306,
      "इतनी": 3307,
      "बरी": 3308,
      "बावजूद": 3309,
      "वाता": 3310,
      "सज": 3311,
      "ज्ञापन": 3312,
      "महिलाओं": 3313,
      "कार्र": 3314,
      "ड्र": 3315,
      "हिमा": 3316,
      "वार्षिक": 3317,
      "22": 3318,
      "नसीहत": 3319,
      "2014": 3320,
      "प्रभार": 3321,
      "ख़ि": 3322,
      "बढ़ावा": 3323,
      "अंध": 3324,
      "दबा": 3325,
      "हरगिज़": 3326,
      "दास": 3327,
      "नृ": 3328,
      "विनि": 3329,
      "संग्रह": 3330,
      "व्याख्या": 3331,
      "स्वच्छ": 3332,
      "समाचार": 3333,
      "उपयुक्त": 3334,
      "भला": 3335,
      "नेह": 3336,
      "मानसिक": 3337,
      "न्दा": 3338,
      "मां": 3339,
      "धानी": 3340,
      "क्ट्र": 3341,
      "प्लग": 3342,
      "लाना": 3343,
      "अनुवाद": 3344,
      "प्रयुक्त": 3345,
      "बनाई": 3346,
      "अधिकतम": 3347,
      "विस्तृत": 3348,
      "साझी": 3349,
      "प्रयासों": 3350,
      "पशु": 3351,
      "स्थिर": 3352,
      "डाटा": 3353,
      "समर्": 3354,
      "अधिकतर": 3355,
      "क़रीब": 3356,
      "100": 3357,
      "उत्तम": 3358,
      "ान्त": 3359,
      "मुना": 3360,
      "¤®": 3361,
      "रोज़ी": 3362,
      "एका": 3363,
      "कठोर": 3364,
      "तेल": 3365,
      "स्पर": 3366,
      "अरब": 3367,
      "कहानी": 3368,
      "el": 3369,
      "हिसाब": 3370,
      "ac": 3371,
      "ऑन": 3372,
      "क्षेप": 3373,
      "दर्द": 3374,
      "भरो": 3375,
      "देन": 3376,
      "ार्ड": 3377,
      "बुनिया": 3378,
      "वां": 3379,
      "विल": 3380,
      "28": 3381,
      "दिये": 3382,
      "सरक": 3383,
      "ज़रु": 3384,
      "मिशन": 3385,
      "दिखाया": 3386,
      "सच्चा": 3387,
      "पत": 3388,
      "हालांकि": 3389,
      "बिक": 3390,
      "21": 3391,
      "बूल": 3392,
      "शख़्": 3393,
      "मौसम": 3394,
      "ताव": 3395,
      "लिखने": 3396,
      "प्रि": 3397,
      "सूक्ष": 3398,
      "खोलें": 3399,
      "जानवर": 3400,
      "मार्गदर्शन": 3401,
      "स्त्री": 3402,
      "स्ट्र": 3403,
      "वासियों": 3404,
      "पार्टी": 3405,
      "देवी": 3406,
      "ग्रे": 3407,
      "प्रोग्राम": 3408,
      "the": 3409,
      "ल्यूशन": 3410,
      "मिलकर": 3411,
      "स्मृति": 3412,
      "समक्ष": 3413,
      "वेतन": 3414,
      "खाली": 3415,
      "वितरण": 3416,
      "घं": 3417,
      "एगा": 3418,
      "दीवार": 3419,
      "हिन्दू": 3420,
      "टर्": 3421,
      "गंगा": 3422,
      "्ति": 3423,
      "बाई": 3424,
      "सूस": 3425,
      "कटौती": 3426,
      "शुभकामना": 3427,
      "संलग्": 3428,
      "्यता": 3429,
      "स्पष्टीकरण": 3430,
      "निरंतर": 3431,
      "बारा": 3432,
      "करार": 3433,
      "अवै": 3434,
      "कल्या": 3435,
      "न्वयन": 3436,
      "रवी": 3437,
      "आज्ञा": 3438,
      "स्पर्": 3439,
      "विमान": 3440,
      "करनेवाला": 3441,
      "अनुमान": 3442,
      "परस्पर": 3443,
      "मूल्या": 3444,
      "सामना": 3445,
      "गृह": 3446,
      "ट्ट": 3447,
      "वायदा": 3448,
      "लेन": 3449,
      "खास": 3450,
      "चन्द्र": 3451,
      "किस्तान": 3452,
      "चलता": 3453,
      "ेंस": 3454,
      "उपभो": 3455,
      ")।": 3456,
      "सदन": 3457,
      "पाते": 3458,
      "पुत्र": 3459,
      "मोड": 3460,
      "कारबार": 3461,
      "पुट": 3462,
      "न्ना": 3463,
      "ल्ट": 3464,
      "तृत्व": 3465,
      "कर्मचारियों": 3466,
      "राजन": 3467,
      "भेजे": 3468,
      "सीख": 3469,
      "अंड": 3470,
      "गतिविधियों": 3471,
      "शून": 3472,
      "अके": 3473,
      "गहरा": 3474,
      "क्लिक": 3475,
      "ैर": 3476,
      "क्य": 3477,
      "¥": 3478,
      "त्न": 3479,
      "सुझा": 3480,
      "ट्रै": 3481,
      "रौ": 3482,
      "चम": 3483,
      "जिए": 3484,
      "हाथों": 3485,
      "परीक्षण": 3486,
      "इबाद": 3487,
      "दै": 3488,
      "ठिका": 3489,
      "पूर": 3490,
      "सूक्ष्म": 3491,
      "नियुक्त": 3492,
      "विश्ले": 3493,
      "नामक": 3494,
      "जानी": 3495,
      "तरिक": 3496,
      "आसान": 3497,
      "उसपर": 3498,
      "चारों": 3499,
      "ग्रं": 3500,
      "सकेगा": 3501,
      "मतलब": 3502,
      "27": 3503,
      "स्ना": 3504,
      "मनो": 3505,
      "इबादत": 3506,
      "राव": 3507,
      "दिख": 3508,
      "अफ्रीका": 3509,
      "बाह": 3510,
      "कुशल": 3511,
      "संपूर्ण": 3512,
      "णीय": 3513,
      "निगम": 3514,
      "ड्रा": 3515,
      "गुप्त": 3516,
      "स्वागत": 3517,
      "दावा": 3518,
      "मुर्": 3519,
      "ख़ास": 3520,
      "जाएं": 3521,
      "वातावरण": 3522,
      "सरण": 3523,
      "ढ़ी": 3524,
      "प्य": 3525,
      "तिथि": 3526,
      "र्द": 3527,
      "इत्या": 3528,
      "स्वर": 3529,
      "खुशी": 3530,
      "वाद्य": 3531,
      "तट": 3532,
      "माबू": 3533,
      "सूत्र": 3534,
      "ार्थी": 3535,
      "60": 3536,
      "वालो": 3537,
      "स्टा": 3538,
      "समे": 3539,
      "व्यवसाय": 3540,
      "सश": 3541,
      "भाल": 3542,
      "करनेवाले": 3543,
      "वचन": 3544,
      "शून्य": 3545,
      "अस": 3546,
      "अद्य": 3547,
      "अवैध": 3548,
      "स्क्रीन": 3549,
      "सरल": 3550,
      "देकर": 3551,
      "कहे": 3552,
      "खेती": 3553,
      "महसूस": 3554,
      "सर्वा": 3555,
      "क्षति": 3556,
      "गवाह": 3557,
      "कल्याण": 3558,
      "कदा": 3559,
      "¤¤": 3560,
      "निहित": 3561,
      "तुर": 3562,
      "ँव": 3563,
      "जनवरी": 3564,
      "अंतर्राष्ट्रीय": 3565,
      "ग्रस्त": 3566,
      "गठन": 3567,
      "माह": 3568,
      "काफ़िर": 3569,
      "निरा": 3570,
      "यूरोप": 3571,
      "सप्ता": 3572,
      "इजराय": 3573,
      "पाठ्य": 3574,
      "वृत्त": 3575,
      "2015": 3576,
      "ंखला": 3577,
      "दादा": 3578,
      "लिब": 3579,
      "पत्नी": 3580,
      "कार्रवाई": 3581,
      "किल": 3582,
      "चाल": 3583,
      "रोधी": 3584,
      "इन्हें": 3585,
      "ra": 3586,
      "आयोजन": 3587,
      "ट्रो": 3588,
      "प्रेरित": 3589,
      "साम्रा": 3590,
      "वादा": 3591,
      "जिनकी": 3592,
      "अस्ति": 3593,
      "उर्": 3594,
      "२००": 3595,
      "तौबा": 3596,
      "झुठलाया": 3597,
      "सुंदर": 3598,
      "कल्पना": 3599,
      "बनाएँ": 3600,
      "न्स": 3601,
      "श्रेष्ठ": 3602,
      "दत्त": 3603,
      "अनुमो": 3604,
      "माँग": 3605,
      "भलाई": 3606,
      "मूल्यांकन": 3607,
      "जग": 3608,
      "आयुक्त": 3609,
      "ज़ू": 3610,
      "हराम": 3611,
      "आये": 3612,
      "लगाने": 3613,
      "सिद्धांत": 3614,
      "प्रावधान": 3615,
      "चरित": 3616,
      "सहेजें": 3617,
      "गुज़र": 3618,
      "भाँ": 3619,
      "प्रसन्नता": 3620,
      "शुभकामनाएं": 3621,
      "ed": 3622,
      "ट्रे": 3623,
      "किरा": 3624,
      "बढ़कर": 3625,
      "भरोसा": 3626,
      "चुनाव": 3627,
      "दूध": 3628,
      "पुराने": 3629,
      "चलो": 3630,
      "विवे": 3631,
      "अक्सर": 3632,
      "समस्याओं": 3633,
      "जाल": 3634,
      "गुमरा": 3635,
      "पूर्ववर्ष": 3636,
      "समी": 3637,
      "ढूं": 3638,
      "हाद": 3639,
      "उपचार": 3640,
      "पेज": 3641,
      "कराने": 3642,
      "स्तंभ": 3643,
      "\"%": 3644,
      "लेखन": 3645,
      "वोल्यूशन": 3646,
      "हिस्से": 3647,
      "मिलती": 3648,
      "अन्तर्": 3649,
      "डिंग": 3650,
      "कितने": 3651,
      "चक्र": 3652,
      "वेक्षण": 3653,
      "तिहासिक": 3654,
      "निर्देशिका": 3655,
      "शख़्श": 3656,
      "मुक़ा": 3657,
      "कुमार": 3658,
      "pres": 3659,
      "ट्रा": 3660,
      "शत्रु": 3661,
      "ताप": 3662,
      "चीत": 3663,
      "परियोजनाओं": 3664,
      "31": 3665,
      "कार्यक्रमों": 3666,
      "शिव": 3667,
      "शीर्षक": 3668,
      "पर्यटन": 3669,
      "घे": 3670,
      "बख्श": 3671,
      "अस्तित्व": 3672,
      "मज": 3673,
      "यहू": 3674,
      "क़सम": 3675,
      "हिंदू": 3676,
      "शर": 3677,
      "संबो": 3678,
      "लक्षण": 3679,
      "उपाय": 3680,
      "वाणि": 3681,
      "ख़र्च": 3682,
      "कितनी": 3683,
      "बदलें": 3684,
      "खुले": 3685,
      "एवोल्यूशन": 3686,
      "नेतृत्व": 3687,
      "वाहि": 3688,
      "आतंकवाद": 3689,
      "बजे": 3690,
      "मुला": 3691,
      "विद्युत": 3692,
      "दस्तावेज": 3693,
      "अभियान": 3694,
      "गणराज्य": 3695,
      "नवान्": 3696,
      "ृंखला": 3697,
      "साधन": 3698,
      "इरा": 3699,
      "जायेगा": 3700,
      "वीय": 3701,
      "दुआ": 3702,
      "बोझ": 3703,
      "उत्कृष्ट": 3704,
      "मान्यता": 3705,
      "मिश्र": 3706,
      "क़ी": 3707,
      "2018": 3708,
      "बारी": 3709,
      "तकली": 3710,
      "सव": 3711,
      "प्रार्थ": 3712,
      "इंजी": 3713,
      "अंतरण": 3714,
      "इजरायल": 3715,
      "संग्र": 3716,
      "नवान्वे": 3717,
      "इले": 3718,
      "वित्र": 3719,
      "ड़ने": 3720,
      "धारणा": 3721,
      "इत्यादि": 3722,
      "वर्ड": 3723,
      "पड़ी": 3724,
      "हॉ": 3725,
      "उपन्यास": 3726,
      "संगण": 3727,
      "द्वितीय": 3728,
      "मोह": 3729,
      "ख्य": 3730,
      "ष्क": 3731,
      "80": 3732,
      "न्य": 3733,
      "दोस्त": 3734,
      "ज़ुल्म": 3735,
      "कमांड": 3736,
      "भाँति": 3737,
      "....": 3738,
      "संस्थाओं": 3739,
      "गिन": 3740,
      "होनी": 3741,
      "अनुसरण": 3742,
      "Com": 3743,
      "निशानी": 3744,
      "त्मिक": 3745,
      "कॉल": 3746,
      "कर्मचारी": 3747,
      "प्रार्थना": 3748,
      "बिक्री": 3749,
      "जातियों": 3750,
      "पूजा": 3751,
      "डाउन": 3752,
      "क्सी": 3753,
      "¤": 3754,
      "लाद": 3755,
      "जाग": 3756,
      "बेटे": 3757,
      "भागों": 3758,
      "बढ": 3759,
      "निदेशक": 3760,
      "आपूर्ति": 3761,
      "दिना": 3762,
      "प्रचार": 3763,
      "रिंग": 3764,
      "शुक्र": 3765,
      "मोमि": 3766,
      "स्की": 3767,
      "ज़ोर": 3768,
      "कन": 3769,
      "लिपि": 3770,
      "पंचांग": 3771,
      "कौशल": 3772,
      "घरे": 3773,
      "वृक्ष": 3774,
      "क्रांति": 3775,
      "परहे": 3776,
      "ईमानदारों": 3777,
      "her": 3778,
      "ज़्या": 3779,
      "बातचीत": 3780,
      "बुराई": 3781,
      "रास्ता": 3782,
      "मानक": 3783,
      "ta": 3784,
      "फार्": 3785,
      "बनाते": 3786,
      "लॉग": 3787,
      "जून": 3788,
      "फिल्म": 3789,
      "ऐतिहासिक": 3790,
      "मामला": 3791,
      "कलन": 3792,
      "जात": 3793,
      "ल्टर": 3794,
      "विशेषता": 3795,
      "सप्ताह": 3796,
      "वाणिज्य": 3797,
      "न्दगी": 3798,
      "प्रच": 3799,
      "साक्ष": 3800,
      "विद्यार्थियों": 3801,
      "सैनिक": 3802,
      "इकाई": 3803,
      "40": 3804,
      "मज़ा": 3805,
      "अर्थात्": 3806,
      "ट्यू": 3807,
      "कीट": 3808,
      "तुर्": 3809,
      "पाकिस्तान": 3810,
      "सुबह": 3811,
      "घाटन": 3812,
      "आठ": 3813,
      "आध्या": 3814,
      "मिटाएँ": 3815,
      "जानने": 3816,
      "हम्मद": 3817,
      "आइ": 3818,
      "सुख": 3819,
      "डरते": 3820,
      "तोष": 3821,
      "2016": 3822,
      "अत्यधिक": 3823,
      "आनंद": 3824,
      "उतर": 3825,
      "भारती": 3826,
      "पलट": 3827,
      "ध्वनि": 3828,
      "¤¯": 3829,
      "लिप": 3830,
      "भगवान": 3831,
      "उदार": 3832,
      "विरा": 3833,
      "आयतें": 3834,
      "प्रोत्साह": 3835,
      "धीश": 3836,
      "ष्ट्र": 3837,
      "ूबर": 3838,
      "संबंधों": 3839,
      "बुनियादी": 3840,
      "विशेषज्ञ": 3841,
      "िम": 3842,
      "बैंकों": 3843,
      "ठिकाना": 3844,
      "ec": 3845,
      "ठे": 3846,
      "मीडिया": 3847,
      "सूर्य": 3848,
      "स्थानों": 3849,
      "देखभाल": 3850,
      "ऊंचा": 3851,
      "प्रतिक्रिया": 3852,
      "इतने": 3853,
      "पूज्य": 3854,
      "प्रभुत्व": 3855,
      "गुमराही": 3856,
      "जुड़े": 3857,
      "डाले": 3858,
      "गरीब": 3859,
      "मानो": 3860,
      "लोकप्रिय": 3861,
      "दयालु": 3862,
      "खन": 3863,
      "चाई": 3864,
      "उपयोक्ता": 3865,
      "गणना": 3866,
      "उद्यम": 3867,
      "कालिक": 3868,
      "हिंसा": 3869,
      "कानूनी": 3870,
      "टिप्": 3871,
      "ष्ठा": 3872,
      "सामर्थ": 3873,
      "रिश्तों": 3874,
      "विषयों": 3875,
      "थोड़ा": 3876,
      "ंतरण": 3877,
      "विजय": 3878,
      "ख्याल": 3879,
      "सवाल": 3880,
      "फ्टवेयर": 3881,
      "कॉन्": 3882,
      "हिंदु": 3883,
      "इकट्": 3884,
      "नाई": 3885,
      "बाँ": 3886,
      "पहल": 3887,
      "2013": 3888,
      "करीब": 3889,
      "नष्ट": 3890,
      "लोकतंत्र": 3891,
      "धीन": 3892,
      "महल": 3893,
      "पहाड़": 3894,
      "बनने": 3895,
      "हालॉ": 3896,
      "खिलाफ": 3897,
      "आओ": 3898,
      "चेतना": 3899,
      "छूट": 3900,
      "जहा": 3901,
      "हस्त": 3902,
      "विन्यास": 3903,
      "पवित्र": 3904,
      "पोषण": 3905,
      "पुस्ति": 3906,
      "चलने": 3907,
      "घात": 3908,
      "इंजीनिय": 3909,
      "भूल": 3910,
      "कहता": 3911,
      "फ़ैसला": 3912,
      "दूसरों": 3913,
      "उम्र": 3914,
      "क़र्र": 3915,
      "अमरी": 3916,
      "लेज": 3917,
      "अद्यतन": 3918,
      "शनल": 3919,
      "Comment": 3920,
      "आध्यात्मिक": 3921,
      "पुस्तिका": 3922,
      "न्यूनतम": 3923,
      "35": 3924,
      "पढ़ने": 3925,
      "खतर": 3926,
      "ख़ुद": 3927,
      "काफिर": 3928,
      "क्षिक": 3929,
      "पूर्वी": 3930,
      "कलक": 3931,
      "न्‍": 3932,
      "संचालन": 3933,
      "टिल": 3934,
      "लगातार": 3935,
      "मास": 3936,
      "आजा": 3937,
      "¥": 3938,
      "सीधा": 3939,
      "दित": 3940,
      "सेवाएं": 3941,
      "घरेलू": 3942,
      "अनुकूल": 3943,
      "स्ट्रे": 3944,
      "स्त्रियों": 3945,
      "पारि": 3946,
      "प्रायः": 3947,
      "लोकन": 3948,
      "स्टी": 3949,
      "नाट": 3950,
      "क्रय": 3951,
      "मेहरबान": 3952,
      "uk": 3953,
      "खण्ड": 3954,
      "गवाही": 3955,
      "मई": 3956,
      "निपट": 3957,
      "तीव्र": 3958,
      "परहेज़": 3959,
      "परामर्श": 3960,
      "प्रका": 3961,
      "प्रतिष्ठ": 3962,
      "प्रेत": 3963,
      "पसन्द": 3964,
      "एंड": 3965,
      "वर्धन": 3966,
      "सिवाय": 3967,
      "2000": 3968,
      "प्रोत्साहन": 3969,
      "हालॉकि": 3970,
      "अवि": 3971,
      "समस्त": 3972,
      "आंतरिक": 3973,
      "हिंदी": 3974,
      "नृत्य": 3975,
      "जोखि": 3976,
      "भाषाओं": 3977,
      "विद्यालयों": 3978,
      "असमर्थ": 3979,
      "चर्य": 3980,
      "चीज": 3981,
      "अर्थात": 3982,
      "वीर": 3983,
      "संसाधनों": 3984,
      "सहकारी": 3985,
      "प्रदू": 3986,
      "नहर": 3987,
      "मधु": 3988,
      "एकत्र": 3989,
      "नबी": 3990,
      "ब्रे": 3991,
      "पारित": 3992,
      "घटा": 3993,
      "मछ": 3994,
      "रद्द": 3995,
      "लाता": 3996,
      "प्रारूप": 3997,
      "गुम": 3998,
      "चिका": 3999,
      "त्याग": 4000,
      "मुंबई": 4001,
      "कर्ताओं": 4002,
      "उठाने": 4003,
      "कियों": 4004,
      "हल्": 4005,
      "अज्ञात": 4006,
      "आग्रह": 4007,
      "करवा": 4008,
      "जाकर": 4009,
      "उतार": 4010,
      "hi": 4011,
      "मुक": 4012,
      "नागरिकों": 4013,
      "सभ": 4014,
      "ैतिक": 4015,
      "रास्ते": 4016,
      "ऑनलाइन": 4017,
      "गुजरात": 4018,
      "महत्त्वपूर्ण": 4019,
      "तमाम": 4020,
      "वसाय": 4021,
      "तुल": 4022,
      "विधे": 4023,
      "निर्वाचन": 4024,
      "माबूद": 4025,
      "29": 4026,
      "तभी": 4027,
      "बीज": 4028,
      "फ़्र": 4029,
      "भागीदारी": 4030,
      "ंदा": 4031,
      "तरीका": 4032,
      "देखकर": 4033,
      "वक": 4034,
      "प्रेरणा": 4035,
      "इलेक्ट्र": 4036,
      "रुपए": 4037,
      "यूसु": 4038,
      "तमिल": 4039,
      "01": 4040,
      "निरी": 4041,
      "तुझे": 4042,
      "ानु": 4043,
      "लंब": 4044,
      "घोषित": 4045,
      "शुरुआत": 4046,
      "लड़के": 4047,
      "मस्": 4048,
      "रजि": 4049,
      "सचिव": 4050,
      "ज़रुर": 4051,
      "कारक": 4052,
      "सामर्थ्य": 4053,
      "खुली": 4054,
      "लिखी": 4055,
      "चंद्र": 4056,
      "नक़": 4057,
      "लोगो": 4058,
      "अगस्त": 4059,
      "पूछा": 4060,
      "मौत": 4061,
      "जाएंगे": 4062,
      "मुक़र्र": 4063,
      "दश": 4064,
      "सदा": 4065,
      "ॉप": 4066,
      "उद्घाटन": 4067,
      "लड़ाई": 4068,
      "भौतिक": 4069,
      "परिस्थितियों": 4070,
      "आसानी": 4071,
      "दस्तावेज़": 4072,
      "अभिप्रेत": 4073,
      "गोल": 4074,
      "शोध": 4075,
      "दयावान": 4076,
      "सर्वोच्च": 4077,
      "भोग": 4078,
      "ल्ल": 4079,
      "ख़ूब": 4080,
      "साम्राज्य": 4081,
      "दीर्घ": 4082,
      "जॉ": 4083,
      "ध्": 4084,
      ":%": 4085,
      "अका": 4086,
      "च्ची": 4087,
      "अस्प": 4088,
      "स्वतः": 4089,
      "स्ट्री": 4090,
      "खुश": 4091,
      "महिम": 4092,
      "तथ्य": 4093,
      "राई": 4094,
      "!\"": 4095,
      "संवाद": 4096,
      "बदलाव": 4097,
      "प्रशंसा": 4098,
      "परो": 4099,
      "बाग": 4100,
      "ग़ालिब": 4101,
      "औष": 4102,
      "दयालुता": 4103,
      "चन्द": 4104,
      "न्यायाधीश": 4105,
      "बिं": 4106,
      "लान": 4107,
      "बाबत": 4108,
      "मैदान": 4109,
      "म्स": 4110,
      "शंकर": 4111,
      "शाही": 4112,
      "किनारे": 4113,
      "अक्ष": 4114,
      "दवा": 4115,
      "षा": 4116,
      "ज़त": 4117,
      "वैध": 4118,
      "फसल": 4119,
      "छह": 4120,
      "ढे": 4121,
      "प्रय": 4122,
      "विश्लेषण": 4123,
      "नोट": 4124,
      "उपयोगी": 4125,
      "विरोधी": 4126,
      "लामी": 4127,
      "अधिकारों": 4128,
      "काग": 4129,
      "सिंग": 4130,
      "लौटा": 4131,
      "ारों": 4132,
      "वर्षा": 4133,
      "मस": 4134,
      "html": 4135,
      "टें": 4136,
      "औरतों": 4137,
      "स्पे": 4138,
      "ंजन": 4139,
      "कर्त": 4140,
      "वैसे": 4141,
      "बोले": 4142,
      ":-": 4143,
      "रीति": 4144,
      "उत्पादों": 4145,
      "धों": 4146,
      "सीडी": 4147,
      "पालिका": 4148,
      "वादियों": 4149,
      "खुला": 4150,
      "पक्षीय": 4151,
      "कुफ्फ़ार": 4152,
      "देखता": 4153,
      "जितना": 4154,
      "नूह": 4155,
      "कोवि": 4156,
      "वर्गी": 4157,
      "ent": 4158,
      "प्राथमिकता": 4159,
      "वहीं": 4160,
      "कहाँ": 4161,
      "देखे": 4162,
      "महामहिम": 4163,
      "धियों": 4164,
      "फैसला": 4165,
      "वॉ": 4166,
      "पीय": 4167,
      "सरदार": 4168,
      "लेंगे": 4169,
      "संबोधित": 4170,
      "चली": 4171,
      "मस्ति": 4172,
      "प्रतिनिधित": 4173,
      "मुक़ाबले": 4174,
      "लिंक": 4175,
      "वली": 4176,
      "जीत": 4177,
      "साबित": 4178,
      "संकट": 4179,
      "उपक्रम": 4180,
      "दरवा": 4181,
      "जल्द": 4182,
      "ग्राहक": 4183,
      "पृथ्": 4184,
      "ur": 4185,
      "पूर्वा": 4186,
      "फ्रा": 4187,
      "ष्टा": 4188,
      "क्रिय": 4189,
      "ीनी": 4190,
      "भाषित": 4191,
      "कितना": 4192,
      "बीमारी": 4193,
      "समृद्ध": 4194,
      "प्रकाशन": 4195,
      "ma": 4196,
      "करेगी": 4197,
      "मुझसे": 4198,
      "पदा": 4199,
      "एकल": 4200,
      "आक्रमण": 4201,
      "दायी": 4202,
      "सिफार": 4203,
      "फें": 4204,
      "साथी": 4205,
      "शोक": 4206,
      "समझौता": 4207,
      "प्री": 4208,
      "ड़ते": 4209,
      "बीमार": 4210,
      "मोबा": 4211,
      "मैने": 4212,
      "आलो": 4213,
      "शहरी": 4214,
      "आना": 4215,
      "नेताओं": 4216,
      "हाई": 4217,
      "लील": 4218,
      "अध्याय": 4219,
      "अनुरोध": 4220,
      "परिणामस्वरूप": 4221,
      "नेहरू": 4222,
      "id": 4223,
      "विपरी": 4224,
      "एकता": 4225,
      "बेस": 4226,
      "शौ": 4227,
      "शारी": 4228,
      "अन्दर": 4229,
      "विद्यमान": 4230,
      "08": 4231,
      "उधार": 4232,
      "विपरीत": 4233,
      "बीर": 4234,
      "जनसंख्या": 4235,
      "टेली": 4236,
      "नज़र": 4237,
      "रेट": 4238,
      "अनुरूप": 4239,
      "उपबंधों": 4240,
      "चीज़ों": 4241,
      "जाओगे": 4242,
      "हला": 4243,
      "पंजाब": 4244,
      "कर्तव्य": 4245,
      "प्रतिनिधित्व": 4246,
      "होंगी": 4247,
      "कालय": 4248,
      "भरे": 4249,
      "ज़ल": 4250,
      "जिनको": 4251,
      "कारात्मक": 4252,
      "मेन": 4253,
      "चुने": 4254,
      "यक़ीनी": 4255,
      "पृथ्वी": 4256,
      "कूटशब्द": 4257,
      "ढूंढ": 4258,
      "जोखिम": 4259,
      "यूरो": 4260,
      "समाप्ति": 4261,
      "अक्षम": 4262,
      "कुरान": 4263,
      "सर्वेक्षण": 4264,
      "सर्वाधिक": 4265,
      "मोबाइल": 4266,
      "ूल": 4267,
      "ैर्य": 4268,
      "नाश": 4269,
      "आनन्द": 4270,
      "कीन": 4271,
      "सरकारों": 4272,
      "परिवर्तित": 4273,
      "सुल": 4274,
      "बन्दगी": 4275,
      "वट": 4276,
      "प्रतीत": 4277,
      "पत्रिका": 4278,
      "सना": 4279,
      "देशी": 4280,
      "आरम्भ": 4281,
      "राजनैतिक": 4282,
      "प्रतिभा": 4283,
      "संगठनों": 4284,
      "मुक़र्रर": 4285,
      "आश्चर्य": 4286,
      "muk": 4287,
      "औलाद": 4288,
      "सलाम": 4289,
      "हथ": 4290,
      "किलो": 4291,
      "भक्ति": 4292,
      "जना": 4293,
      "पर्व": 4294,
      "धक": 4295,
      "प्रदाय": 4296,
      "िक़": 4297,
      "अहम": 4298,
      "मक्": 4299,
      "pran": 4300,
      "पंजीकरण": 4301,
      "ing": 4302,
      "जरूर": 4303,
      "कब": 4304,
      "ोस": 4305,
      "ज़रा": 4306,
      "सुविधाओं": 4307,
      "बैक": 4308,
      "क़िया": 4309,
      "jee": 4310,
      "गोया": 4311,
      "abmuk": 4312,
      "ग्रंथ": 4313,
      "herjee": 4314,
      "pranabmuk": 4315,
      "pranabmukherjee": 4316,
      "मुश्": 4317,
      "हिन्दु": 4318,
      "सृजन": 4319,
      "पहुँचे": 4320,
      "उठाए": 4321,
      "आवास": 4322,
      "prh": 4323,
      "प्रतीक्षा": 4324,
      "उपभोक्ता": 4325,
      "गौर": 4326,
      "मुं": 4327,
      "परिवहन": 4328,
      "फिरऔन": 4329,
      "गैस": 4330,
      "आवाज़": 4331,
      "अब्": 4332,
      "कड़ी": 4333,
      "प्राधिकारी": 4334,
      "हमसे": 4335,
      "काफ़ी": 4336,
      "धैर्य": 4337,
      "उद्योगों": 4338,
      "जरिए": 4339,
      "दरा": 4340,
      "हैंः": 4341,
      "विभाजन": 4342,
      "शारीरिक": 4343,
      "नमू": 4344,
      "इन्कार": 4345,
      "(%": 4346,
      "iv": 4347,
      "ूर": 4348,
      "दरत": 4349,
      "ज़िम्मे": 4350,
      "घंटे": 4351,
      "औसत": 4352,
      "कोल": 4353,
      "सब्": 4354,
      "सजदा": 4355,
      "हाइ": 4356,
      "अमेरिकी": 4357,
      "कार्यान्वयन": 4358,
      "शिकार": 4359,
      "बिहार": 4360,
      "दर्शक": 4361,
      "नियंत्रित": 4362,
      "दशक": 4363,
      "कश्मीर": 4364,
      "निगर": 4365,
      "बिंदु": 4366,
      "स्को": 4367,
      "जिले": 4368,
      "पाठ्यक्रम": 4369,
      "ME": 4370,
      "हत्या": 4371,
      "स्थि": 4372,
      "उच्चतम": 4373,
      "खान": 4374,
      "असम": 4375,
      "नेअ": 4376,
      "अधिसूचना": 4377,
      "रानी": 4378,
      "जिनसे": 4379,
      "सीसी": 4380,
      "शैक्षिक": 4381,
      "जमीन": 4382,
      "कुफ़्र": 4383,
      "कना": 4384,
      "देर": 4385,
      "रहमत": 4386,
      "बाबू": 4387,
      "बुद्ध": 4388,
      "श्रृंखला": 4389,
      "बज": 4390,
      "नुक": 4391,
      "ईमानदार": 4392,
      "चेताव": 4393,
      "मिनट": 4394,
      "मुद्दों": 4395,
      "ut": 4396,
      "रॉ": 4397,
      "जैव": 4398,
      "नयी": 4399,
      "लेट": 4400,
      "त्तम": 4401,
      "¤¹": 4402,
      "ज़ाहिर": 4403,
      "रस": 4404,
      "चालू": 4405,
      "त्कार": 4406,
      "घड़ी": 4407,
      "अंक": 4408,
      "उठाया": 4409,
      "सराह": 4410,
      "अली": 4411,
      "भरा": 4412,
      "सुभाष": 4413,
      "हटकर": 4414,
      "एकी": 4415,
      "पेंशन": 4416,
      "न्वित": 4417,
      "ज़िन्दगी": 4418,
      "qu": 4419,
      "तोड़": 4420,
      "भक्त": 4421,
      "घटनाओं": 4422,
      "चुनौती": 4423,
      "सन्तान": 4424,
      "ड्स": 4425,
      "समीक्षा": 4426,
      "तूने": 4427,
      "ंतों": 4428,
      "मांस": 4429,
      "पुष्टि": 4430,
      "बदलने": 4431,
      "इंटरनेट": 4432,
      "रआन": 4433,
      "प्ला": 4434,
      "द्रा": 4435,
      "दर्ज": 4436,
      "इंडि": 4437,
      "नेअमत": 4438,
      "ch": 4439,
      "ष्णु": 4440,
      "सॉफ्टवेयर": 4441,
      "सहज": 4442,
      "वसायिक": 4443,
      "सेटिंग": 4444,
      "नाइ": 4445,
      "अकबर": 4446,
      "प्रोत्साहित": 4447,
      "महाराष्ट्र": 4448,
      "सिफारिश": 4449,
      "एक्": 4450,
      "प्रशास": 4451,
      "केरल": 4452,
      "कार्यवाही": 4453,
      "शीलता": 4454,
      "अनुप": 4455,
      "निगरानी": 4456,
      "अगला": 4457,
      "मंग": 4458,
      "चारिक": 4459,
      "श्रमिक": 4460,
      "तारा": 4461,
      "ख्वाह": 4462,
      "जहन्नम": 4463,
      "‍त": 4464,
      "नेशनल": 4465,
      "करोगे": 4466,
      "2017": 4467,
      "छात्रों": 4468,
      "ce": 4469,
      "ंव": 4470,
      "तीत": 4471,
      "विशेषकर": 4472,
      "for": 4473,
      "तेरी": 4474,
      "उत्तरा": 4475,
      "मूल्यों": 4476,
      "रेलवे": 4477,
      "कोष": 4478,
      "रोकने": 4479,
      "निष्क्रिय": 4480,
      "समर्पित": 4481,
      "vi": 4482,
      "अन्यथा": 4483,
      "पैग़म्बरों": 4484,
      "”-": 4485,
      "शिखर": 4486,
      "अभिव्यक्ति": 4487,
      "सुनने": 4488,
      "कलकत्ता": 4489,
      "शरीक": 4490,
      "सचे": 4491,
      "इसको": 4492,
      "लिन": 4493,
      "बजाय": 4494,
      "गारों": 4495,
      "तकनीक": 4496,
      "हरि": 4497,
      "दिनांक": 4498,
      "संयंत्र": 4499,
      "गाय": 4500,
      "क़्": 4501,
      "कनेक्शन": 4502,
      "विधेयक": 4503,
      "मस्तिष्क": 4504,
      "महात्मा": 4505,
      "कराया": 4506,
      "कहान": 4507,
      "मिलेगा": 4508,
      "नक़ल": 4509,
      "होम": 4510,
      "क्षकों": 4511,
      "क्रिप्": 4512,
      "मुसी": 4513,
      "जुलाई": 4514,
      "गुफा": 4515,
      "राज्यपाल": 4516,
      "उड़": 4517,
      "वरि": 4518,
      "दोबारा": 4519,
      "चिह्न": 4520,
      "आकर": 4521,
      "तस्वी": 4522,
      "to": 4523,
      "मारे": 4524,
      "न्द्रनाथ": 4525,
      "दूँ": 4526,
      "रेश": 4527,
      "ज़िन्दा": 4528,
      "भंडारण": 4529,
      "द्री": 4530,
      "दस्त": 4531,
      "नॉ": 4532,
      "मती": 4533,
      "शहरों": 4534,
      "यदे": 4535,
      "स्वि": 4536,
      "स्मार": 4537,
      "us": 4538,
      "लगते": 4539,
      "मंजू": 4540,
      "अचान": 4541,
      "नारा": 4542,
      "जाम": 4543,
      "समग्र": 4544,
      "कृतज्ञ": 4545,
      "जलवायु": 4546,
      "चार्": 4547,
      "भरी": 4548,
      "टेन": 4549,
      "ंपरिक": 4550,
      "ase": 4551,
      "वर्तन": 4552,
      "टीम": 4553,
      "आराम": 4554,
      "इनका": 4555,
      "स्वस्थ": 4556,
      "इसने": 4557,
      "पृष्ठभूमि": 4558,
      "प्रारंभिक": 4559,
      "कदापि": 4560,
      "प्रतिनिधि": 4561,
      "सम्बन्धी": 4562,
      "डू": 4563,
      "तथापि": 4564,
      "हवाई": 4565,
      "निभा": 4566,
      "जाया": 4567,
      "संलग्न": 4568,
      "अचानक": 4569,
      "न्दु": 4570,
      "मियान": 4571,
      "बुल": 4572,
      "क़ुरआन": 4573,
      "बटन": 4574,
      "डाउनलोड": 4575,
      "रौशन": 4576,
      "चीनी": 4577,
      "आसपास": 4578,
      "धातु": 4579,
      "ष्‍": 4580,
      "साव": 4581,
      "नेकी": 4582,
      "योजनाओं": 4583,
      "सुझाव": 4584,
      "परमाण": 4585,
      "नियुक्ति": 4586,
      "संबद्ध": 4587,
      "गाड़": 4588,
      "प्रेस": 4589,
      "बला": 4590,
      "भेजें": 4591,
      "टॉ": 4592,
      "स्वीकृति": 4593,
      "02": 4594,
      "परिभाषित": 4595,
      "चुप": 4596,
      "अपमान": 4597,
      "विनिमय": 4598,
      "नुकसान": 4599,
      "।-": 4600,
      "पारंपरिक": 4601,
      "चें": 4602,
      "प्रयत्न": 4603,
      "09": 4604,
      "MA": 4605,
      "ताला": 4606,
      "दाहि": 4607,
      "लीय": 4608,
      "आमत": 4609,
      "निवास": 4610,
      "लंबे": 4611,
      "गणित": 4612,
      "दरमियान": 4613,
      "प्रबंधक": 4614,
      "निष्ठ": 4615,
      "गुनाहों": 4616,
      "फैला": 4617,
      "शुदा": 4618,
      "चिंता": 4619,
      "संविदा": 4620,
      "रूपा": 4621,
      "ंडी": 4622,
      "काला": 4623,
      "अल्प": 4624,
      "विश्वविद्यालयों": 4625,
      "अनुदान": 4626,
      "पर्वत": 4627,
      "समानता": 4628,
      "नवान्वेषण": 4629,
      "दोहरा": 4630,
      "लाइस": 4631,
      "बेच": 4632,
      "समर्थित": 4633,
      "चलाने": 4634,
      "मुश": 4635,
      "वाक़िफ": 4636,
      "iii": 4637,
      "प्राधिकरण": 4638,
      "अनुपात": 4639,
      "फरवरी": 4640,
      "यानी": 4641,
      "पेड़": 4642,
      "आमतौर": 4643,
      "ढ़ा": 4644,
      "फर्": 4645,
      "समन्व": 4646,
      "गामी": 4647,
      "क्यू": 4648,
      "जड़": 4649,
      "पुष्": 4650,
      "रेख": 4651,
      "आईटी": 4652,
      "सौर": 4653,
      "बिलकुल": 4654,
      "सदीय": 4655,
      "सब्र": 4656,
      "उत्तरी": 4657,
      "1961": 4658,
      "राजस्थान": 4659,
      "समझने": 4660,
      "अफ़": 4661,
      "्यवाद": 4662,
      "पुरानी": 4663,
      "अवज्ञा": 4664,
      "डिजा": 4665,
      "घाटे": 4666,
      "नस्": 4667,
      "संसदीय": 4668,
      "श्व": 4669,
      "इकट्ठा": 4670,
      "मोहन": 4671,
      "शक्तियों": 4672,
      "चुनौ": 4673,
      "क़ियामत": 4674,
      ").": 4675,
      "पाओ": 4676,
      "2019": 4677,
      "व्यावसायिक": 4678,
      "बस्ती": 4679,
      "परमाणु": 4680,
      "कंपनियों": 4681,
      "जोड़ने": 4682,
      "साझा": 4683,
      "संत": 4684,
      "वाना": 4685,
      "रसूलों": 4686,
      "अनक़रीब": 4687,
      "देखी": 4688,
      "कम्पनी": 4689,
      "पक्": 4690,
      "ंत्रिक": 4691,
      "मुलाकात": 4692,
      "आकर्षित": 4693,
      "चरित्र": 4694,
      "क्षमाशील": 4695,
      "भाविक": 4696,
      "अंतरा": 4697,
      "ऑफ़": 4698,
      "fo": 4699,
      "सबके": 4700,
      "प्रशासनिक": 4701,
      "संगम": 4702,
      "ईमेल": 4703,
      "औप": 4704,
      "सनीय": 4705,
      "लिखे": 4706,
      "लूत": 4707,
      "चढ़ा": 4708,
      "औऱ": 4709,
      "भावी": 4710,
      "उपस्थिति": 4711,
      "प्रविष्ट": 4712,
      "आरोप": 4713,
      "गौ": 4714,
      "धारी": 4715,
      "et": 4716,
      "ज़्यादा": 4717,
      "मस्जि": 4718,
      "दाखिल": 4719,
      "शाम": 4720,
      "सिक्": 4721,
      "अनुसूचित": 4722,
      "टिका": 4723,
      "लास": 4724,
      "मानना": 4725,
      "बारगाह": 4726,
      "जटिल": 4727,
      "रेशन": 4728,
      "शिल्प": 4729,
      "दिखाता": 4730,
      "आमंत्र": 4731,
      "जम्": 4732,
      "शिक": 4733,
      "कारो": 4734,
      "इनकी": 4735,
      "मुकद": 4736,
      "मुक्ति": 4737,
      "बीह": 4738,
      "नंबर": 4739,
      "मध्यम": 4740,
      "वश": 4741,
      "थोड़े": 4742,
      "बाह्य": 4743,
      "सेल": 4744,
      "ंडा": 4745,
      "पेक्ष": 4746,
      "ऑडियो": 4747,
      "नवा": 4748,
      "त्‍": 4749,
      "दिखाने": 4750,
      "चेतावनी": 4751,
      "साझे": 4752,
      "मानवीय": 4753,
      "सुदृढ़": 4754,
      "मरण": 4755,
      ">>": 4756,
      "परिचित": 4757,
      "तत्वदर्शी": 4758,
      "बख्शने": 4759,
      "पका": 4760,
      "जेल": 4761,
      "www": 4762,
      "पीड़": 4763,
      "ईमानवालों": 4764,
      "प्रथा": 4765,
      "शिशु": 4766,
      "2012": 4767,
      "आकृति": 4768,
      "वसू": 4769,
      "जिहाद": 4770,
      "अपेक्षित": 4771,
      "as": 4772,
      "दुखद": 4773,
      "करू": 4774,
      "193": 4775,
      "सभ्यता": 4776,
      "वस्त्र": 4777,
      "चूंकि": 4778,
      "अज": 4779,
      "पट्": 4780,
      "बहि": 4781,
      "माला": 4782,
      "नहरें": 4783,
      "संपादक": 4784,
      "इश": 4785,
      "उक्त": 4786,
      "ख़िल": 4787,
      "सफे": 4788,
      "प्रवाह": 4789,
      "खड़ी": 4790,
      "यूँ": 4791,
      "श्रद्धा": 4792,
      "ढांचे": 4793,
      "कही": 4794,
      "वाणी": 4795,
      "बुरे": 4796,
      "मुश्किल": 4797,
      "प्रतिभूति": 4798,
      "जनन": 4799,
      "बस्ति": 4800,
      "घटक": 4801,
      "स्थाना": 4802,
      "2001": 4803,
      "वर्गों": 4804,
      "चैन": 4805,
      "नीन": 4806,
      "गिरफ्": 4807,
      "गों": 4808,
      "डरो": 4809,
      "हँ": 4810,
      "सावधान": 4811,
      "बढ़ती": 4812,
      "अन्ततः": 4813,
      "रोगी": 4814,
      "विविधता": 4815,
      "मिलियन": 4816,
      "जन्नत": 4817,
      "थान": 4818,
      "नीतियों": 4819,
      "देखना": 4820,
      "कस": 4821,
      "सड़क": 4822,
      "रहित": 4823,
      "फ्रे": 4824,
      "प्रभुत्वशाली": 4825,
      "सारिक": 4826,
      "खोलने": 4827,
      "आफ": 4828,
      "फ़ॉन्ट": 4829,
      "समन्वय": 4830,
      "µà": 4831,
      "शासक": 4832,
      "तयशुदा": 4833,
      "लिमि": 4834,
      "वसी": 4835,
      "¤¦": 4836,
      "निः": 4837,
      "युवाओं": 4838,
      "सांसारिक": 4839,
      "कर्ष": 4840,
      "लंबी": 4841,
      "मृत": 4842,
      "लियम": 4843,
      "परिचय": 4844,
      "स्वीकृत": 4845,
      "विरासत": 4846,
      "भेंट": 4847,
      "प्रतिबद्ध": 4848,
      "आवाज": 4849,
      "2007": 4850,
      "ड्यू": 4851,
      "सिविल": 4852,
      "रुचि": 4853,
      "ड्ड": 4854,
      "विभाजित": 4855,
      "देशा": 4856,
      "टरी": 4857,
      "पने": 4858,
      "सरी": 4859,
      "मिलेगी": 4860,
      "ड्राइ": 4861,
      "शोर": 4862,
      "ताज": 4863,
      "विज्ञ": 4864,
      "कुर": 4865,
      "प्रतिष्ठित": 4866,
      "इल्म": 4867,
      "क़िस्म": 4868,
      "अभाव": 4869,
      "ब्यू": 4870,
      "रहेगी": 4871,
      "मिट": 4872,
      "क़त": 4873,
      "बरसा": 4874,
      "सम्पूर्ण": 4875,
      "छाया": 4876,
      "फिली": 4877,
      "गांवों": 4878,
      "बाकी": 4879,
      "राजधानी": 4880,
      "टिस": 4881,
      "()": 4882,
      "घि": 4883,
      "स्वाभाविक": 4884,
      "लेगा": 4885,
      "समझौते": 4886,
      "शिक्षक": 4887,
      "वती": 4888,
      "मादा": 4889,
      "भेजने": 4890,
      "निरीक्षण": 4891,
      "¤": 4892,
      "टका": 4893,
      "धम": 4894,
      "सम्भव": 4895,
      "ख्ते": 4896,
      "फ़रिश्ते": 4897,
      "मिलते": 4898,
      "देवता": 4899,
      "व्यस्त": 4900,
      "सोस": 4901,
      "भले": 4902,
      "em": 4903,
      "अय": 4904,
      "नैतिक": 4905,
      "तस्वीर": 4906,
      "दुश्": 4907,
      "नजर": 4908,
      "पुस्तकालय": 4909,
      "विनष्ट": 4910,
      "अस्थायी": 4911,
      "75": 4912,
      "मौजि": 4913,
      "थोड़ी": 4914,
      "चेहरे": 4915,
      "लियां": 4916,
      "सितंबर": 4917,
      "खाओ": 4918,
      "संपादित": 4919,
      "ंची": 4920,
      "रूद्ध": 4921,
      "ख़ौ": 4922,
      "नाते": 4923,
      "एकमात्र": 4924,
      "सफेद": 4925,
      "अम्": 4926,
      "क़्त": 4927,
      "रोज़": 4928,
      "प्रेषित": 4929,
      "सतह": 4930,
      "इड": 4931,
      "पसी": 4932,
      "भंग": 4933,
      "कैसा": 4934,
      "शर्तों": 4935,
      "अदालत": 4936,
      "dia": 4937,
      "ॉँ": 4938,
      "करूँ": 4939,
      "उपखंड": 4940,
      "मछली": 4941,
      "दुर": 4942,
      "निकाला": 4943,
      "मुसीबत": 4944,
      "उन्न": 4945,
      "सुविधाएं": 4946,
      "ंकित": 4947,
      "बच्चा": 4948,
      "अन्तर": 4949,
      "दोनो": 4950,
      "सकेंगे": 4951,
      "अवर": 4952,
      "सले": 4953,
      "समुद्री": 4954,
      "गन": 4955,
      "अवतरित": 4956,
      "लकड़ी": 4957,
      "पाँच": 4958,
      "मिसाल": 4959,
      "प्लगइन": 4960,
      "¤": 4961,
      "ठहर": 4962,
      "सहमति": 4963,
      "आहार": 4964,
      "बेहि": 4965,
      "चार्य": 4966,
      "पटा": 4967,
      "वेशन": 4968,
      "info": 4969,
      "शरण": 4970,
      "हिकमत": 4971,
      "पंच": 4972,
      "संपादन": 4973,
      "इंच": 4974,
      "कच": 4975,
      "फ़ाइलें": 4976,
      "गठित": 4977,
      "टुकड़े": 4978,
      "यूसुफ": 4979,
      "समूहों": 4980,
      "उंड": 4981,
      "पठ": 4982,
      "फूल": 4983,
      "टैब": 4984,
      "तलाश": 4985,
      "पणी": 4986,
      "किस्म": 4987,
      "डाय": 4988,
      "बन्दे": 4989,
      "परिवर्त": 4990,
      "प्रतियोग": 4991,
      "आयी": 4992,
      "इमार": 4993,
      "निंग": 4994,
      "सीन": 4995,
      "लिमिटेड": 4996,
      "कड़": 4997,
      "संध्या": 4998,
      "टूट": 4999,
      "सर्वोत्तम": 5000,
      "समृद्धि": 5001,
      "45": 5002,
      "मॉडल": 5003,
      "पालने": 5004,
      "अनुग्रह": 5005,
      "क़ायम": 5006,
      "चौड़ाई": 5007,
      "फ़रमा": 5008,
      "तुरंत": 5009,
      "ंध्र": 5010,
      "¤": 5011,
      "दैनिक": 5012,
      "बादी": 5013,
      "बनाता": 5014,
      "निवार": 5015,
      "टिन": 5016,
      "2006": 5017,
      "प्रचलित": 5018,
      "जिम्मेदारी": 5019,
      "ंटी": 5020,
      "हिता": 5021,
      "पारी": 5022,
      "कमजोर": 5023,
      "दिसं": 5024,
      "दाख़िल": 5025,
      "बाधा": 5026,
      "डिजि": 5027,
      "उड़ा": 5028,
      "कब्": 5029,
      "नज": 5030,
      "बोली": 5031,
      "न्दर": 5032,
      "lease": 5033,
      "हिमालय": 5034,
      "बनाये": 5035,
      "टिप्पणी": 5036,
      "संग्रहा": 5037,
      "सराहना": 5038,
      "यता": 5039,
      "१८": 5040,
      "ठोस": 5041,
      "पत्रों": 5042,
      "विहित": 5043,
      "तकों": 5044,
      "दिसंबर": 5045,
      "पणन": 5046,
      "प्रदूषण": 5047,
      "जर्": 5048,
      "व्यवस्थित": 5049,
      "स्तरीय": 5050,
      "क्षिप्त": 5051,
      "अनुमोदन": 5052,
      "¤¼": 5053,
      "पैके": 5054,
      "¤¡": 5055,
      "खराब": 5056,
      "दक्ष": 5057,
      "05": 5058,
      "एव": 5059,
      "त्वचा": 5060,
      "समझे": 5061,
      "सुनते": 5062,
      "खींच": 5063,
      "ब्राउ": 5064,
      "त्ल": 5065,
      "oo": 5066,
      "टियों": 5067,
      "खें": 5068,
      "नेपाल": 5069,
      "शिता": 5070,
      "मज़बू": 5071,
      "िक्ष": 5072,
      "संग्रहालय": 5073,
      "नार": 5074,
      "उगा": 5075,
      "ऊपरी": 5076,
      "खत्म": 5077,
      "डब्": 5078,
      "ख्यात": 5079,
      "उभर": 5080,
      "आवश्यकताओं": 5081,
      "सीधी": 5082,
      "्यास": 5083,
      "सिखा": 5084,
      "मोदी": 5085,
      "\\\\": 5086,
      "उन्नत": 5087,
      "दबाव": 5088,
      "टाई": 5089,
      "ुक": 5090,
      "ताकत": 5091,
      "डिफ़ॉ": 5092,
      "स्वचालित": 5093,
      "मंत्रि": 5094,
      "साँ": 5095,
      "राहत": 5096,
      "बन्ध": 5097,
      "चैनल": 5098,
      "AN": 5099,
      "नं": 5100,
      "ज़िर": 5101,
      "लानेवालो": 5102,
      "अहले": 5103,
      "बेहिश्त": 5104,
      "विपणन": 5105,
      "द्विपक्षीय": 5106,
      "UR": 5107,
      "आईसी": 5108,
      "07": 5109,
      "कैं": 5110,
      "सहमत": 5111,
      "असं": 5112,
      "अरबी": 5113,
      "जोड़ा": 5114,
      "अभिलाभ": 5115,
      "2005": 5116,
      "हार्दिक": 5117,
      "चाहा": 5118,
      "मुह": 5119,
      "वाल": 5120,
      "कर्नाटक": 5121,
      "बूझ": 5122,
      "ट्रि": 5123,
      "अर्ध": 5124,
      "चिह्नित": 5125,
      "यूरोपीय": 5126,
      "अँ": 5127,
      "रसा": 5128,
      "काय": 5129,
      "बेल": 5130,
      "सामू": 5131,
      "सवार": 5132,
      "नेवाले": 5133,
      "पूर्वो": 5134,
      "सोचा": 5135,
      "आईडी": 5136,
      "डेस्": 5137,
      "अग्रणी": 5138,
      "आदान": 5139,
      "उतना": 5140,
      "तस": 5141,
      "बाज": 5142,
      "मोहम्मद": 5143,
      "हितों": 5144,
      "सुनता": 5145,
      "डिफ़ॉल्ट": 5146,
      "गंध": 5147,
      "मला": 5148,
      "पैरा": 5149,
      "मुंह": 5150,
      "ग़ै": 5151,
      "जुड़ा": 5152,
      "गुमराह": 5153,
      "इंडियन": 5154,
      "डिजाइन": 5155,
      "वकी": 5156,
      "उन्होने": 5157,
      "वलोकन": 5158,
      "निष": 5159,
      "संक्रमण": 5160,
      "भारतीयों": 5161,
      "भर्": 5162,
      "परम्": 5163,
      "फस": 5164,
      "प्रोटो": 5165,
      "अग्रिम": 5166,
      "हथिय": 5167,
      "साथियों": 5168,
      "दुः": 5169,
      "ंतरित": 5170,
      "मंदिरों": 5171,
      "वास्तु": 5172,
      "फ़्": 5173,
      "गर्भ": 5174,
      "पटल": 5175,
      "मक्का": 5176,
      "वधि": 5177,
      "स्कू": 5178,
      "बोस": 5179,
      "ण्य": 5180,
      "मकान": 5181,
      "विद्र": 5182,
      "समझता": 5183,
      "सहन": 5184,
      "ea": 5185,
      "कपड़े": 5186,
      "सरकशी": 5187,
      "मोमिनीन": 5188,
      "आजादी": 5189,
      "भेजी": 5190,
      "जागरू": 5191,
      "दती": 5192,
      "विजे": 5193,
      "महीनों": 5194,
      "शिक्षण": 5195,
      "जम्मू": 5196,
      "आन्": 5197,
      "करु": 5198,
      "म्मत": 5199,
      "ex": 5200,
      "एमएस": 5201,
      "तेरा": 5202,
      "लेती": 5203,
      "ंग्ला": 5204,
      ")...": 5205,
      "णों": 5206,
      "यौ": 5207,
      "तिर": 5208,
      "संवर्धन": 5209,
      "केंद्रित": 5210,
      "बहुतेरे": 5211,
      "गहरी": 5212,
      "दौड़": 5213,
      "क़रार": 5214,
      "जानवरों": 5215,
      "गवर्": 5216,
      "प्रतिस्पर्": 5217,
      "आनु": 5218,
      "जनों": 5219,
      "साहित्यिक": 5220,
      "ome": 5221,
      "नज़": 5222,
      "रन": 5223,
      "लस": 5224,
      "सद्": 5225,
      "किस्": 5226,
      "कोय": 5227,
      "अवसरों": 5228,
      "प्रविष्टि": 5229,
      "ऊंचाई": 5230,
      "उत्साह": 5231,
      "निकाय": 5232,
      "ज़ालिमों": 5233,
      "रेडियो": 5234,
      "क़दम": 5235,
      "चिन्ह": 5236,
      "सामूहिक": 5237,
      "ग्ध": 5238,
      "फ़िल्म": 5239,
      "पुस्तकों": 5240,
      "काफिरों": 5241,
      "ऑंख": 5242,
      "सज्": 5243,
      "वरिष्ठ": 5244,
      "सजा": 5245,
      "उतारा": 5246,
      "रिज": 5247,
      "चेक": 5248,
      "90": 5249,
      "दिव्य": 5250,
      "प्रतिबंध": 5251,
      "असर": 5252,
      "मेट": 5253,
      "ब्रह्म": 5254,
      "पौधों": 5255,
      "अस्पताल": 5256,
      "जनरल": 5257,
      "वस्था": 5258,
      "ौल": 5259,
      "गुरू": 5260,
      "लाइसेंस": 5261,
      "03": 5262,
      "लगाए": 5263,
      "डेस्कट": 5264,
      "उद्ध": 5265,
      "फर्म": 5266,
      "ग़ौर": 5267,
      "con": 5268,
      "निष्ठा": 5269,
      "अक्त": 5270,
      "आंध्र": 5271,
      "धन्यवाद": 5272,
      "िक्र": 5273,
      "क़त्ल": 5274,
      "स्कीम": 5275,
      "िस": 5276,
      "राजस्व": 5277,
      "दर्य": 5278,
      "याचिका": 5279,
      "टेक्": 5280,
      "सीमाओं": 5281,
      "छुट": 5282,
      "सचेत": 5283,
      "स्वर्ण": 5284,
      "औरत": 5285,
      "बाध्य": 5286,
      "बीस": 5287,
      "लंघन": 5288,
      "जितनी": 5289,
      "माइक्रो": 5290,
      "सत्यापन": 5291,
      "तिश": 5292,
      "चाहें": 5293,
      "निष्पादन": 5294,
      "अक्षर": 5295,
      "विकि": 5296,
      "मुका": 5297,
      "म्प": 5298,
      "un": 5299,
      "इंग्": 5300,
      "कष्ट": 5301,
      "प्रवृत्ति": 5302,
      "ग्राह": 5303,
      "इलेक्ट्रॉ": 5304,
      "यती": 5305,
      "सदस्यता": 5306,
      "ऑपरे": 5307,
      "बढा": 5308,
      "पीने": 5309,
      "अंतरिक्ष": 5310,
      "्स": 5311,
      "बाहम": 5312,
      "तात्": 5313,
      "छुपा": 5314,
      "बंग": 5315,
      "परिसर": 5316,
      "बैंकिंग": 5317,
      "बुला": 5318,
      "स्मारक": 5319,
      "तंग": 5320,
      "मारा": 5321,
      "यथ": 5322,
      "नेत्र": 5323,
      "कारणों": 5324,
      "विनिर्माण": 5325,
      "तिल": 5326,
      "अन्तर्गत": 5327,
      "तुम्हे": 5328,
      "पासवर्ड": 5329,
      "पक्षों": 5330,
      "ब्राह्म": 5331,
      "जत": 5332,
      "पूर्वावलोकन": 5333,
      "टिव": 5334,
      "फलक": 5335,
      "संरक्षक": 5336,
      "राईल": 5337,
      "प्रद": 5338,
      "पीढ़ी": 5339,
      "घाटी": 5340,
      "नौकरी": 5341,
      "अकाद": 5342,
      "शिला": 5343,
      "उल्लेखनीय": 5344,
      "मजदूर": 5345,
      "quot": 5346,
      "डेस्कटॉप": 5347,
      "दीक": 5348,
      "दर्शिता": 5349,
      "पैमाने": 5350,
      "आएगा": 5351,
      "तत्काल": 5352,
      "रवि": 5353,
      "हमको": 5354,
      "चाय": 5355,
      "पहलू": 5356,
      "पैर": 5357,
      "तंत्रिका": 5358,
      "यथास्थिति": 5359,
      "काफ़िरों": 5360,
      "अक्तूबर": 5361,
      "ter": 5362,
      "दावे": 5363,
      "मासिक": 5364,
      "क्षी": 5365,
      "यहूदी": 5366,
      "बैठा": 5367,
      "मिलाकर": 5368,
      "बौद्धिक": 5369,
      "बग": 5370,
      "काउ": 5371,
      "चाहेंगे": 5372,
      "36": 5373,
      "ङ्": 5374,
      "सिया": 5375,
      "AT": 5376,
      "अनुज्ञात": 5377,
      "पड़ो": 5378,
      "फोटो": 5379,
      "विमर्श": 5380,
      "चीजों": 5381,
      "अपनाया": 5382,
      "क्रिकेट": 5383,
      "शोथ": 5384,
      "अग्": 5385,
      "com": 5386,
      "कुफ्र": 5387,
      "तीसरे": 5388,
      "रियम": 5389,
      "तकलीफ़": 5390,
      "प्रारम्भ": 5391,
      "असाधारण": 5392,
      "उपयोगकर्ता": 5393,
      "ईसाई": 5394,
      "विरूद्ध": 5395,
      "इसराईल": 5396,
      "तत्वों": 5397,
      "संवेदन": 5398,
      "क्षु": 5399,
      "कॉन्फ़ि": 5400,
      "१५": 5401,
      "बिन्दु": 5402,
      "बढ़ने": 5403,
      "शंका": 5404,
      "डॉलर": 5405,
      "ge": 5406,
      "योग्यता": 5407,
      "कठिनाई": 5408,
      "एड": 5409,
      "क्षणिक": 5410,
      "स्थापन": 5411,
      "यूनिट": 5412,
      "SL": 5413,
      "मन्": 5414,
      "त्ते": 5415,
      "बांध": 5416,
      "भ्रष्ट": 5417,
      "सरकश": 5418,
      "ेय": 5419,
      "बजट": 5420,
      "जरु": 5421,
      "प्रसंग": 5422,
      "पंजीकृत": 5423,
      "गहन": 5424,
      "आमाल": 5425,
      "फ़रिश्तों": 5426,
      "मूलभूत": 5427,
      "बिगाड़": 5428,
      "बचाव": 5429,
      "निशानियों": 5430,
      "गरीबी": 5431,
      "लाएँ": 5432,
      "पांड": 5433,
      "अर्जित": 5434,
      "उपर": 5435,
      "प्रसाद": 5436,
      "बां": 5437,
      "श्रो": 5438,
      "अंतः": 5439,
      "शक्तिशाली": 5440,
      "कहेगा": 5441,
      "कक्षा": 5442,
      "ुप": 5443,
      "आदम": 5444,
      "साहस": 5445,
      "संदाय": 5446,
      "छिपा": 5447,
      "उपकरणों": 5448,
      "दर्दनाक": 5449,
      "नती": 5450,
      "संहिता": 5451,
      "india": 5452,
      "पक्षी": 5453,
      "सशक्त": 5454,
      "परस": 5455,
      "साई": 5456,
      "शासित": 5457,
      "दूत": 5458,
      "बोध": 5459,
      "बल्ले": 5460,
      "निष्कर्ष": 5461,
      "ध्वज": 5462,
      "१०": 5463,
      "स्पति": 5464,
      "RS": 5465,
      "झि": 5466,
      "सूरत": 5467,
      "पोत": 5468,
      "बचाने": 5469,
      "छोड़ा": 5470,
      "व्यक्तित्व": 5471,
      "and": 5472,
      "ion": 5473,
      "जयं": 5474,
      "सड़": 5475,
      "मिथ": 5476,
      "विभागों": 5477,
      "नाग": 5478,
      "द्दी": 5479,
      "मोमिन": 5480,
      "मैत्री": 5481,
      "परम्परा": 5482,
      "मणि": 5483,
      "जोड़े": 5484,
      "निवासी": 5485,
      "ड़ियों": 5486,
      "पाइ": 5487,
      "गीता": 5488,
      "खतरा": 5489,
      "सिस": 5490,
      "प्रत्या": 5491,
      "एल्": 5492,
      "प्रान्त": 5493,
      "ढांचा": 5494,
      "त्रुटिः": 5495,
      "काता": 5496,
      "इनसे": 5497,
      "धारित": 5498,
      "¤«": 5499,
      "फायदा": 5500,
      "नवं": 5501,
      "दुल": 5502,
      "पंड": 5503,
      "उद्यान": 5504,
      "लगती": 5505,
      "वाणिज्यिक": 5506,
      "धर्": 5507,
      "परम": 5508,
      "अधिकरण": 5509,
      "परिवारों": 5510,
      "जायें": 5511,
      "जवाहर": 5512,
      "गर्म": 5513,
      "श्वे": 5514,
      "जेक्ट": 5515,
      "बारह": 5516,
      "जिम्मेदार": 5517,
      "\",": 5518,
      "र्ज": 5519,
      "deta": 5520,
      "कारोबार": 5521,
      "कर्ण": 5522,
      "नायक": 5523,
      "विक्रय": 5524,
      "आलोचना": 5525,
      "सिटी": 5526,
      "सुसंगत": 5527,
      "रहमान": 5528,
      ".)": 5529,
      "</": 5530,
      "शः": 5531,
      "कृपा": 5532,
      "स्टेशन": 5533,
      "गाँ": 5534,
      "मानों": 5535,
      "ग़ु": 5536,
      "पहुंचे": 5537,
      "detail": 5538,
      "बम": 5539,
      "पीएस": 5540,
      "सौदा": 5541,
      "press": 5542,
      "तमिलना": 5543,
      "स्वामित": 5544,
      "दायक": 5545,
      "ड्डी": 5546,
      "कागज": 5547,
      "डिजिटल": 5548,
      "ुसार": 5549,
      "विस्": 5550,
      "स्टॉ": 5551,
      "04": 5552,
      "वण": 5553,
      "‘‘": 5554,
      "इस्लामी": 5555,
      "दक्षिणी": 5556,
      "ate": 5557,
      "अमल": 5558,
      "आज़": 5559,
      "वंचित": 5560,
      "अकेले": 5561,
      "नवंबर": 5562,
      "देगें": 5563,
      "कामों": 5564,
      "लगाना": 5565,
      "फ़िरऔन": 5566,
      "दरिया": 5567,
      "मरने": 5568,
      "IN": 5569,
      "ri": 5570,
      "कुर्": 5571,
      "्राम": 5572,
      "कराना": 5573,
      "दुर्घटना": 5574,
      "जयंती": 5575,
      "भटक": 5576,
      "शियों": 5577,
      "फाई": 5578,
      "बांग्ला": 5579,
      "तैय": 5580,
      "मिस्र": 5581,
      "बेटा": 5582,
      "स्वप्": 5583,
      "पुरुषों": 5584,
      "संतुलन": 5585,
      "प्यार": 5586,
      "वय": 5587,
      "मुगल": 5588,
      "बनकर": 5589,
      "मनुष्यों": 5590,
      "कोविन्द": 5591,
      "ग्रन्": 5592,
      "सहेज": 5593,
      "भ्रम": 5594,
      "क्रिप्ट": 5595,
      "िए": 5596,
      "रूपों": 5597,
      "नियमन": 5598,
      "विश्वसनीय": 5599,
      "2008": 5600,
      "धिकारी": 5601,
      "कथन": 5602,
      "चाहती": 5603,
      "यिक": 5604,
      "राहे": 5605,
      "उल्लंघन": 5606,
      "फ़िल्टर": 5607,
      "औपचारिक": 5608,
      "दाम": 5609,
      "चुनौतियों": 5610,
      "सल्": 5611,
      "प्रेषण": 5612,
      "र्त": 5613,
      "इंग": 5614,
      "गड़": 5615,
      "भांति": 5616,
      "पदार्थों": 5617,
      "कोर": 5618,
      "मिया": 5619,
      "रोका": 5620,
      "पड़ती": 5621,
      "पौधे": 5622,
      "टने": 5623,
      "जीवा": 5624,
      "निकलने": 5625,
      "उपलब्धि": 5626,
      "सकाः": 5627,
      "जायेगी": 5628,
      "संशोधित": 5629,
      "मिंग": 5630,
      "पैरवी": 5631,
      "इजा": 5632,
      "पैसे": 5633,
      "साहब": 5634,
      "फार्म": 5635,
      "32": 5636,
      "रेत": 5637,
      "ार्क": 5638,
      "मुखी": 5639,
      "पिछली": 5640,
      "विनय": 5641,
      "क्ला": 5642,
      "विधिक": 5643,
      "सम्पर्क": 5644,
      "संभावित": 5645,
      "्‍य": 5646,
      "क़ुबूल": 5647,
      "दार्": 5648,
      "िंग": 5649,
      "कानों": 5650,
      "वैसा": 5651,
      "सन्देह": 5652,
      "खार": 5653,
      "विष्णु": 5654,
      "चीज़े": 5655,
      "70": 5656,
      "चाँ": 5657,
      "सरो": 5658,
      "पड़ेगा": 5659,
      "तत्त्व": 5660,
      "गुणा": 5661,
      "विद्यार्थी": 5662,
      "परसतिश": 5663,
      "85": 5664,
      "सास": 5665,
      "मेह": 5666,
      "शिक्षकों": 5667,
      "कोलकाता": 5668,
      "वानी": 5669,
      "किन्": 5670,
      "ड़िया": 5671,
      "वेदना": 5672,
      "बॉक्स": 5673,
      "आउटपुट": 5674,
      "असल": 5675,
      "घूम": 5676,
      "जला": 5677,
      "संचालित": 5678,
      "स्टो": 5679,
      "प्रतियोगिता": 5680,
      "li": 5681,
      "हाथी": 5682,
      "जिसपर": 5683,
      "समुचित": 5684,
      "बस्तियों": 5685,
      "इलों": 5686,
      "स्पी": 5687,
      "संक्षिप्त": 5688,
      "पोजी": 5689,
      "ब्रिटेन": 5690,
      "प्लेट": 5691,
      "वकील": 5692,
      "छुटकारा": 5693,
      "ther": 5694,
      "रामा": 5695,
      "दिमा": 5696,
      "पेशे": 5697,
      "लॉक": 5698,
      "डराने": 5699,
      "व्यु": 5700,
      "कॉलेज": 5701,
      "शर्त": 5702,
      "2002": 5703,
      "षी": 5704,
      "स्तानी": 5705,
      "बाग़ों": 5706,
      "बिन": 5707,
      "डिट": 5708,
      "गान": 5709,
      "बें": 5710,
      "यॉ": 5711,
      "प्रतिष्ठा": 5712,
      "ident": 5713,
      "आबादी": 5714,
      "चीजें": 5715,
      "कीर्ण": 5716,
      "जातीय": 5717,
      "अगली": 5718,
      "िन": 5719,
      "अंधे": 5720,
      "रास्त": 5721,
      "आपसे": 5722,
      "पीड़ित": 5723,
      "रें": 5724,
      "अर्ज़": 5725,
      "स्तरों": 5726,
      "एन्": 5727,
      "तं": 5728,
      "सकी": 5729,
      "परस्त": 5730,
      "इसपर": 5731,
      "क़े": 5732,
      "धानिक": 5733,
      "ंजलि": 5734,
      "उर्वर": 5735,
      "धना": 5736,
      "शित": 5737,
      "माध्य": 5738,
      "मातृ": 5739,
      "2011": 5740,
      "सामान्यतः": 5741,
      "गिरफ्तार": 5742,
      "डकर": 5743,
      "पोस्ट": 5744,
      "प्रकाशना": 5745,
      "रवीन्द्रनाथ": 5746,
      "गहराई": 5747,
      "ग्राफ": 5748,
      "संगठित": 5749,
      "ation": 5750,
      "फ्लै": 5751,
      "president": 5752,
      "पब्": 5753,
      "“%": 5754,
      "प्राधिकार": 5755,
      "ofindia": 5756,
      "06": 5757,
      "काले": 5758,
      "हाउस": 5759,
      "फ़े": 5760,
      "चिन्": 5761,
      "वाहन": 5762,
      "गौरव": 5763,
      "करों": 5764,
      "ंटर": 5765,
      "सफलतापूर्वक": 5766,
      "आयुर्": 5767,
      "ख्तेयार": 5768,
      "presidentofindia": 5769,
      "¤¬": 5770,
      "दिरा": 5771,
      "ज़कात": 5772,
      "चिकित्सक": 5773,
      "release": 5774,
      "रिजर्व": 5775,
      "पंडित": 5776,
      "कांक्षा": 5777,
      "साक्ष्य": 5778,
      "ताबे": 5779,
      "मनोर": 5780,
      "बचत": 5781,
      "खबर": 5782,
      "II": 5783,
      "खून": 5784,
      "सोने": 5785,
      "इंट": 5786,
      "पार्क": 5787,
      "महाराजा": 5788,
      "संस्थापित": 5789,
      "आचरण": 5790,
      "क्ताओं": 5791,
      "स्वभाव": 5792,
      "रूस": 5793,
      "पड": 5794,
      "जापान": 5795,
      "तरीकों": 5796,
      "हैदरा": 5797,
      "करम": 5798,
      "पादित": 5799,
      "आसमानों": 5800,
      "आमंत्रित": 5801,
      "सम्रा": 5802,
      "उद्देश्यों": 5803,
      "33": 5804,
      "थु": 5805,
      "यस": 5806,
      "लीस": 5807,
      "दरबार": 5808,
      "महाभारत": 5809,
      "वापसी": 5810,
      "न्यायिक": 5811,
      "नवीन": 5812,
      "किलोमीटर": 5813,
      "चाप": 5814,
      "बिट": 5815,
      "कॉपी": 5816,
      "आरंभिक": 5817,
      "पूछो": 5818,
      "पुरू": 5819,
      "वर्णित": 5820,
      "जमी": 5821,
      "रै": 5822,
      "वियों": 5823,
      "नामः": 5824,
      "झुठला": 5825,
      "पोजीशन": 5826,
      "AR": 5827,
      "बों": 5828,
      "विवर": 5829,
      "अनुसूची": 5830,
      "मशीनरी": 5831,
      "वाक़िफ़": 5832,
      "शनी": 5833,
      "मंडप": 5834,
      "जहाज": 5835,
      "बानी": 5836,
      "वैधानिक": 5837,
      "प्रयोगशाला": 5838,
      "भाष्": 5839,
      "सिद्धांतों": 5840,
      "सावधानी": 5841,
      "शॉ": 5842,
      "सेक्टर": 5843,
      "संपन्न": 5844,
      "पहुंचने": 5845,
      "दोज़": 5846,
      "संधि": 5847,
      "उठे": 5848,
      "कुशलता": 5849,
      "कड़ा": 5850,
      "प्रतिदिन": 5851,
      "उत्तरदायी": 5852,
      "झों": 5853,
      "दरख": 5854,
      "केशन": 5855,
      "प्रभाग": 5856,
      "गाँव": 5857,
      "गुजर": 5858,
      "इलाज": 5859,
      "तुल्य": 5860,
      "तमिलनाडु": 5861,
      "अन्तिम": 5862,
      "मानवता": 5863,
      "भर्ती": 5864,
      "हान": 5865,
      "ज़बान": 5866,
      "अनुपालन": 5867,
      "कमरे": 5868,
      "पंथ": 5869,
      "अलब": 5870,
      "एकीकृत": 5871,
      "खनि": 5872,
      "छत": 5873,
      "मित्रों": 5874,
      "धिकृत": 5875,
      "ैत": 5876,
      "लांग": 5877,
      "तुर्की": 5878,
      "स्वामित्व": 5879,
      "आह्": 5880,
      "जानकर": 5881,
      "दिलच": 5882,
      "पैकेज": 5883,
      "ia": 5884,
      "मददगार": 5885,
      "इन्सान": 5886,
      "रिकॉ": 5887,
      "सहारा": 5888,
      "पहाड़ी": 5889,
      "/-": 5890,
      "lo": 5891,
      "वैज्ञानिकों": 5892,
      "सीआर": 5893,
      "ब्रह्": 5894,
      "टर्न": 5895,
      "अंतराल": 5896,
      "टीन": 5897,
      "निरपेक्ष": 5898,
      "रसायन": 5899,
      "500": 5900,
      "जक": 5901,
      "लोकता": 5902,
      "ज्यो": 5903,
      "सैन्य": 5904,
      "बंदर": 5905,
      "IS": 5906,
      "अत्याचारी": 5907,
      "ध्यक्ष": 5908,
      "गारी": 5909,
      "शांत": 5910,
      "कथित": 5911,
      "अमरीकी": 5912,
      "आक": 5913,
      "पाकी": 5914,
      "सिंध": 5915,
      "सरपरस्त": 5916,
      "ईमानवाले": 5917,
      "पंथी": 5918,
      "हैदराबाद": 5919,
      "डें": 5920,
      "कोश": 5921,
      "विनाश": 5922,
      "उच्चतर": 5923,
      "सतत": 5924,
      "तह": 5925,
      "तीकरण": 5926,
      "इबर": 5927,
      "समाहित": 5928,
      "एयर": 5929,
      "यतों": 5930,
      "क्री": 5931,
      "भूषण": 5932,
      "मैन": 5933,
      "जादूगर": 5934,
      "नामा": 5935,
      "बढ़ते": 5936,
      "रखाव": 5937,
      "नवम्बर": 5938,
      "स्मरण": 5939,
      "देगी": 5940,
      "उपे": 5941,
      "1999": 5942,
      "पदों": 5943,
      "संदेय": 5944,
      "क़ब्": 5945,
      "बादशाह": 5946,
      "झुका": 5947,
      "बुलाया": 5948,
      "पेशी": 5949,
      "जुड़ी": 5950,
      "सिंचाई": 5951,
      "समितियों": 5952,
      "स्टेट": 5953,
      "ट्रैक": 5954,
      "तापमान": 5955,
      "आकलन": 5956,
      "चारा": 5957,
      "जता": 5958,
      "जर्म": 5959,
      "स्के": 5960,
      "अभिदाता": 5961,
      "इसीलिए": 5962,
      "लड़की": 5963,
      "अनाज": 5964,
      "NA": 5965,
      "नरे": 5966,
      "ज़रिए": 5967,
      "मौलिक": 5968,
      "शैक्षणिक": 5969,
      "विद्वान": 5970,
      "व्युत्": 5971,
      "पते": 5972,
      "इनपुट": 5973,
      "गहरे": 5974,
      "ेरत": 5975,
      "मिता": 5976,
      "क्रमा": 5977,
      "सम्पत्ति": 5978,
      "लिखें": 5979,
      "प्रोफे": 5980,
      "39": 5981,
      "sh": 5982,
      "¤¶": 5983,
      "संतोष": 5984,
      "कलापों": 5985,
      "चेंज": 5986,
      "ख़ौफ": 5987,
      "अग्नि": 5988,
      "ub": 5989,
      "सच्ची": 5990,
      "दाताओं": 5991,
      "सम्मानित": 5992,
      "mp": 5993,
      "अस्थि": 5994,
      "हलाल": 5995,
      "ेंद्र": 5996,
      "दीक्षा": 5997,
      "मील": 5998,
      "प्रासंग": 5999,
      "सकेगी": 6000,
      "असली": 6001,
      "fr": 6002,
      "दूरस्थ": 6003,
      "लंबाई": 6004,
      "माई": 6005,
      "फोल्डर": 6006,
      "ध्र": 6007,
      "क़ादिर": 6008,
      "तैयारी": 6009,
      "आख": 6010,
      "धू": 6011,
      "फज़ल": 6012,
      "प्रसंस्करण": 6013,
      "होनें": 6014,
      "ल्‍": 6015,
      "लीन": 6016,
      "गेट": 6017,
      "बन्दी": 6018,
      "मर्द": 6019,
      "प्रासंगिक": 6020,
      "अवय": 6021,
      "आदर": 6022,
      "रम": 6023,
      "दीदा": 6024,
      "बंधन": 6025,
      "सम्बंध": 6026,
      "मिश्रण": 6027,
      "हिंदुस्तान": 6028,
      "डों": 6029,
      "पचा": 6030,
      "मानता": 6031,
      "ौरन": 6032,
      "निकालने": 6033,
      "#-#-#": 6034,
      "#-#-#-#-#": 6035,
      "२०": 6036,
      "र्न": 6037,
      "नान": 6038,
      "परत": 6039,
      "हाज़िर": 6040,
      "जायेंगे": 6041,
      "वारिस": 6042,
      "sa": 6043,
      "पुरी": 6044,
      "चमक": 6045,
      "बडी": 6046,
      "आख़ेरत": 6047,
      "अकेला": 6048,
      "ग्राहकों": 6049,
      "जीवों": 6050,
      "वहारिक": 6051,
      "प्रशांत": 6052,
      "ढ़े": 6053,
      "च्छिक": 6054,
      "वंत": 6055,
      "जुड़": 6056,
      "पब्लिक": 6057,
      "शानदार": 6058,
      "स्वप्न": 6059,
      "बोला": 6060,
      "अलबत्ता": 6061,
      "रियों": 6062,
      "कोशिकाओं": 6063,
      "योजक": 6064,
      "हटाएँ": 6065,
      "पुस्तकें": 6066,
      "विवेक": 6067,
      "प्रको": 6068,
      "मुच": 6069,
      "नाना": 6070,
      "वियत": 6071,
      "वायर": 6072,
      "पुल": 6073,
      "रखकर": 6074,
      "डालें": 6075,
      "प्रक्रियाओं": 6076,
      "ap": 6077,
      "घुमा": 6078,
      "चोट": 6079,
      "संपदा": 6080,
      "तन्त्र": 6081,
      "बड़": 6082,
      "शिक्षित": 6083,
      "राजभाषा": 6084,
      "कल्पिक": 6085,
      "ज़बर": 6086,
      "जीविका": 6087,
      "सर्जन": 6088,
      "गुणों": 6089,
      "वांछ": 6090,
      "स्ट्रेलिया": 6091,
      "मार्क": 6092,
      "शख़बरी": 6093,
      "समें": 6094,
      "शव": 6095,
      "अवधारणा": 6096,
      "टेल": 6097,
      "खिसका": 6098,
      "टर्मिन": 6099,
      "ढूंढें": 6100,
      "पुकारा": 6101,
      "कामया": 6102,
      "घाट": 6103,
      "लंका": 6104,
      "पुरूष": 6105,
      "वनस्पति": 6106,
      "ld": 6107,
      "कायम": 6108,
      "उल्लिखित": 6109,
      "उतनी": 6110,
      "ट्री": 6111,
      "बलि": 6112,
      "सकारात्मक": 6113,
      "दिसम्": 6114,
      "समुदायों": 6115,
      "बोलते": 6116,
      "ेश": 6117,
      "निकले": 6118,
      "साइड": 6119,
      "दुर्भाग्य": 6120,
      "मुद्दे": 6121,
      "अंकित": 6122,
      "देवताओं": 6123,
      "क्कर": 6124,
      "पिंग": 6125,
      "श्रीमती": 6126,
      "कलाकार": 6127,
      "दाहिने": 6128,
      "ad": 6129,
      "प्रतिकूल": 6130,
      "2020": 6131,
      "जुर्": 6132,
      "आखिर": 6133,
      "ंसिल": 6134,
      "डन": 6135,
      "औरतें": 6136,
      "फिट": 6137,
      "बहस": 6138,
      "उर्दू": 6139,
      "चलन": 6140,
      "पडे": 6141,
      "पीआई": 6142,
      "सता": 6143,
      "व्यापारी": 6144,
      "हलाक": 6145,
      "जरा": 6146,
      "रिज़": 6147,
      "सम्पन्न": 6148,
      "ख़ुश": 6149,
      "oun": 6150,
      "हरों": 6151,
      "लभ": 6152,
      "वर्मा": 6153,
      "ंधन": 6154,
      "अत्याचार": 6155,
      "अहं": 6156,
      "पाता": 6157,
      "प्रतिफल": 6158,
      "पेट्रो": 6159,
      "कलाप": 6160,
      "ट्यूब": 6161,
      "वु": 6162,
      "नियां": 6163,
      "आदमियों": 6164,
      "चित्रण": 6165,
      "1956": 6166,
      "ार्ट": 6167,
      "तन्य": 6168,
      "ंदगी": 6169,
      "कार्बन": 6170,
      "उपरा": 6171,
      "डालने": 6172,
      "दर्जे": 6173,
      "निकाले": 6174,
      "डै": 6175,
      "लकर": 6176,
      "याची": 6177,
      "कीजिए": 6178,
      "माद": 6179,
      "डीवी": 6180,
      "रणनीति": 6181,
      "अमरीका": 6182,
      "\"\"": 6183,
      "काया": 6184,
      "वत्": 6185,
      "कुदरत": 6186,
      "प्रमाणित": 6187,
      "ारह": 6188,
      "याम": 6189,
      "वाहित": 6190,
      "परिवेश": 6191,
      "डालते": 6192,
      "हस्तक्षेप": 6193,
      "प्रजनन": 6194,
      "वैकल्पिक": 6195,
      "दर्शाता": 6196,
      "मंजूरी": 6197,
      "जर्मनी": 6198,
      "दह": 6199,
      "परिभाषा": 6200,
      "लानत": 6201,
      "115": 6202,
      "col": 6203,
      "इच्छ": 6204,
      "यहीं": 6205,
      "अनुया": 6206,
      "पूर्णता": 6207,
      "संभवतः": 6208,
      "गांधीजी": 6209,
      "शराब": 6210,
      "गर्व": 6211,
      "यथार्थ": 6212,
      "उद": 6213,
      "जैन": 6214,
      "डिग्री": 6215,
      "आँखों": 6216,
      "अनुमोदित": 6217,
      "नारायण": 6218,
      "दिसम्बर": 6219,
      "Con": 6220,
      "ईरान": 6221,
      "स्रा": 6222,
      "एजेंसी": 6223,
      "औजार": 6224,
      "प्रवर्तन": 6225,
      "तीर्थ": 6226,
      "गतिविधि": 6227,
      "क़ाबू": 6228,
      "रामायण": 6229,
      "34": 6230,
      "आश्र": 6231,
      "कहां": 6232,
      "प्रश्नों": 6233,
      "समर्पण": 6234,
      "हमला": 6235,
      "रखती": 6236,
      "लगाते": 6237,
      "गंत": 6238,
      "क्की": 6239,
      "कैसी": 6240,
      "लंबा": 6241,
      "घटित": 6242,
      "निकाह": 6243,
      "ID": 6244,
      "प्रजाति": 6245,
      "एमई": 6246,
      "सीखने": 6247,
      "दुःख": 6248,
      "ist": 6249,
      "शास्त्री": 6250,
      "किले": 6251,
      "प्रॉ": 6252,
      "सर्वि": 6253,
      "लेखकों": 6254,
      "आह्वान": 6255,
      "अतीत": 6256,
      "गन्": 6257,
      "सुन्दर": 6258,
      "पीसी": 6259,
      "बिता": 6260,
      "चैतन्य": 6261,
      "तसबीह": 6262,
      "मेमो": 6263,
      "क्रमशः": 6264,
      "गर्मी": 6265,
      "कृतज्ञता": 6266,
      "दोज़ख़": 6267,
      "HT": 6268,
      "हड़": 6269,
      "मोटर": 6270,
      "गोलिक": 6271,
      "प्लस": 6272,
      "लिखना": 6273,
      "तूर": 6274,
      "खतरे": 6275,
      "अलं": 6276,
      "केंड": 6277,
      "जुन": 6278,
      "ay": 6279,
      "अक्ट": 6280,
      "जवान": 6281,
      "फौ": 6282,
      "वसा": 6283,
      "परवाह": 6284,
      "रिस": 6285,
      "क्रेडिट": 6286,
      "दुश्मन": 6287,
      "दक्षता": 6288,
      "विवरणी": 6289,
      "उग्र": 6290,
      "समापन": 6291,
      "रोगों": 6292,
      "भौगोलिक": 6293,
      "अट": 6294,
      "घनिष्ठ": 6295,
      "तबा": 6296,
      "स्परिक": 6297,
      "तियां": 6298,
      "निस": 6299,
      "जितने": 6300,
      "वसूली": 6301,
      "पाये": 6302,
      "धारक": 6303,
      "कमज़ोर": 6304,
      "गोर": 6305,
      "बहन": 6306,
      "वरीयता": 6307,
      "कम्प्यूटर": 6308,
      "रिकार्ड": 6309,
      "व्यावहारिक": 6310,
      "पनाह": 6311,
      "श्वेत": 6312,
      "पहन": 6313,
      "न्यायालयों": 6314,
      "स्क्रिप्ट": 6315,
      "सूचक": 6316,
      "सम्बन्धित": 6317,
      "¥": 6318,
      "तस्": 6319,
      "आपसी": 6320,
      "लुओं": 6321,
      "फॉर्म": 6322,
      "जंगल": 6323,
      "मण्ड": 6324,
      "प्रवासी": 6325,
      "आपदा": 6326,
      "2003": 6327,
      "१९९": 6328,
      "प्रभार्य": 6329,
      "आभा": 6330,
      "ंगों": 6331,
      "प्रोजेक्ट": 6332,
      "सूच": 6333,
      "लोकतांत्रिक": 6334,
      "बाजी": 6335,
      "चावल": 6336,
      "2004": 6337,
      "उपायों": 6338,
      "फुट": 6339,
      "आंशिक": 6340,
      "चलाया": 6341,
      "जवाहरलाल": 6342,
      "होगे": 6343,
      "पूज": 6344,
      "विद्वानों": 6345,
      "आज्ञाकारी": 6346,
      "ँक": 6347,
      "मता": 6348,
      "पारस्परिक": 6349,
      "सचमुच": 6350,
      "किन्हीं": 6351,
      ".–": 6352,
      "सको": 6353,
      "त्वर": 6354,
      "जीवी": 6355,
      "पड़ने": 6356,
      "पुकारते": 6357,
      "टाइप": 6358,
      "ke": 6359,
      "क्ल": 6360,
      "बुक": 6361,
      "वैदिक": 6362,
      "वास्तविकता": 6363,
      "हजारों": 6364,
      "तकलीफ": 6365,
      "TR": 6366,
      "साले": 6367,
      "जिन्": 6368,
      "मुताब": 6369,
      "डीई": 6370,
      "अभिगम": 6371,
      "अपनाने": 6372,
      "प्रस्तावित": 6373,
      "हार्ड": 6374,
      "आरो": 6375,
      "नम": 6376,
      "साधनों": 6377,
      "ज्योति": 6378,
      "डीवीडी": 6379,
      "निधन": 6380,
      "गांठ": 6381,
      "शेयरों": 6382,
      "सिन": 6383,
      "हिमाचल": 6384,
      "सम्राट": 6385,
      "वेग": 6386,
      "सियत": 6387,
      "द्रव": 6388,
      "पथभ्रष्ट": 6389,
      "रहस्य": 6390,
      "अगरचे": 6391,
      "भरें": 6392,
      "पुराना": 6393,
      "संगणना": 6394,
      "ब्रेरी": 6395,
      "एकदम": 6396,
      "2010": 6397,
      "फ्त": 6398,
      "अंग्रेज": 6399,
      "जागरूकता": 6400,
      "अक्टूबर": 6401,
      "wor": 6402,
      "लिखते": 6403,
      "अर्जन": 6404,
      "बंदी": 6405,
      "नाय": 6406,
      "वेशी": 6407,
      "भगवान्": 6408,
      "सभापति": 6409,
      "झूठे": 6410,
      "सेन": 6411,
      "कुं": 6412,
      "सिरे": 6413,
      "वासन": 6414,
      "उत्पादक": 6415,
      "संतुष्ट": 6416,
      "गंतव्य": 6417,
      "gn": 6418,
      "उतारी": 6419,
      "ोहों": 6420,
      "बाक़ी": 6421,
      "ल्लम": 6422,
      "आईएस": 6423,
      "अर्पित": 6424,
      "चट्ट": 6425,
      "अपराधी": 6426,
      "लिसी": 6427,
      "दुकान": 6428,
      "जुटा": 6429,
      "आतंकवादी": 6430,
      "फायदे": 6431,
      "खनन": 6432,
      "मज़बूत": 6433,
      "आधा": 6434,
      "िकल": 6435,
      "सकल": 6436,
      "फलस्वरूप": 6437,
      "आधारभूत": 6438,
      "2009": 6439,
      "संलग्नक": 6440,
      "गद्य": 6441,
      "नदियों": 6442,
      "विष्ट": 6443,
      "पुण": 6444,
      "डाली": 6445,
      "सहयोगी": 6446,
      "अरु": 6447,
      "पय": 6448,
      "कोर्ट": 6449,
      "राज़": 6450,
      "उठाना": 6451,
      "गेंद": 6452,
      "विज्ञप्ति": 6453,
      "हें": 6454,
      "ढूँ": 6455,
      "विश": 6456,
      "In": 6457,
      "अमर": 6458,
      "योजनाएं": 6459,
      "इकाइयों": 6460,
      "NAME": 6461,
      "आंकड़ा": 6462,
      "प्रयोक्ता": 6463,
      "चलती": 6464,
      "अभ्यास": 6465,
      "दशकों": 6466,
      "अखिल": 6467,
      "ारत": 6468,
      "मानत": 6469,
      "मोड़": 6470,
      "जुट": 6471,
      "tin": 6472,
      "अधिकारिता": 6473,
      "लड़का": 6474,
      "फं": 6475,
      "यानि": 6476,
      "करेंः": 6477,
      "‍या": 6478,
      "तीनों": 6479,
      "48": 6480,
      "रिये": 6481,
      "भरने": 6482,
      "बहादुर": 6483,
      "परोक्ष": 6484,
      "किक": 6485,
      "देशवासियों": 6486,
      "बरकत": 6487,
      "1947": 6488,
      "पृथक": 6489,
      "न्तर": 6490,
      "जिलों": 6491,
      "जीन": 6492,
      "भावनाओं": 6493,
      "तीसरा": 6494,
      "सऋ": 6495,
      "पूर्ववर्ती": 6496,
      "आशय": 6497,
      "पूरक": 6498,
      "गमन": 6499,
      "फरिश्ते": 6500,
      "उपज": 6501,
      "बेट": 6502,
      "आएगी": 6503,
      "पसंदीदा": 6504,
      "प्रोटोकॉल": 6505,
      "इंत": 6506,
      "क्वा": 6507,
      "बेटों": 6508,
      "बनना": 6509,
      "ener": 6510,
      "ानिस्तान": 6511,
      "थल": 6512,
      "बडे": 6513,
      "राष्ट्री": 6514,
      "एहसान": 6515,
      "कचरा": 6516,
      "अख": 6517,
      "पैसा": 6518,
      "फोट": 6519,
      "दूँगा": 6520,
      "ज़ो": 6521,
      "अधिसूचित": 6522,
      "गिरा": 6523,
      "शान्ति": 6524,
      "----": 6525,
      "घेर": 6526,
      "पक्व": 6527,
      "होगें": 6528,
      "दिखायें": 6529,
      "उपलब्धता": 6530,
      "फसलों": 6531,
      "प्रतिदान": 6532,
      "सोसाइ": 6533,
      "कहें": 6534,
      "गईं": 6535,
      "गारंटी": 6536,
      "कार्यालयों": 6537,
      "महानि": 6538,
      "प्रदायिक": 6539,
      "डब्ल्यू": 6540,
      "धूप": 6541,
      "हारी": 6542,
      "टीका": 6543,
      "मिलन": 6544,
      "वृत्": 6545,
      "समूद": 6546,
      "बेहश्त": 6547,
      "हथियार": 6548,
      "ढो": 6549,
      "अंततः": 6550,
      "सत्यापित": 6551,
      "क्यो": 6552,
      "मनी": 6553,
      "विनियमन": 6554,
      "लियाँ": 6555,
      "चीज़ें": 6556,
      "नौका": 6557,
      "साक्षी": 6558,
      "ढी": 6559,
      "वन्य": 6560,
      "उन्होनें": 6561,
      "अंग्रेजों": 6562,
      "पाकीज़ा": 6563,
      "अजी": 6564,
      "आएँ": 6565,
      "कार्यरत": 6566,
      "नियन": 6567,
      "चुकता": 6568,
      "पेय": 6569,
      "सोसाइटी": 6570,
      "लेबल": 6571,
      "¥": 6572,
      "सालों": 6573,
      "राधा": 6574,
      "मुल्क": 6575,
      "दीजिए": 6576,
      "आरक्षित": 6577,
      "लंदन": 6578,
      "गर्भा": 6579,
      "हटाने": 6580,
      "प्रोफेसर": 6581,
      "37": 6582,
      "जागर": 6583,
      "ईंधन": 6584,
      "अपू": 6585,
      "भाइयों": 6586,
      "स्थाई": 6587,
      "इरादा": 6588,
      "नस्ल": 6589,
      "मस्जिद": 6590,
      "दिमाग": 6591,
      "फट": 6592,
      "पाना": 6593,
      "अधिकृत": 6594,
      "ज़ाम": 6595,
      "धनराशि": 6596,
      "आस्तियों": 6597,
      "सूरज": 6598,
      "ईस": 6599,
      "व्यष्टि": 6600,
      "पीछा": 6601,
      "परिवर्तनों": 6602,
      "चंद": 6603,
      "शल्य": 6604,
      "टाल": 6605,
      "बनता": 6606,
      "तुझ": 6607,
      "क़समें": 6608,
      "बचने": 6609,
      "आकांक्षा": 6610,
      "मल्": 6611,
      "ख़ैर": 6612,
      "प्रतिबि": 6613,
      "अंदा": 6614,
      "देखोगे": 6615,
      "परेशान": 6616,
      "एहद": 6617,
      "मग़": 6618,
      "हज": 6619,
      "मेहन": 6620,
      "प्रावधानों": 6621,
      "फ्रेम": 6622,
      "असामान्य": 6623,
      "सूद": 6624,
      "बताता": 6625,
      "अवरो": 6626,
      "दार्श": 6627,
      "फौरन": 6628,
      "विभेद": 6629,
      "न्ड": 6630,
      "पहलुओं": 6631,
      "राष्ट्रों": 6632,
      "वैय": 6633,
      "आयकर": 6634,
      "भरपूर": 6635,
      "व्यापारिक": 6636,
      "मचा": 6637,
      "हज़ार": 6638,
      "स्तन": 6639,
      "लाभों": 6640,
      "स्रोतों": 6641,
      "नकद": 6642,
      "हकदार": 6643,
      "अज़": 6644,
      "ओवर": 6645,
      "कीटों": 6646,
      "बायो": 6647,
      "लोकसभा": 6648,
      "लाखों": 6649,
      "प्रसारण": 6650,
      "संयोजन": 6651,
      "फिलीस्ती": 6652,
      "बढ़े": 6653,
      "प्रभावशाली": 6654,
      "तथ्यों": 6655,
      "स्वच्छता": 6656,
      "साझेदारी": 6657,
      "सीता": 6658,
      "विषा": 6659,
      "बताते": 6660,
      "फरमाया": 6661,
      "कट्टर": 6662,
      "अंशदान": 6663,
      "पचास": 6664,
      "तबाही": 6665,
      "Ch": 6666,
      "सारणी": 6667,
      "फिल": 6668,
      "झूठा": 6669,
      "क्रेता": 6670,
      "लम्बी": 6671,
      "किराये": 6672,
      "विद्रोह": 6673,
      "िरो": 6674,
      "ग्य": 6675,
      "वितरित": 6676,
      "मुहम्मद": 6677,
      "परिपक्व": 6678,
      "सौभाग्य": 6679,
      "टर्मिनल": 6680,
      "गाड़ी": 6681,
      "ब्राह्मण": 6682,
      "आमद": 6683,
      "स्थितियों": 6684,
      "दस्तावेजों": 6685,
      "स्वाधीन": 6686,
      "खिलाड़ी": 6687,
      "दार्शनिक": 6688,
      "नर्म": 6689,
      "राज़ी": 6690,
      "व्यापी": 6691,
      "वस्तुएं": 6692,
      "ग्स": 6693,
      "दलील": 6694,
      "बीबी": 6695,
      "चेन्न": 6696,
      "जानना": 6697,
      "द्दीन": 6698,
      "प्रतिमा": 6699,
      "कृत्रि": 6700,
      "पत्तियों": 6701,
      "नकारात्मक": 6702,
      "पिछला": 6703,
      "परंपरागत": 6704,
      "यात्री": 6705,
      "किर": 6706,
      "अनुक्रम": 6707,
      "कैन": 6708,
      "ख्वाहि": 6709,
      "फैल": 6710,
      "पुराण": 6711,
      "अश्": 6712,
      "आज़ा": 6713,
      "घबरा": 6714,
      "ग़ैर": 6715,
      "शीर्षिका": 6716,
      "ंसी": 6717,
      "आब": 6718,
      "विडियो": 6719,
      "केंद्रों": 6720,
      ",–": 6721,
      "प्रणालियों": 6722,
      "लक्ष्यों": 6723,
      "कानूनों": 6724,
      "पीड़ा": 6725,
      "पीडी": 6726,
      "लाइट": 6727,
      "गिनती": 6728,
      "याता": 6729,
      "अपार": 6730,
      "सकने": 6731,
      "स्वीकार्य": 6732,
      "ठहराया": 6733,
      "wea": 6734,
      "ाधिकार": 6735,
      "बालों": 6736,
      "निर्माता": 6737,
      "बताने": 6738,
      "परिकल्प": 6739,
      "पंजाबी": 6740,
      "po": 6741,
      "उन्हे": 6742,
      "गूगल": 6743,
      "¥": 6744,
      "ँग": 6745,
      "नय": 6746,
      "विलो": 6747,
      "रचनात्मक": 6748,
      "टैग": 6749,
      "कमाई": 6750,
      "सलाहकार": 6751,
      "इंग्लैंड": 6752,
      "जगत": 6753,
      "रस्": 6754,
      "सफाई": 6755,
      "सर्ग": 6756,
      "ट्टा": 6757,
      "विचारधारा": 6758,
      "रोकते": 6759,
      "सायनिक": 6760,
      "कम्पा": 6761,
      "प्रतिबद्धता": 6762,
      "ग्रन्थ": 6763,
      "रेक्ट": 6764,
      "प्राधिकृत": 6765,
      "बादल": 6766,
      "ड़ीसा": 6767,
      "सवाब": 6768,
      "अध्यक्षता": 6769,
      "निवारण": 6770,
      "ao": 6771,
      "um": 6772,
      "आवेद": 6773,
      "इल्": 6774,
      "नजात": 6775,
      "मरियम": 6776,
      "वाज": 6777,
      "ष्कार": 6778,
      "कार्यान्वित": 6779,
      "परेखा": 6780,
      "एशियाई": 6781,
      "चोरी": 6782,
      "किम": 6783,
      "संक्रिया": 6784,
      "अपनाई": 6785,
      "आत्मनिर्भर": 6786,
      "फेंक": 6787,
      "रिकॉर्ड": 6788,
      "ख़्": 6789,
      "प्रतिवादी": 6790,
      "¤": 6791,
      "जम": 6792,
      "१२": 6793,
      "सेक": 6794,
      "होटल": 6795,
      "मंत्रियों": 6796,
      "फ़ाइलों": 6797,
      "सारांश": 6798,
      "नमूना": 6799,
      "भूख": 6800,
      "55": 6801,
      "bo": 6802,
      "कीकरण": 6803,
      "समझना": 6804,
      "सैनिकों": 6805,
      "फ्रांस": 6806,
      "मत्": 6807,
      "संचित": 6808,
      "चौथा": 6809,
      "०००": 6810,
      "शास्त्रीय": 6811,
      "ब्य": 6812,
      "उत्सव": 6813,
      "शर्तें": 6814,
      "तीसरी": 6815,
      "बर्फ": 6816,
      "ंगें": 6817,
      "खेत": 6818,
      "घास": 6819,
      "weather": 6820,
      "अकार": 6821,
      "लाइब्रेरी": 6822,
      "ईंट": 6823,
      "बचे": 6824,
      "प्रबल": 6825,
      "नाब": 6826,
      "बेकार": 6827,
      "उत्तरदायित्व": 6828,
      "पहुँचने": 6829,
      "ऑफ़लाइन": 6830,
      "उभार": 6831,
      "षकों": 6832,
      "मुहा": 6833,
      "मानकों": 6834,
      "धारकों": 6835,
      "डरता": 6836,
      "गलती": 6837,
      "अफग": 6838,
      "अटल": 6839,
      "याल": 6840,
      "म्बई": 6841,
      "इज्": 6842,
      "तदन": 6843,
      "मानने": 6844,
      "इम्": 6845,
      "टना": 6846,
      "पद्": 6847,
      "वाइस": 6848,
      "बीन": 6849,
      "मिलना": 6850,
      "इंदिरा": 6851,
      "क़ुदरत": 6852,
      "ड्राइव": 6853,
      "खनिज": 6854,
      "आवरण": 6855,
      "आजीविका": 6856,
      "भड़क": 6857,
      "निंदा": 6858,
      "देशक": 6859,
      "ार्इ": 6860,
      "सबका": 6861,
      "सुधारों": 6862,
      "भागीदार": 6863,
      "एजेंसियों": 6864,
      "स्थिरता": 6865,
      "हँसी": 6866,
      "सेस": 6867,
      "स्वे": 6868,
      "आकर्षण": 6869,
      "अकादमी": 6870,
      "वैयक्ति": 6871,
      "300": 6872,
      "ew": 6873,
      "निवे": 6874,
      "ग्रि": 6875,
      "अभिभाषण": 6876,
      "पढ़ते": 6877,
      "अंग्रेज़ी": 6878,
      "कर्मों": 6879,
      "टेलीफोन": 6880,
      "कुम": 6881,
      "अवसंरचना": 6882,
      "सोल": 6883,
      "छुट्टी": 6884,
      "दुर्लभ": 6885,
      "इष्ट": 6886,
      "कंध": 6887,
      "टान": 6888,
      "राइल": 6889,
      "मनपसंद": 6890,
      "मौका": 6891,
      "चलना": 6892,
      "पड़ते": 6893,
      "धोखे": 6894,
      "इजाज़त": 6895,
      "यातायात": 6896,
      "कति": 6897,
      "माप": 6898,
      "फ़त": 6899,
      "बेडकर": 6900,
      "मतदान": 6901,
      "लगाकर": 6902,
      "कराई": 6903,
      "कराता": 6904,
      "वार्ता": 6905,
      "अंडे": 6906,
      "OF": 6907,
      "गले": 6908,
      "लीग": 6909,
      "देनेवाला": 6910,
      "अनिवासी": 6911,
      "कैंसर": 6912,
      "वाहक": 6913,
      "कृत्रिम": 6914,
      "¤": 6915,
      "भव्य": 6916,
      "निचले": 6917,
      "मोमिनों": 6918,
      "शिष": 6919,
      "हूंगा": 6920,
      "टिकट": 6921,
      "der": 6922,
      "ul": 6923,
      "उड़ीसा": 6924,
      "नाहक़": 6925,
      "चाहो": 6926,
      "अपेक्षाकृत": 6927,
      "सच्चाई": 6928,
      "ML": 6929,
      "आस्था": 6930,
      "काबा": 6931,
      "हरित": 6932,
      "कृत्य": 6933,
      "बनाओ": 6934,
      "मरम्मत": 6935,
      "झुठलाने": 6936,
      "कुफ्फार": 6937,
      "मंगल": 6938,
      "मौजिज़े": 6939,
      "38": 6940,
      "दाह": 6941,
      "परिश्रम": 6942,
      "बहुमत": 6943,
      "द्रास": 6944,
      "स्कूलों": 6945,
      "शों": 6946,
      "सेंट": 6947,
      "हड्ड": 6948,
      "साक्षा": 6949,
      "प्राणी": 6950,
      "नकदी": 6951,
      "शाखाओं": 6952,
      "जरूरतों": 6953,
      "पाओगे": 6954,
      "ओपन": 6955,
      "हमपर": 6956,
      "पहुँची": 6957,
      "प्रस्तुति": 6958,
      "ढेर": 6959,
      "ऊतक": 6960,
      "प्रवृत्त": 6961,
      "बरस": 6962,
      "पूर्णतः": 6963,
      "सोम": 6964,
      "गोष्ठ": 6965,
      "कनेक्ट": 6966,
      "ver": 6967,
      "इयां": 6968,
      "हुकू": 6969,
      "ख़्या": 6970,
      "दीक्षांत": 6971,
      "इता": 6972,
      "दण्ड": 6973,
      "माताओं": 6974,
      "पुत": 6975,
      "देखेंगे": 6976,
      "शस्त्र": 6977,
      "ड़ना": 6978,
      "मानदंड": 6979,
      "शोषण": 6980,
      "उद्यमों": 6981,
      "उत्कृष्टता": 6982,
      "केडीई": 6983,
      "विदेशों": 6984,
      "नील": 6985,
      "कुबूल": 6986,
      "सिर्": 6987,
      "हिस्सों": 6988,
      "इन्हीं": 6989,
      "मुकदमा": 6990,
      "Gener": 6991,
      "चिक": 6992,
      "प्रदर्शक": 6993,
      "पूछे": 6994,
      "संकल्पना": 6995,
      "विफलः": 6996,
      "प्लगिन": 6997,
      "ूत": 6998,
      "ृंग": 6999,
      "किला": 7000,
      "करनेवाली": 7001,
      "खातों": 7002,
      "श्रेण": 7003,
      "सेंटर": 7004,
      "नज़दीक": 7005,
      "आवि": 7006,
      "लाओगे": 7007,
      "साझीदार": 7008,
      "दलों": 7009,
      "लियो": 7010,
      "अनुचित": 7011,
      "स्टिक": 7012,
      "डोमेन": 7013,
      "sp": 7014,
      "प्रदत्त": 7015,
      "सोसि": 7016,
      "मुख्यतः": 7017,
      "पाठक": 7018,
      "किट": 7019,
      "क़्यों": 7020,
      "प्रातः": 7021,
      "सम्बद्ध": 7022,
      "वैष्ण": 7023,
      "189": 7024,
      "मिश्रित": 7025,
      "जीवाणु": 7026,
      "कारिता": 7027,
      "गुज़": 7028,
      "वर्षीय": 7029,
      "कवियों": 7030,
      "गवर्नर": 7031,
      "झील": 7032,
      "मद्रास": 7033,
      "हरिया": 7034,
      "हुये": 7035,
      "चाहूंगा": 7036,
      "गुं": 7037,
      "पैनल": 7038,
      "शोधन": 7039,
      "चित्रों": 7040,
      "are": 7041,
      "ज़रूरत": 7042,
      "सृष्टि": 7043,
      "बांग्लादेश": 7044,
      "but": 7045,
      "जूर": 7046,
      "दिखाए": 7047,
      "ऊँचाई": 7048,
      "इंजीनियरी": 7049,
      "लिय": 7050,
      "कारियों": 7051,
      "मोटे": 7052,
      "एसएस": 7053,
      "इमारत": 7054,
      "अनू": 7055,
      "कार्यकारी": 7056,
      "प्रशिक्षित": 7057,
      "नरम": 7058,
      "मजबूर": 7059,
      "पुष्प": 7060,
      "be": 7061,
      "खरा": 7062,
      "्न": 7063,
      "नात": 7064,
      "कॉर्": 7065,
      "गरि": 7066,
      "प्रचालन": 7067,
      "सिड": 7068,
      "विकलांग": 7069,
      "सौंदर्य": 7070,
      "लम्बे": 7071,
      "खतरनाक": 7072,
      "नाट्य": 7073,
      "wh": 7074,
      "वारा": 7075,
      "संवेदना": 7076,
      "माणिक": 7077,
      "वैसी": 7078,
      "सितम्बर": 7079,
      "आंकड़े": 7080,
      "इन्द्र": 7081,
      "बिया": 7082,
      "मश": 7083,
      "र्या": 7084,
      "नाफर": 7085,
      "ज़िक्र": 7086,
      "यूआर": 7087,
      "सांख्य": 7088,
      "सुनकर": 7089,
      "पहाड़ों": 7090,
      "fi": 7091,
      "ow": 7092,
      "स्थलों": 7093,
      "स्वै": 7094,
      "संदेशों": 7095,
      "सिर्फ़": 7096,
      "विज": 7097,
      "रचनाओं": 7098,
      "पूछते": 7099,
      "प्रिंटर": 7100,
      "अने": 7101,
      "वजन": 7102,
      "वाक्य": 7103,
      "संकलन": 7104,
      "माइश": 7105,
      "व्याख्यान": 7106,
      "TRAN": 7107,
      "प्या": 7108,
      "िर्": 7109,
      "कोने": 7110,
      "प्रांत": 7111,
      "मित्रता": 7112,
      "स्ट्रिंग": 7113,
      "आशु": 7114,
      "चों": 7115,
      "आदत": 7116,
      "सृजित": 7117,
      "उधर": 7118,
      "ैति": 7119,
      "उत्पादकता": 7120,
      "संगणक": 7121,
      "व्युत्पन्न": 7122,
      "इताअत": 7123,
      "चश्": 7124,
      "बडा": 7125,
      "’’": 7126,
      "सेवक": 7127,
      "माननीय": 7128,
      "मेगा": 7129,
      "सुले": 7130,
      "रखरखाव": 7131,
      "ख़बरदार": 7132,
      "अतएव": 7133,
      "निपटान": 7134,
      "उदय": 7135,
      "औज़ार": 7136,
      "भित": 7137,
      "रोज़े": 7138,
      "ख़िला": 7139,
      "प्रॉक्सी": 7140,
      "१६": 7141,
      "परिषद्": 7142,
      "उपेक्षा": 7143,
      "अस्वीकार": 7144,
      "कोट": 7145,
      "रासायनिक": 7146,
      "व्यर्थ": 7147,
      "ड्रो": 7148,
      "ऊंची": 7149,
      "माउस": 7150,
      "श्ले": 7151,
      "डॉक्टर": 7152,
      "अफसोस": 7153,
      "बगैर": 7154,
      "मियम": 7155,
      "प्रतिलिपि": 7156,
      "उत्‍": 7157,
      "पोरेट": 7158,
      "विकासशील": 7159,
      "शक्तियां": 7160,
      "सिंहा": 7161,
      "पशुओं": 7162,
      "संवेदनशील": 7163,
      "पेशेवर": 7164,
      "अज्ञान": 7165,
      "ह्य": 7166,
      "होस्ट": 7167,
      "दीं": 7168,
      "बेटी": 7169,
      "मुख्या": 7170,
      "गोप": 7171,
      "मध्यस्थ": 7172,
      "टैगोर": 7173,
      "तियार": 7174,
      "निमित": 7175,
      "जिन्ना": 7176,
      "सिफ़ार": 7177,
      "डाक्टर": 7178,
      "गोरा": 7179,
      "अन्वे": 7180,
      "ऊँगा": 7181,
      "हैसियत": 7182,
      "लाकर": 7183,
      "दांत": 7184,
      "आँखें": 7185,
      "वगै": 7186,
      "कालेज": 7187,
      "प्रवास": 7188,
      "दिशान": 7189,
      "गाने": 7190,
      "बीत": 7191,
      "नामों": 7192,
      "दिखाना": 7193,
      "महासागर": 7194,
      "पुनरा": 7195,
      "फ्रें": 7196,
      "अन्याय": 7197,
      "थाम": 7198,
      "सामान्यतया": 7199,
      "इस्पात": 7200,
      "नर्": 7201,
      "शादी": 7202,
      "खोजें": 7203,
      "घाटा": 7204,
      "उपलब्धियों": 7205,
      "188": 7206,
      "सुनाई": 7207,
      "कोयला": 7208,
      "काज": 7209,
      "रूचि": 7210,
      "राजपत्र": 7211,
      "वस्तुतः": 7212,
      "त्वरित": 7213,
      "कण": 7214,
      "नक्": 7215,
      "पहर": 7216,
      "विंद": 7217,
      "तेह": 7218,
      "शिंग": 7219,
      "प्स": 7220,
      "रूपये": 7221,
      "महाद्वीप": 7222,
      "एण्ड": 7223,
      "बंबई": 7224,
      "विज्ञापन": 7225,
      "भुत": 7226,
      "कविताओं": 7227,
      "मराठी": 7228,
      "मुशरिक": 7229,
      "ज़न": 7230,
      "बढ़ो": 7231,
      "प्रतिस्पर्धा": 7232,
      "नाबार्ड": 7233,
      "अफगानिस्तान": 7234,
      "mi": 7235,
      "जिंग": 7236,
      "तद": 7237,
      "थै": 7238,
      "निरूप": 7239,
      "संजाल": 7240,
      "सुनो": 7241,
      "रोना": 7242,
      "भूतियों": 7243,
      "चुपके": 7244,
      "ATO": 7245,
      "चाँद": 7246,
      "हुकूमत": 7247,
      "समझी": 7248,
      "तनाव": 7249,
      "गयीं": 7250,
      "एक्सचेंज": 7251,
      "मुकाबले": 7252,
      "दिशानिर्": 7253,
      "उज्": 7254,
      "घृ": 7255,
      "दस्ती": 7256,
      "बिर": 7257,
      "वेल": 7258,
      "प्राप्": 7259,
      "कार्मिक": 7260,
      "एफसी": 7261,
      "फूलों": 7262,
      "मेहनत": 7263,
      "CO": 7264,
      "प्रजा": 7265,
      "नात्मक": 7266,
      "जियों": 7267,
      "translat": 7268,
      "नूर": 7269,
      "ानुभूति": 7270,
      "ब्रह्मा": 7271,
      "झो": 7272,
      "किमी": 7273,
      "लगने": 7274,
      "ort": 7275,
      "ऊँची": 7276,
      "सोचते": 7277,
      "ड्यूल": 7278,
      "ताक": 7279,
      "हीत": 7280,
      "निवेदन": 7281,
      "हाबाद": 7282,
      "गीतों": 7283,
      "फिरते": 7284,
      "आईपी": 7285,
      "नोड": 7286,
      "आजाद": 7287,
      "महो": 7288,
      "लाभा": 7289,
      "रूपरेखा": 7290,
      "पहचा": 7291,
      "बढ़ता": 7292,
      "SLATO": 7293,
      "TRANSLATO": 7294,
      "TRANSLATORS": 7295,
      "मंद": 7296,
      "हर्ष": 7297,
      "संदत्त": 7298,
      "त्रियों": 7299,
      "चालक": 7300,
      "गुजरा": 7301,
      "बोलने": 7302,
      "बन्धन": 7303,
      "कतिपय": 7304,
      "65": 7305,
      "चिर": 7306,
      "स्वाद": 7307,
      "तिहाई": 7308,
      "पाती": 7309,
      "मोती": 7310,
      "रखनेवालों": 7311,
      "सर्वथा": 7312,
      "इलाकों": 7313,
      "शपथ": 7314,
      "रिता": 7315,
      "खुल्लम": 7316,
      "झगड़ा": 7317,
      "रजिस्टर": 7318,
      "चखो": 7319,
      "डालो": 7320,
      "समझो": 7321,
      "त्मकता": 7322,
      "भुला": 7323,
      "अंतरित": 7324,
      "सिद्धान्त": 7325,
      "शिर्क": 7326,
      "प्रतिज्ञा": 7327,
      "गुट": 7328,
      "शेर": 7329,
      "एहकाम": 7330,
      "वर्गीकरण": 7331,
      "निषे": 7332,
      "इबरत": 7333,
      "बालक": 7334,
      "स्तम्भ": 7335,
      "गोला": 7336,
      "लंबित": 7337,
      "मेमोरी": 7338,
      "gu": 7339,
      "एट": 7340,
      "बाढ़": 7341,
      "लोगे": 7342,
      "मेर": 7343,
      "ार्म": 7344,
      "राजमार्ग": 7345,
      "ज्यादातर": 7346,
      "इंजीनियरिंग": 7347,
      "माय": 7348,
      "बचपन": 7349,
      "आकर्षक": 7350,
      "वात": 7351,
      "पढ़ाई": 7352,
      "दीवारों": 7353,
      "हममें": 7354,
      "1992": 7355,
      "कहानियों": 7356,
      "TP": 7357,
      "स्थापक": 7358,
      "क्षरता": 7359,
      "वांछित": 7360,
      "ve": 7361,
      "ऊंचे": 7362,
      "वाम": 7363,
      "निग": 7364,
      "रसी": 7365,
      "करतू": 7366,
      "दौरा": 7367,
      "जंगली": 7368,
      "परिकल्पना": 7369,
      "वक्ता": 7370,
      "विलय": 7371,
      "परित": 7372,
      "अपवाद": 7373,
      "मानस": 7374,
      "अवकाश": 7375,
      "छोड़े": 7376,
      "एशन": 7377,
      "शमन": 7378,
      "तापूर्वक": 7379,
      "निर्देशों": 7380,
      "रियल": 7381,
      "गुल": 7382,
      "खुल्ला": 7383,
      "वानि": 7384,
      "गर्दन": 7385,
      "उम्मत": 7386,
      "दमन": 7387,
      "ल्ले": 7388,
      "सिले": 7389,
      "त्यो": 7390,
      "आवासी": 7391,
      "बरदार": 7392,
      "किनारा": 7393,
      "क्रांतिकारी": 7394,
      "ग़ैरह": 7395,
      "अखबार": 7396,
      "कबीर": 7397,
      "चतुर्": 7398,
      "फलों": 7399,
      "लक्षित": 7400,
      "ारो": 7401,
      "बाबा": 7402,
      "बांट": 7403,
      "अनन्त": 7404,
      "दिखाते": 7405,
      "सहभाग": 7406,
      "नोडल": 7407,
      "ग्रीन": 7408,
      "तौरेत": 7409,
      "पहुंचाने": 7410,
      "सौंपा": 7411,
      "सशस्त्र": 7412,
      "ष्‍ट": 7413,
      "रिज़र्व": 7414,
      "आधे": 7415,
      "पिक्": 7416,
      "शुरूआत": 7417,
      "भोज": 7418,
      "धोखा": 7419,
      "57": 7420,
      "नमक": 7421,
      "बक्": 7422,
      "वृत्ता": 7423,
      "ियल": 7424,
      "हक़ी": 7425,
      "मुशरे": 7426,
      "मामू": 7427,
      "150": 7428,
      "अजीब": 7429,
      "सुलेमान": 7430,
      "47": 7431,
      "¤": 7432,
      "शू": 7433,
      "सुनी": 7434,
      "सर्वश्रेष्ठ": 7435,
      "उन्नयन": 7436,
      "आमदनी": 7437,
      "मज़े": 7438,
      "१७": 7439,
      "विटी": 7440,
      "रात्रि": 7441,
      "प्पा": 7442,
      "वरन्": 7443,
      "सहानुभूति": 7444,
      "अन्जाम": 7445,
      "नली": 7446,
      "मक़": 7447,
      "क्लिप": 7448,
      "गोपन": 7449,
      "ब्रै": 7450,
      "वैयक्तिक": 7451,
      "डूब": 7452,
      "हकी": 7453,
      "ंगिक": 7454,
      "ख़रा": 7455,
      "गुलाम": 7456,
      "कृतियों": 7457,
      "मुद्रित": 7458,
      "ठहराते": 7459,
      "पक्का": 7460,
      "मेज": 7461,
      "टीय": 7462,
      "अधिवेशन": 7463,
      "दरों": 7464,
      "तारों": 7465,
      "ज्यादती": 7466,
      "क़ात": 7467,
      "घेरे": 7468,
      "रजिस्ट्री": 7469,
      "भत्ता": 7470,
      "‍व": 7471,
      "जिया": 7472,
      "वक्तव्य": 7473,
      "दीर्घा": 7474,
      "(.": 7475,
      "42": 7476,
      "ओएस": 7477,
      "गार्ड": 7478,
      "सार्थ": 7479,
      "सेवानि": 7480,
      "नियोजन": 7481,
      "संतान": 7482,
      "ष्म": 7483,
      "प्रतिरोध": 7484,
      "पढ़ी": 7485,
      "ग्लो": 7486,
      "नुक़": 7487,
      "बल्लेबाज": 7488,
      "निमित्त": 7489,
      "आल": 7490,
      "स्त्रियाँ": 7491,
      "निवेशकों": 7492,
      "फूट": 7493,
      "पूछता": 7494,
      "क्रोध": 7495,
      "लाभांश": 7496,
      "रहीं": 7497,
      "समकालीन": 7498,
      "सुगम": 7499,
      "राजकुमार": 7500,
      "लेखों": 7501,
      "एकत्रित": 7502,
      "इलेक्ट्रॉनिक": 7503,
      "AP": 7504,
      "ऊद": 7505,
      "खिक": 7506,
      "वाँ": 7507,
      "समायोजन": 7508,
      "गरीबों": 7509,
      "गृ": 7510,
      "रद्दी": 7511,
      "हिज": 7512,
      "शिप": 7513,
      "प्रेषक": 7514,
      "फिल्टर": 7515,
      "परियोजनाएं": 7516,
      "lab": 7517,
      "निपटने": 7518,
      "स्वाधीनता": 7519,
      "एप्": 7520,
      "याक़": 7521,
      "क्लब": 7522,
      "निर्गम": 7523,
      "स्टार्ट": 7524,
      "मनाया": 7525,
      "1948": 7526,
      "व्‍य": 7527,
      "सांख्यिकी": 7528,
      "जज़ा": 7529,
      "बछ": 7530,
      "उपर्": 7531,
      "पीछ": 7532,
      "पोर्": 7533,
      "निश्चि": 7534,
      "बैकअप": 7535,
      "सिन्": 7536,
      "झुक": 7537,
      "गणतंत्र": 7538,
      "चित्रित": 7539,
      "लौटने": 7540,
      "फॉर": 7541,
      "मुशरेकीन": 7542,
      "परक": 7543,
      "म्बा": 7544,
      "फीस": 7545,
      "माहौल": 7546,
      "मजदूरी": 7547,
      "tle": 7548,
      "आवं": 7549,
      "टकों": 7550,
      "दाद": 7551,
      "ज्जु": 7552,
      "मिटाना": 7553,
      "अप्रत्या": 7554,
      "खरीदने": 7555,
      "टके": 7556,
      "फ्री": 7557,
      "ताना": 7558,
      "विड": 7559,
      "लाएँगे": 7560,
      "पाँव": 7561,
      "रहकर": 7562,
      "म्मा": 7563,
      "मारने": 7564,
      "बढ़ाना": 7565,
      "घोड़े": 7566,
      "वसीयत": 7567,
      "ैतिज": 7568,
      ",%": 7569,
      "गज": 7570,
      "डऋ": 7571,
      "टीएम": 7572,
      "घुस": 7573,
      "उलट": 7574,
      "टुकड़ा": 7575,
      "पूर्वोत्तर": 7576,
      "गित": 7577,
      "ख़री": 7578,
      "चेहरा": 7579,
      "पकड़े": 7580,
      "प्रेरक": 7581,
      "पेट्रोलियम": 7582,
      "ऐं": 7583,
      "घड़": 7584,
      "काँ": 7585,
      "संग्राम": 7586,
      "ड़का": 7587,
      "राइ": 7588,
      "संवैधानिक": 7589,
      "मार्ट": 7590,
      "सर्वज्ञ": 7591,
      "अरे": 7592,
      "वकों": 7593,
      "साकार": 7594,
      "अनुकम्पा": 7595,
      "ऑटो": 7596,
      "खर्": 7597,
      "निगाह": 7598,
      "ैंक": 7599,
      "मतभेद": 7600,
      "यीं": 7601,
      "विशेषाधिकार": 7602,
      "प्रोटीन": 7603,
      "प्रौद्योगि": 7604,
      "अग्रे": 7605,
      "तत्कालीन": 7606,
      "चिंतन": 7607,
      "सचिवा": 7608,
      "ट्रांस": 7609,
      "अफ़सोस": 7610,
      "गाँधी": 7611,
      "ध्रु": 7612,
      "वैष्णव": 7613,
      "lic": 7614,
      "वश्य": 7615,
      "ॉल": 7616,
      "केश": 7617,
      "तालिका": 7618,
      "दाबाद": 7619,
      "बनाती": 7620,
      "लोप": 7621,
      "गोली": 7622,
      "रंगमंच": 7623,
      "सार्वभौ": 7624,
      "खोलकर": 7625,
      "तलाक़": 7626,
      "स्पर्श": 7627,
      "औषधि": 7628,
      "तुम्": 7629,
      "सरदारों": 7630,
      "श्रीलंका": 7631,
      "पक्षियों": 7632,
      "निराश": 7633,
      "sion": 7634,
      "वग़ैरह": 7635,
      "हता": 7636,
      "इनको": 7637,
      "सबकी": 7638,
      "किताबों": 7639,
      "चूक": 7640,
      "फिलीस्तीनी": 7641,
      "आभूषण": 7642,
      "लाती": 7643,
      "बाला": 7644,
      "बसव": 7645,
      "राजाओं": 7646,
      "प्रशासक": 7647,
      "इलाहाबाद": 7648,
      "निराशा": 7649,
      "ब्राउज़र": 7650,
      "सिंहासन": 7651,
      "निको": 7652,
      "माया": 7653,
      "गोरि": 7654,
      "जाएँगें": 7655,
      "अज्र": 7656,
      "☻☻": 7657,
      "तानों": 7658,
      "उपहार": 7659,
      "वरणीय": 7660,
      "खोजने": 7661,
      "छिपाते": 7662,
      "क्रामक": 7663,
      "मेहरबानी": 7664,
      "परहेज़गारी": 7665,
      "क़ब्ल": 7666,
      "महानिदेशक": 7667,
      "मरे": 7668,
      "कोटा": 7669,
      "जैविक": 7670,
      "पिन": 7671,
      "मौज़ू": 7672,
      "सूचीबद्ध": 7673,
      "item": 7674,
      "प्रिंट": 7675,
      "करुणा": 7676,
      "हैया": 7677,
      "निभाई": 7678,
      "सूजन": 7679,
      "छिपी": 7680,
      "केन्द्रित": 7681,
      "वारी": 7682,
      "हमले": 7683,
      "समावेश": 7684,
      "छोड़ें": 7685,
      "नियंत्रक": 7686,
      "MAP": 7687,
      "gnome": 7688,
      "क्टे": 7689,
      "कुशा": 7690,
      "हिम": 7691,
      "फाइन": 7692,
      "आजकल": 7693,
      "बढ़ाया": 7694,
      "लक्ष्": 7695,
      "हस्तांतरण": 7696,
      "color": 7697,
      "अवशेष": 7698,
      "शीत": 7699,
      "डीए": 7700,
      "संरक्षित": 7701,
      "अपरि": 7702,
      "अहिंसा": 7703,
      "कतरा": 7704,
      "परिचालन": 7705,
      "विधियों": 7706,
      "पैरों": 7707,
      "विवेकान": 7708,
      "दीर्घकालिक": 7709,
      "अप्रत्याशित": 7710,
      "अद्": 7711,
      "क्लो": 7712,
      "सेनाओं": 7713,
      "ऊँट": 7714,
      "ty": 7715,
      "मख़": 7716,
      "समीकरण": 7717,
      "पाट": 7718,
      "उत्सु": 7719,
      "बुर्": 7720,
      "वृद्ध": 7721,
      "कैश": 7722,
      "आंखों": 7723,
      "परहेज़गार": 7724,
      "ंदी": 7725,
      "प्रवर्": 7726,
      "परदा": 7727,
      "सामु": 7728,
      "क्षैतिज": 7729,
      "क़्ति": 7730,
      "अन्दा": 7731,
      "नुक़सान": 7732,
      "आपात": 7733,
      "चखा": 7734,
      "ञ्": 7735,
      "संव्यवहार": 7736,
      "दूरसंचार": 7737,
      "lation": 7738,
      "अभिक": 7739,
      "नवीकरण": 7740,
      "गुज़ार": 7741,
      "मूलन": 7742,
      "खुल": 7743,
      "पन्": 7744,
      "हाली": 7745,
      "प्रां": 7746,
      "बदलना": 7747,
      "पादप": 7748,
      "मुकदमे": 7749,
      "IL": 7750,
      "छः": 7751,
      "बलों": 7752,
      "कारगर": 7753,
      "गाना": 7754,
      "कार्यपालिका": 7755,
      "कलाम": 7756,
      "परिणामों": 7757,
      "नौकर": 7758,
      "पट्टे": 7759,
      "घों": 7760,
      "ितु": 7761,
      "कृमि": 7762,
      "ण्डे": 7763,
      "धूम": 7764,
      "बाएं": 7765,
      "रुजू": 7766,
      "परहेज़गारों": 7767,
      "सरीही": 7768,
      "याक़ूब": 7769,
      "चक्कर": 7770,
      "यात्रियों": 7771,
      "विख्यात": 7772,
      "पाबन्दी": 7773,
      "ंडे": 7774,
      "जनजाति": 7775,
      "पीएम": 7776,
      "this": 7777,
      "Th": 7778,
      "हौ": 7779,
      "उपभोग": 7780,
      "सरत": 7781,
      "रोज़ा": 7782,
      "व्यास": 7783,
      "चरिता": 7784,
      "पतन": 7785,
      "१४": 7786,
      "स्का": 7787,
      "कोमल": 7788,
      "लिफ़": 7789,
      "चिपका": 7790,
      "प्राप्तकर्ता": 7791,
      "छोड़ने": 7792,
      "हारून": 7793,
      "बक": 7794,
      "ॉन": 7795,
      "तरल": 7796,
      "अपराधियों": 7797,
      "खासकर": 7798,
      "जॉन": 7799,
      "श्रद्धांजलि": 7800,
      "आज़माइश": 7801,
      "असंभव": 7802,
      "चलित": 7803,
      "बतौर": 7804,
      "वाने": 7805,
      "होश": 7806,
      "टीवी": 7807,
      "डालना": 7808,
      "भेड़": 7809,
      "धीय": 7810,
      "आधिकार": 7811,
      "ऋतु": 7812,
      "सटी": 7813,
      "राक": 7814,
      "अवगत": 7815,
      "गोवा": 7816,
      "खोला": 7817,
      "ूँगा": 7818,
      "व्रत": 7819,
      "डाटाबेस": 7820,
      "कच्चे": 7821,
      "चतु": 7822,
      "संकाय": 7823,
      "देनी": 7824,
      "जानों": 7825,
      "नाटकों": 7826,
      "उत्तराधिकारी": 7827,
      "कॉन्फ़िगर": 7828,
      "हफ्": 7829,
      "नेको": 7830,
      "वेदी": 7831,
      "अनुकू": 7832,
      "निर्या": 7833,
      "वृति": 7834,
      "अपूर्ण": 7835,
      "एसोसि": 7836,
      "कन्": 7837,
      "कमे": 7838,
      "ठहरे": 7839,
      "द्या": 7840,
      "नींव": 7841,
      "रियास": 7842,
      "भूटान": 7843,
      "मंत्रालयों": 7844,
      "किराया": 7845,
      "इराक": 7846,
      "URL": 7847,
      "नतीजा": 7848,
      "सड़कों": 7849,
      "/%": 7850,
      "हंस": 7851,
      "तानी": 7852,
      "विर": 7853,
      "वाट": 7854,
      "सुदूर": 7855,
      "चुर": 7856,
      "ज़बरदस्त": 7857,
      ")-": 7858,
      "अमृत": 7859,
      "राना": 7860,
      "जील": 7861,
      "सन्देश": 7862,
      "नुसार": 7863,
      "दादाओं": 7864,
      "नमूने": 7865,
      "66": 7866,
      "दानी": 7867,
      "१३": 7868,
      "कीर्": 7869,
      "किरण": 7870,
      "नीत": 7871,
      "मेन्यू": 7872,
      "समर्थक": 7873,
      "लड़ने": 7874,
      "कमीशन": 7875,
      "रेशम": 7876,
      "मनोरंजन": 7877,
      "भड़कती": 7878,
      "¤": 7879,
      "स्कर": 7880,
      "प्रवाहित": 7881,
      "बनाएं": 7882,
      "महफू": 7883,
      "गिर्द": 7884,
      "समस्याएं": 7885,
      "डालर": 7886,
      "शर्ते": 7887,
      "एम्": 7888,
      "निर्धन": 7889,
      "वर्षगांठ": 7890,
      "आगमन": 7891,
      "संकेतक": 7892,
      "कनाडा": 7893,
      "नवाचार": 7894,
      "दरख्त": 7895,
      "नाफ़र": 7896,
      "एकजुट": 7897,
      "उपग्रह": 7898,
      "मीम": 7899,
      "रोड": 7900,
      "पंख": 7901,
      "स्त्रो": 7902,
      "फिरे": 7903,
      "झुठलाओगे": 7904,
      "आँकड़ा": 7905,
      "उम्मीदवार": 7906,
      "विनिधान": 7907,
      "बरसाया": 7908,
      "धमकी": 7909,
      "ting": 7910,
      "गोपनीय": 7911,
      "आबाद": 7912,
      "फिक़": 7913,
      "व्यू": 7914,
      "ज्जा": 7915,
      "पूर्णतया": 7916,
      "केन्द्रों": 7917,
      "बाज़ार": 7918,
      "स्नातक": 7919,
      "सिखाया": 7920,
      "सचिवालय": 7921,
      "बही": 7922,
      "बृह": 7923,
      "श्या": 7924,
      "ख्वा": 7925,
      "दुर्गा": 7926,
      "मोहलत": 7927,
      "मंजूर": 7928,
      "बेचने": 7929,
      "बीवी": 7930,
      "ष्ठान": 7931,
      "नीतिगत": 7932,
      "निकलते": 7933,
      "हल्का": 7934,
      "तदनुसार": 7935,
      "ha": 7936,
      "लखन": 7937,
      "वाइ": 7938,
      "पावर": 7939,
      "पायी": 7940,
      "सिख": 7941,
      "स्वार्थ": 7942,
      "बारिश": 7943,
      "भुज": 7944,
      "बेहद": 7945,
      "आधिकारिक": 7946,
      "54": 7947,
      "gr": 7948,
      "¤": 7949,
      "तमा": 7950,
      "ूस": 7951,
      "सादा": 7952,
      "त्सव": 7953,
      "हिल": 7954,
      "प्रतिवर्ष": 7955,
      "लड़कियों": 7956,
      "उपर्युक्त": 7957,
      "',": 7958,
      "घमंड": 7959,
      "दाऊद": 7960,
      "नियामक": 7961,
      "लॉजी": 7962,
      "वास्तुकला": 7963,
      "अद्वितीय": 7964,
      "सख्": 7965,
      "संग्रहण": 7966,
      "लेस": 7967,
      "भीड़": 7968,
      "निर्माताओं": 7969,
      "ठाकुर": 7970,
      "ख्तियार": 7971,
      "महामारी": 7972,
      "बट": 7973,
      "केस": 7974,
      "पागल": 7975,
      "डियम": 7976,
      "दायिक": 7977,
      "आगरा": 7978,
      "अभ्य": 7979,
      "भूतपूर्व": 7980,
      "पर्यटकों": 7981,
      "दरवाजे": 7982,
      "सुलझा": 7983,
      "सिफ़ारिश": 7984,
      "होंने": 7985,
      "लिटी": 7986,
      "संकु": 7987,
      "बैंड": 7988,
      "ग्न": 7989,
      "रिश्ता": 7990,
      "महफूज़": 7991,
      "ev": 7992,
      "हर्": 7993,
      "प्रदेशों": 7994,
      "राग": 7995,
      "उत्सर्जन": 7996,
      "द्रव्य": 7997,
      "शब्दा": 7998,
      "फिस": 7999,
      "सुनवाई": 8000,
      "करूँगा": 8001,
      "आकस्": 8002,
      "इक": 8003,
      "महिमा": 8004,
      "वार्षिकी": 8005,
      "64": 8006,
      "भगत": 8007,
      "लायक": 8008,
      "वेष": 8009,
      "अनुकरण": 8010,
      "टेनिस": 8011,
      "तरीक़े": 8012,
      "जोड़ना": 8013,
      "टिप्पण": 8014,
      "अवयव": 8015,
      "आशंका": 8016,
      "इधर": 8017,
      "बजाए": 8018,
      "विटा": 8019,
      "नींद": 8020,
      "कर्मियों": 8021,
      "स्वाय": 8022,
      "ऊँचे": 8023,
      "जाननेवाला": 8024,
      "इच्छुक": 8025,
      "कप": 8026,
      "कल्": 8027,
      "”।": 8028,
      "क्साइड": 8029,
      "निक्स": 8030,
      "बातिल": 8031,
      "अपितु": 8032,
      "पाय": 8033,
      "ढ़ियों": 8034,
      "गुस्": 8035,
      "मोट": 8036,
      "इंद्र": 8037,
      "पर्यावरणीय": 8038,
      "वगैरह": 8039,
      "वश्यक": 8040,
      "अशोक": 8041,
      "एख्तेयार": 8042,
      "माफ": 8043,
      "ंगर": 8044,
      "बताए": 8045,
      "नेताजी": 8046,
      "हरियाणा": 8047,
      "मामूली": 8048,
      "इम": 8049,
      "रक्षक": 8050,
      "कीर": 8051,
      "कुट": 8052,
      "जीवंत": 8053,
      "मोर्": 8054,
      "vir": 8055,
      "aa": 8056,
      "अड्": 8057,
      "डम": 8058,
      "लार्": 8059,
      "स्टि": 8060,
      "प्रचुर": 8061,
      "सील": 8062,
      "अंगों": 8063,
      "लुप्त": 8064,
      "72": 8065,
      "कटि": 8066,
      "पटेल": 8067,
      "स्वर्ग": 8068,
      "साक्षरता": 8069,
      "सुचरिता": 8070,
      "अनुशासन": 8071,
      "योनि": 8072,
      "शेख": 8073,
      "प्रस्तावों": 8074,
      "च्छेदन": 8075,
      "प्रतिनिधियों": 8076,
      "सामुदायिक": 8077,
      "आकस्मिक": 8078,
      "EN": 8079,
      "दं": 8080,
      "लड": 8081,
      "राइट": 8082,
      "माफ़": 8083,
      "ज़्": 8084,
      "मुहैया": 8085,
      "मोर": 8086,
      "निरन्तर": 8087,
      "स्‍तु": 8088,
      "भ्रष्टा": 8089,
      "नस": 8090,
      "यादा": 8091,
      "कोष्ठ": 8092,
      "गाहों": 8093,
      "वेस्ट": 8094,
      "कुटु": 8095,
      "रूह": 8096,
      "ब्बे": 8097,
      "फ्लो": 8098,
      "निस्बत": 8099,
      "सोचने": 8100,
      "मणिपुर": 8101,
      "मण्डल": 8102,
      "इज्ज़त": 8103,
      "ंचना": 8104,
      "कपड़ा": 8105,
      "मले": 8106,
      "सिने": 8107,
      "अनुभाग": 8108,
      "मूत्र": 8109,
      "कूद": 8110,
      "धुंध": 8111,
      "उन्मूलन": 8112,
      "भेदभाव": 8113,
      "छुपाएँ": 8114,
      "ऐब": 8115,
      "दंत": 8116,
      "लिश": 8117,
      "ष्कृत": 8118,
      "निर्णा": 8119,
      "बरसात": 8120,
      "सौंप": 8121,
      "संतुलित": 8122,
      "आयुर्वेद": 8123,
      "HTML": 8124,
      ");": 8125,
      "आलेख": 8126,
      "जोड़ी": 8127,
      "किराए": 8128,
      "43": 8129,
      "आधी": 8130,
      "मसी": 8131,
      "शनों": 8132,
      "नानक": 8133,
      "अनो": 8134,
      "गतिशील": 8135,
      "रंगों": 8136,
      "बहका": 8137,
      "मुद्रण": 8138,
      "ख्यक": 8139,
      "सीआरए": 8140,
      "बेटियाँ": 8141,
      "कव": 8142,
      "मुफ्त": 8143,
      "निर्देशित": 8144,
      "विस्तारित": 8145,
      "नवीनतम": 8146,
      "यहूदियों": 8147,
      "ect": 8148,
      "उर्वरक": 8149,
      ".-": 8150,
      "अप्रत्यक्ष": 8151,
      "बगल": 8152,
      "जाहिर": 8153,
      "अनुभूति": 8154,
      "निर्वाह": 8155,
      "बरबाद": 8156,
      "लगाव": 8157,
      "रूपांतरण": 8158,
      "पड़ोसी": 8159,
      "लखनऊ": 8160,
      "og": 8161,
      "कन्न": 8162,
      "इसहा": 8163,
      "अवतार": 8164,
      "यूं": 8165,
      "घरवालों": 8166,
      "धर्मों": 8167,
      "चित्रकला": 8168,
      "न्यायपालिका": 8169,
      "दोषी": 8170,
      "यौन": 8171,
      ".%": 8172,
      "नकल": 8173,
      "पायों": 8174,
      "मिनी": 8175,
      "कमल": 8176,
      "साक्षात्कार": 8177,
      "क्‍त": 8178,
      "तेलु": 8179,
      "सीएस": 8180,
      "सिद्धि": 8181,
      "बीवियों": 8182,
      "छोर": 8183,
      "छिद्र": 8184,
      "stel": 8185,
      "टाइम": 8186,
      "दर्शाया": 8187,
      "मुख्यालय": 8188,
      "59": 8189,
      "बसा": 8190,
      "समता": 8191,
      "स्थगित": 8192,
      "ance": 8193,
      "किताबें": 8194,
      "स्नान": 8195,
      "वसीय": 8196,
      "इसहाक़": 8197,
      "इना": 8198,
      "थियों": 8199,
      "ड़ी": 8200,
      "नियोजित": 8201,
      "मास्टर": 8202,
      "रुक": 8203,
      "स्टाक": 8204,
      "टॉगल": 8205,
      "नानी": 8206,
      "1950": 8207,
      "बदौ": 8208,
      "सर्च": 8209,
      "सौदे": 8210,
      "संस्थागत": 8211,
      "सर्विस": 8212,
      "गुजराती": 8213,
      "ँजी": 8214,
      "सेकेंड": 8215,
      "ताज़ा": 8216,
      "विनियम": 8217,
      "क्षय": 8218,
      "वंशिक": 8219,
      "आन्दोलन": 8220,
      "मजदूरों": 8221,
      "झिल्ली": 8222,
      "प्रकोप": 8223,
      "आचार्य": 8224,
      "ईस्ट": 8225,
      "चलाए": 8226,
      "क्‍": 8227,
      "मुख़": 8228,
      "रोचक": 8229,
      "विधाय": 8230,
      "भेजना": 8231,
      "पाइप": 8232,
      "49": 8233,
      "लोग्राम": 8234,
      "रेगि": 8235,
      "ब्बत": 8236,
      "अवस्थित": 8237,
      "नियन्त्र": 8238,
      "निकला": 8239,
      "बताना": 8240,
      "पूजते": 8241,
      "51": 8242,
      "गम्": 8243,
      "क्लि": 8244,
      "जिस्ट्रे": 8245,
      "रोशनी": 8246,
      "कर्ज": 8247,
      "सुधारने": 8248,
      "सर्वप्रथम": 8249,
      "भौति": 8250,
      "खड़": 8251,
      "स्फी": 8252,
      "विभि": 8253,
      "संब": 8254,
      "इसलिये": 8255,
      "मोचन": 8256,
      "अतिथि": 8257,
      "मुख्यमंत्री": 8258,
      "सांप्रदायिक": 8259,
      "बर्ग": 8260,
      "समेकित": 8261,
      "आइए": 8262,
      "जमे": 8263,
      "रथ": 8264,
      "लची": 8265,
      "संक्षेप": 8266,
      "ब्ला": 8267,
      "स्टार": 8268,
      "महान्": 8269,
      "अनुभवों": 8270,
      "टिकल": 8271,
      "त्योहार": 8272,
      "बदौलत": 8273,
      "पीए": 8274,
      "उठता": 8275,
      "सालेह": 8276,
      "क़्योंकि": 8277,
      "निर्णायक": 8278,
      "आगामी": 8279,
      "स्मार्ट": 8280,
      "कोटि": 8281,
      "जिंदगी": 8282,
      "पीडिया": 8283,
      "पारदर्शिता": 8284,
      "भरत": 8285,
      "परेशानी": 8286,
      "ऊँचा": 8287,
      "इस्लामवादी": 8288,
      "गर्भाशय": 8289,
      "1000": 8290,
      "बसे": 8291,
      "बग़ैर": 8292,
      "कोरिया": 8293,
      "१९८": 8294,
      "गतिविधियां": 8295,
      "ज़्यादती": 8296,
      "आनुवंशिक": 8297,
      "मैत्रीपूर्ण": 8298,
      "Constel": 8299,
      "पुणे": 8300,
      "Constellation": 8301,
      "किलोग्राम": 8302,
      "खाई": 8303,
      "उपनिवेश": 8304,
      "अल्पसं": 8305,
      "फ़ोन": 8306,
      "उपाधि": 8307,
      "मूर्ख": 8308,
      "अय्य": 8309,
      "58": 8310,
      "डियों": 8311,
      "नारी": 8312,
      "जापानी": 8313,
      "क्षमताओं": 8314,
      "बताओ": 8315,
      "मरयम": 8316,
      "संघीय": 8317,
      "हालात": 8318,
      "निर्वाचित": 8319,
      "प्राणियों": 8320,
      "स्विच": 8321,
      "उंट": 8322,
      "फरिश्तों": 8323,
      "यकीन": 8324,
      "विया": 8325,
      "वाया": 8326,
      "इसमे": 8327,
      "द्दा": 8328,
      "तनत": 8329,
      "ब्रों": 8330,
      "झुठलाते": 8331,
      "मधुमेह": 8332,
      "कब्जा": 8333,
      "box": 8334,
      "संचरण": 8335,
      "संचिका": 8336,
      "मास्ट": 8337,
      "दोपहर": 8338,
      "कार्यशाला": 8339,
      "जाएँगी": 8340,
      "टाइम्स": 8341,
      "ज़िम्मेदारी": 8342,
      "कमेटी": 8343,
      "छत्": 8344,
      "ह्रा": 8345,
      "निबंध": 8346,
      "नोटिस": 8347,
      "इंजन": 8348,
      "चलाएँ": 8349,
      "अँधे": 8350,
      "सिंधु": 8351,
      "56": 8352,
      "gle": 8353,
      "उज": 8354,
      "क्ष्": 8355,
      "कुमारी": 8356,
      "टेक": 8357,
      "सभाओं": 8358,
      "समाजवादी": 8359,
      "क्लिपबोर्ड": 8360,
      "सार्थक": 8361,
      "लक्ष्मी": 8362,
      "चट": 8363,
      "कीं": 8364,
      "स्तीन": 8365,
      "सीम": 8366,
      "स्थूल": 8367,
      "करेगें": 8368,
      "सोसाय": 8369,
      "समझाने": 8370,
      "RO": 8371,
      "ct": 8372,
      "आर्य": 8373,
      "ऑस्ट्रेलिया": 8374,
      "शक्त": 8375,
      "र्थी": 8376,
      "ल्फ": 8377,
      "लीला": 8378,
      "धीमी": 8379,
      "बच्चन": 8380,
      "हरेक": 8381,
      "जर्मन": 8382,
      "स्राव": 8383,
      ",\"": 8384,
      "जं": 8385,
      "तप": 8386,
      "िज": 8387,
      "पहना": 8388,
      "पोषक": 8389,
      "आरटी": 8390,
      "नोम": 8391,
      "सांस": 8392,
      "श्रेय": 8393,
      "डेटाबेस": 8394,
      "आश्वासन": 8395,
      "उड़ान": 8396,
      "pe": 8397,
      "खपत": 8398,
      "ूण": 8399,
      "प्रजातियों": 8400,
      "जनजातीय": 8401,
      "रुए": 8402,
      "दर्जा": 8403,
      "ine": 8404,
      "एनपीएस": 8405,
      "मलया": 8406,
      "शिकायतों": 8407,
      "द्वारका": 8408,
      "स्थानांतरित": 8409,
      "स्वैच्छिक": 8410,
      "भ्रष्टाचार": 8411,
      "छपाई": 8412,
      "डोर": 8413,
      "वक्र": 8414,
      "अपशिष्ट": 8415,
      "ल्टा": 8416,
      "समावेशी": 8417,
      "अभिनय": 8418,
      "अवज्ञाकारी": 8419,
      "नरेन्द्र": 8420,
      "स्वायत्त": 8421,
      "ast": 8422,
      "आश्रम": 8423,
      "ऍं": 8424,
      "र्ग": 8425,
      "बामा": 8426,
      "जिसमे": 8427,
      "मेजब": 8428,
      "प्रतिभूतियों": 8429,
      "यूसुफ़": 8430,
      "दशमल": 8431,
      "फ्रां": 8432,
      "एल्गोरि": 8433,
      "ग्रिड": 8434,
      "प्रौद्योगिकियों": 8435,
      ",-": 8436,
      "46": 8437,
      "नागा": 8438,
      "क्ले": 8439,
      "विगत": 8440,
      "विराम": 8441,
      "रातों": 8442,
      "लीम": 8443,
      "लोहे": 8444,
      "छेद": 8445,
      "उलटे": 8446,
      "चट्टान": 8447,
      "क्क": 8448,
      "संगोष्ठ": 8449,
      "किसने": 8450,
      "लौटकर": 8451,
      "पॉप": 8452,
      "अनाथ": 8453,
      "आत्": 8454,
      "सेरो": 8455,
      "जाइश": 8456,
      "पाली": 8457,
      "रूए": 8458,
      "अनंत": 8459,
      "गुला": 8460,
      "लगो": 8461,
      "org": 8462,
      "निकलता": 8463,
      "dow": 8464,
      "धियां": 8465,
      "ग़ल": 8466,
      "सदनों": 8467,
      "निकालना": 8468,
      "प्रदर्शनी": 8469,
      "MS": 8470,
      "हड्डी": 8471,
      "सीपी": 8472,
      "व्यंजन": 8473,
      "उपयोगिता": 8474,
      "चरम": 8475,
      "लौटना": 8476,
      "हार्डवेयर": 8477,
      "ँगा": 8478,
      "आवृत्ति": 8479,
      "खैर": 8480,
      "तसदी": 8481,
      "मसल": 8482,
      "वाज़े": 8483,
      "बाएँ": 8484,
      "मुरा": 8485,
      "पुरात": 8486,
      "वर्तनी": 8487,
      "मजबूती": 8488,
      "अनुमानित": 8489,
      "दशमलव": 8490,
      "सीए": 8491,
      "पिस": 8492,
      "ess": 8493,
      "फिटकार": 8494,
      "यज्ञ": 8495,
      "रक्षण": 8496,
      "संकीर्ण": 8497,
      "युग्": 8498,
      "कार्यकाल": 8499,
      "बनते": 8500,
      "end": 8501,
      "1998": 8502,
      "स्वरुप": 8503,
      "स्टाफ": 8504,
      "अहमद": 8505,
      "सिक्किम": 8506,
      "शासकों": 8507,
      "घृणा": 8508,
      "विटामिन": 8509,
      "धूल": 8510,
      "प्रबन्ध": 8511,
      "लापन": 8512,
      "कैमरा": 8513,
      "वर्गीकृत": 8514,
      "दरवाज़े": 8515,
      "विकिरण": 8516,
      "ँचा": 8517,
      "असत्य": 8518,
      "आहरण": 8519,
      "म्यू": 8520,
      "िणी": 8521,
      "प्रगा": 8522,
      "बनो": 8523,
      "title": 8524,
      "पैदावार": 8525,
      "कठिना": 8526,
      "हीनता": 8527,
      "अंधा": 8528,
      "PO": 8529,
      "नेवाला": 8530,
      "रूट": 8531,
      "पोर्टल": 8532,
      "पार्श्व": 8533,
      "न्‍द्र": 8534,
      "ऑपरेशन": 8535,
      "कॉन्फ़िग": 8536,
      "मत्स्य": 8537,
      "आरा": 8538,
      "भटका": 8539,
      "विकार": 8540,
      "पाप": 8541,
      "मुहर": 8542,
      "युवक": 8543,
      "साझीदारी": 8544,
      "क्रमांक": 8545,
      "फरी": 8546,
      "र्कता": 8547,
      "परिदृश्य": 8548,
      "कहती": 8549,
      "कमर": 8550,
      "ईमानदारी": 8551,
      "मैच": 8552,
      "लेंडर": 8553,
      "पर्यटक": 8554,
      "विनम्र": 8555,
      "दिलचस्प": 8556,
      "पीडीएफ": 8557,
      "श्रेणियों": 8558,
      "काशी": 8559,
      "वाय": 8560,
      "निधियों": 8561,
      "ड़की": 8562,
      "सरता": 8563,
      "टेप": 8564,
      "शोभा": 8565,
      "छिपे": 8566,
      "सोचता": 8567,
      "¥": 8568,
      "लड़े": 8569,
      "तिया": 8570,
      "निशा": 8571,
      "पारदर्शी": 8572,
      "कंपनियां": 8573,
      "उद्भूत": 8574,
      "फैसले": 8575,
      "आंकड़ों": 8576,
      "उपभोक्ताओं": 8577,
      "ज़ूर": 8578,
      "एमएसएमई": 8579,
      "स्टॉक": 8580,
      "फंड": 8581,
      "लहर": 8582,
      "नेमत": 8583,
      "पुर्त": 8584,
      "घातक": 8585,
      "गणेश": 8586,
      "पाठकों": 8587,
      "सतर्कता": 8588,
      "ख़ुशी": 8589,
      "वर्गीय": 8590,
      "अब्दुल": 8591,
      "पीछला": 8592,
      "99": 8593,
      "विनो": 8594,
      "दाँ": 8595,
      "ज़लील": 8596,
      "जबर": 8597,
      "बहुदेव": 8598,
      "ध्येय": 8599,
      "वृत": 8600,
      "जहाँन": 8601,
      "उन्नति": 8602,
      "दिली": 8603,
      "मेनू": 8604,
      "ख़ी": 8605,
      "जानेवाले": 8606,
      "बढ़ी": 8607,
      "इंकार": 8608,
      "उद्यमियों": 8609,
      "विशेषज्ञों": 8610,
      "करूंगा": 8611,
      "धरो": 8612,
      "ंगु": 8613,
      "परिपत्र": 8614,
      "बीएस": 8615,
      "संस्‍": 8616,
      "उठाकर": 8617,
      "बैठने": 8618,
      "पुकारो": 8619,
      "सूचका": 8620,
      "An": 8621,
      "ss": 8622,
      "म्य": 8623,
      "लिता": 8624,
      "बिलियन": 8625,
      "णात्मक": 8626,
      "किनारों": 8627,
      "जेहाद": 8628,
      "अभिन्न": 8629,
      "माँगता": 8630,
      "पारिस्थिति": 8631,
      "गम्भीर": 8632,
      "कठिनाइयों": 8633,
      "इयाँ": 8634,
      "नाशक": 8635,
      "जिल": 8636,
      "उत्पत्ति": 8637,
      "दुखी": 8638,
      "रबानी": 8639,
      "पत्तन": 8640,
      "पत्नियों": 8641,
      "इन्होंने": 8642,
      "सजदे": 8643,
      "छी": 8644,
      "सत्": 8645,
      "स्वदेशी": 8646,
      "खुशख़बरी": 8647,
      "चरणों": 8648,
      "झगड़े": 8649,
      "मुनाफ़": 8650,
      "हिन्दुओं": 8651,
      "मौजिज़ा": 8652,
      "पुर्तगा": 8653,
      "तारे": 8654,
      "११": 8655,
      "सेवन": 8656,
      "स्टोर": 8657,
      "ग़ज़": 8658,
      "दायरे": 8659,
      "सांसद": 8660,
      "हाइड्रो": 8661,
      "सख्ती": 8662,
      "वनों": 8663,
      "शियन": 8664,
      "परिण": 8665,
      "देखिए": 8666,
      "डेट": 8667,
      "सैक": 8668,
      "स्‍था": 8669,
      "अपीलार्थी": 8670,
      "मास्टर्स": 8671,
      "सोसायटी": 8672,
      "सूचकांक": 8673,
      "ऋषि": 8674,
      "विक्रेता": 8675,
      "मापद": 8676,
      "सुपु": 8677,
      "छोड": 8678,
      "विशेषताओं": 8679,
      "लड़ते": 8680,
      "अधिकाधिक": 8681,
      "मज़दूरी": 8682,
      "तेज़": 8683,
      "ब्यूरो": 8684,
      "ग्यारह": 8685,
      "आज़ाद": 8686,
      "गली": 8687,
      "कोरोना": 8688,
      "नागरी": 8689,
      "विघ": 8690,
      "लिस्ट": 8691,
      "जावा": 8692,
      "साइन": 8693,
      "संयोग": 8694,
      "दिता": 8695,
      "जिनपर": 8696,
      "सोना": 8697,
      "मौखिक": 8698,
      "निष्पक्ष": 8699,
      "निकायों": 8700,
      "छुड़ा": 8701,
      "रखेगा": 8702,
      "मक्खी": 8703,
      "सहेजने": 8704,
      "ंघ": 8705,
      "उदी": 8706,
      "उच्": 8707,
      "प्रख्यात": 8708,
      "मॉड्यूल": 8709,
      "ट्यूट": 8710,
      "श्रमिकों": 8711,
      "भ्रमण": 8712,
      "इल्ज़ाम": 8713,
      "चोर": 8714,
      "ृश": 8715,
      "निमंत्र": 8716,
      "उपदेश": 8717,
      "मोटा": 8718,
      "int": 8719,
      "पढ़ना": 8720,
      "प्रगतिशील": 8721,
      "कृष्णन": 8722,
      "अखंड": 8723,
      "ओबामा": 8724,
      "टकरा": 8725,
      "म्या": 8726,
      "दाने": 8727,
      "हिष्णु": 8728,
      "विधवा": 8729,
      "पर्कों": 8730,
      "अभियुक्त": 8731,
      "पंद्र": 8732,
      "बदलते": 8733,
      "बंगाली": 8734,
      "शरारत": 8735,
      "उंडे": 8736,
      "oogle": 8737,
      "अन्वेषण": 8738,
      "चख": 8739,
      "पढ": 8740,
      "फान": 8741,
      "निविदा": 8742,
      "लीजिए": 8743,
      "जनजातियों": 8744,
      "रोके": 8745,
      "कनेक्": 8746,
      "जगन्": 8747,
      "तटीय": 8748,
      "नेस": 8749,
      "विशुद्ध": 8750,
      "अनुदेश": 8751,
      "पढ़कर": 8752,
      "पाएगा": 8753,
      "इंतजार": 8754,
      "सरा": 8755,
      "्रो": 8756,
      "काश्": 8757,
      "देरी": 8758,
      "दिवसीय": 8759,
      "मेड": 8760,
      "पत्ते": 8761,
      "लुक": 8762,
      "पेटेंट": 8763,
      "अन्तर्राष्ट्रीय": 8764,
      "पांडु": 8765,
      "प्रगाढ़": 8766,
      "आघात": 8767,
      "प्रपत्र": 8768,
      "परदे": 8769,
      "कार्यकलापों": 8770,
      "बंधु": 8771,
      "डाई": 8772,
      "पिल": 8773,
      "अप्रिय": 8774,
      "निदान": 8775,
      "संहार": 8776,
      "मुर": 8777,
      "दीप": 8778,
      "अनुबंध": 8779,
      "पाएंगे": 8780,
      "जगत्": 8781,
      "कोविड": 8782,
      "काउंसिल": 8783,
      "गरिमा": 8784,
      "आवासीय": 8785,
      "ऊन": 8786,
      "बजा": 8787,
      "भयान": 8788,
      "किताबे": 8789,
      "प्रदाता": 8790,
      "विजन": 8791,
      "युक़्त": 8792,
      "स्वतन्त्र": 8793,
      "कर्मी": 8794,
      "रोकथाम": 8795,
      "झगड़ते": 8796,
      "बाँध": 8797,
      "फ़रमाया": 8798,
      "बंगला": 8799,
      "मुताबिक": 8800,
      "दली": 8801,
      "पनों": 8802,
      "हब": 8803,
      "गेहूं": 8804,
      "अनुस्मृति": 8805,
      "अवलोकन": 8806,
      "बिस्तर": 8807,
      "पंचायत": 8808,
      "दोस्तों": 8809,
      "वाक़िफकार": 8810,
      "पूर्वोक्त": 8811,
      "सज्जित": 8812,
      "वाज़ेए": 8813,
      "नदिया": 8814,
      "रक": 8815,
      "सती": 8816,
      "ताजा": 8817,
      "बोह": 8818,
      "जुल": 8819,
      "पश्च": 8820,
      "फैले": 8821,
      "सैन": 8822,
      "हिंदुओं": 8823,
      "ग्रंथों": 8824,
      "खिसकाएँ": 8825,
      "एजे": 8826,
      "बियों": 8827,
      "कोडिंग": 8828,
      "प्रक्षे": 8829,
      "लेशन": 8830,
      "ड़ि": 8831,
      "आपत्ति": 8832,
      "डेवल": 8833,
      "ण्डा": 8834,
      "अर्जुन": 8835,
      "फेफ": 8836,
      "लगेगा": 8837,
      "फ़्ट": 8838,
      "Sh": 8839,
      "oc": 8840,
      "खौ": 8841,
      "मरत": 8842,
      "५०": 8843,
      "स्लो": 8844,
      "प्रदाह": 8845,
      "्यो": 8846,
      "यहॉ": 8847,
      "पूल": 8848,
      "ख़ान": 8849,
      "भार्": 8850,
      "सम्भावना": 8851,
      "बढ़ना": 8852,
      "मौके": 8853,
      "ट्रिक": 8854,
      "कलाकारों": 8855,
      "लैण्ड": 8856,
      "मूर्त": 8857,
      "काटने": 8858,
      "निवासियों": 8859,
      "गुमान": 8860,
      "चुंब": 8861,
      "हेक्टे": 8862,
      "पतियों": 8863,
      "नीतियां": 8864,
      "अध्यापक": 8865,
      "पारिश्रमिक": 8866,
      "करूणा": 8867,
      "देशालय": 8868,
      "फौज": 8869,
      "52": 8870,
      "dis": 8871,
      "असफलता": 8872,
      "अमानत": 8873,
      "मट": 8874,
      "निकाली": 8875,
      "आँख": 8876,
      "१९७": 8877,
      "पूछें": 8878,
      "कीमतों": 8879,
      "action": 8880,
      "आबंट": 8881,
      "आवेदक": 8882,
      "आदेशों": 8883,
      "घोर": 8884,
      "णिक": 8885,
      "बशर्ते": 8886,
      "वाहों": 8887,
      "अनुक्रिया": 8888,
      "शीदा": 8889,
      "कर्त्ता": 8890,
      "नामकरण": 8891,
      "यूनियन": 8892,
      "डेन": 8893,
      "प्रोसे": 8894,
      "परिवर्तनीय": 8895,
      "ख्वाहिश": 8896,
      "विलोपित": 8897,
      "ँट": 8898,
      "नाव": 8899,
      "व्याकरण": 8900,
      "इंडो": 8901,
      "हटाना": 8902,
      "तृतीय": 8903,
      "वियतनाम": 8904,
      "Ser": 8905,
      "खू": 8906,
      "पिया": 8907,
      "भ्रा": 8908,
      "प्रश": 8909,
      "देहा": 8910,
      "तीर": 8911,
      "स्वती": 8912,
      "वारिक": 8913,
      "लगाई": 8914,
      "अग्रसर": 8915,
      "शर्मा": 8916,
      "परंपराओं": 8917,
      "आशुतोष": 8918,
      "सहभागिता": 8919,
      "¤·": 8920,
      "माही": 8921,
      "हिम्मत": 8922,
      "रिमोट": 8923,
      "कहकर": 8924,
      "घायल": 8925,
      "ext": 8926,
      "ir": 8927,
      "शर्म": 8928,
      "जाऊ": 8929,
      "जोन": 8930,
      "अपी": 8931,
      "कार्यवाहि": 8932,
      "प्रेमी": 8933,
      "इंस्टी": 8934,
      "गिरोहों": 8935,
      "एक्सटें": 8936,
      "विकिपीडिया": 8937,
      "सुपुर्द": 8938,
      "कवर": 8939,
      "मजिस्ट्रे": 8940,
      "शृंखला": 8941,
      "परजीवी": 8942,
      "जोशी": 8943,
      "उत्तेज": 8944,
      "मर्यादा": 8945,
      "लेखापरीक्षा": 8946,
      "एकीकरण": 8947,
      "per": 8948,
      "विलियम": 8949,
      "त्‍य": 8950,
      "संस्थाएं": 8951,
      "भेजते": 8952,
      "ज़रूरी": 8953,
      "दौलत": 8954,
      "प्रसव": 8955,
      "कदाचित": 8956,
      "जगन्नाथ": 8957,
      "तने": 8958,
      "तनिक": 8959,
      "कोच": 8960,
      "उन्‍": 8961,
      "निष्पादित": 8962,
      "पार्ट": 8963,
      "इच्छाओं": 8964,
      "सत्याग्रह": 8965,
      "लक्षणों": 8966,
      "न्‍न": 8967,
      "आबंटित": 8968,
      "*.": 8969,
      "बाब": 8970,
      "योगी": 8971,
      "मूल्यवान": 8972,
      "भेजता": 8973,
      "दौरे": 8974,
      "फारसी": 8975,
      "संभावनाओं": 8976,
      "मिथ्या": 8977,
      "अनिश्चित": 8978,
      "मात": 8979,
      "मुल": 8980,
      "हियों": 8981,
      "टेलि": 8982,
      "दरगुज़र": 8983,
      "क्रियान्वयन": 8984,
      "रोगियों": 8985,
      "बाजारों": 8986,
      "अद्भुत": 8987,
      "नाफ़रमानी": 8988,
      "भयानक": 8989,
      ".,": 8990,
      "यरी": 8991,
      "वटी": 8992,
      "ात्मक": 8993,
      "स्लाइ": 8994,
      "राजवंश": 8995,
      "दुग्ध": 8996,
      "छाप": 8997,
      "बीमारियों": 8998,
      "निश्चिन्त": 8999,
      "छत्तीस": 9000,
      "77": 9001,
      "LD": 9002,
      "आगाह": 9003,
      "थन": 9004,
      "मेला": 9005,
      "रूपान्": 9006,
      "ंत्रिकी": 9007,
      "वर्षो": 9008,
      "अभिव्यक्त": 9009,
      "छापें": 9010,
      "र्षि": 9011,
      "ढाल": 9012,
      "ंटों": 9013,
      "झोंक": 9014,
      "आचार": 9015,
      "नर्स": 9016,
      "बली": 9017,
      "खाल": 9018,
      "राजदूत": 9019,
      "टेस्ट": 9020,
      "बादशाही": 9021,
      "प्रोफ़ाइल": 9022,
      "पदक": 9023,
      "चुनने": 9024,
      "चलाना": 9025,
      "मिटाने": 9026,
      "झूठी": 9027,
      "ats": 9028,
      "atla": 9029,
      "पूछताछ": 9030,
      "IC": 9031,
      "ah": 9032,
      "ड़ो": 9033,
      "ज़ों": 9034,
      "पाण्ड": 9035,
      "सुपर": 9036,
      "सबब": 9037,
      "एंव": 9038,
      "महाकाव्य": 9039,
      "ट्रस्ट": 9040,
      "1991": 9041,
      "प्रतिबिंब": 9042,
      "एत": 9043,
      "छल": 9044,
      "जुदा": 9045,
      "पट्ट": 9046,
      "फसाद": 9047,
      "रसो": 9048,
      "रेड": 9049,
      "सरस्वती": 9050,
      "क्रियाओं": 9051,
      "कराए": 9052,
      "गिराव": 9053,
      "खंडों": 9054,
      "फैक्ट": 9055,
      "पटना": 9056,
      "मुद्दा": 9057,
      "रविशंकर": 9058,
      "ग़ुलाम": 9059,
      "बंदरगाह": 9060,
      "ob": 9061,
      "डरे": 9062,
      "ल्लाह": 9063,
      "जाएंगी": 9064,
      "मोटी": 9065,
      "चलकर": 9066,
      "मंज़ि": 9067,
      "विषयक": 9068,
      "दृढ़ता": 9069,
      "अनुप्रयोगों": 9070,
      "मुर्दों": 9071,
      "ब्यौ": 9072,
      "धनी": 9073,
      "सकीय": 9074,
      "कान्": 9075,
      "बाइ": 9076,
      "ष्मा": 9077,
      "मुख़ा": 9078,
      "गेह": 9079,
      "पीड": 9080,
      "घाव": 9081,
      "ory": 9082,
      "लॉन्": 9083,
      "तत्पर": 9084,
      "्युनि": 9085,
      "बलिदान": 9086,
      "मल्टी": 9087,
      "इक्": 9088,
      "तव": 9089,
      "दरी": 9090,
      "पिक": 9091,
      "फ़साद": 9092,
      "अनुज्ञा": 9093,
      "पहलों": 9094,
      "लाहौर": 9095,
      "कहलाता": 9096,
      "स्तानियों": 9097,
      "समुच्च": 9098,
      "हानिकारक": 9099,
      "शॉर्ट": 9100,
      "वृत्तियों": 9101,
      "तदबीर": 9102,
      "पंद्रह": 9103,
      "68": 9104,
      "गॉ": 9105,
      "विचित्र": 9106,
      "समकक्ष": 9107,
      "गाथा": 9108,
      "1990": 9109,
      "हॉल": 9110,
      "विशेषताएं": 9111,
      "अपमानित": 9112,
      "URI": 9113,
      "ब्रैसेरो": 9114,
      "मजा": 9115,
      "३०": 9116,
      "प्रया": 9117,
      "नाल": 9118,
      "खाड़ी": 9119,
      "रोकें": 9120,
      "बुलाए": 9121,
      "बदकार": 9122,
      "गेंदबा": 9123,
      "बंटन": 9124,
      "1988": 9125,
      "Generic": 9126,
      "वाल्": 9127,
      "संवर्": 9128,
      "सिब": 9129,
      "ज्वर": 9130,
      "दुष्": 9131,
      "श्रीवास्तव": 9132,
      "एसटी": 9133,
      "महिलाएं": 9134,
      "चूर": 9135,
      "menu": 9136,
      "जरुरत": 9137,
      "विश्राम": 9138,
      "भयं": 9139,
      "शह": 9140,
      "सरे": 9141,
      "दाल": 9142,
      "नीकरण": 9143,
      "मेहम": 9144,
      "पेशा": 9145,
      "चूर्ण": 9146,
      "पृथक्": 9147,
      "हल्के": 9148,
      "न्यायाधीशों": 9149,
      "ग्लोबल": 9150,
      "सटीक": 9151,
      "आबंटन": 9152,
      "पला": 9153,
      "संख़्या": 9154,
      "मापन": 9155,
      "बादलों": 9156,
      "बुतों": 9157,
      "भागवत": 9158,
      "नामित": 9159,
      "गिरी": 9160,
      "उद्यमी": 9161,
      "78": 9162,
      "स्पै": 9163,
      "चालीस": 9164,
      "रूद्दीन": 9165,
      "सूझ": 9166,
      "सूखे": 9167,
      "कामकाज": 9168,
      "सहभागी": 9169,
      "पादक": 9170,
      "कर्तव्यों": 9171,
      "\"{": 9172,
      "ंछ": 9173,
      "एख्तियार": 9174,
      "जरी": 9175,
      "वस्त": 9176,
      "वापिस": 9177,
      "हिमन": 9178,
      "ग्रुप": 9179,
      "आरक्षण": 9180,
      "ण्डी": 9181,
      "सूचनाओं": 9182,
      "1996": 9183,
      "आधुनि": 9184,
      "मुद्द": 9185,
      "ravir": 9186,
      "क़समों": 9187,
      "स्वेच्छा": 9188,
      "मख़लू": 9189,
      "बोहतान": 9190,
      "atlami": 9191,
      "raviratlami": 9192,
      "}\"": 9193,
      "आइस": 9194,
      "साहि": 9195,
      "सबूत": 9196,
      "तमन्ना": 9197,
      "अधीनस्थ": 9198,
      "मर्दों": 9199,
      "अब्बा": 9200,
      "माध्यमिक": 9201,
      "गिरावट": 9202,
      "सदियों": 9203,
      "ूंगा": 9204,
      "डीटी": 9205,
      "शोका": 9206,
      "indow": 9207,
      "पालक": 9208,
      "क्षतिपूर्ति": 9209,
      "कामयाब": 9210,
      "ial": 9211,
      "ऊर्": 9212,
      "तर्": 9213,
      "ात": 9214,
      "तिन": 9215,
      "संक": 9216,
      "क्षत्र": 9217,
      "नीला": 9218,
      "रहस्": 9219,
      "सिला": 9220,
      "वरना": 9221,
      "राजकीय": 9222,
      "दुबारा": 9223,
      "शीट": 9224,
      "गोपाल": 9225,
      "फैली": 9226,
      "1986": 9227,
      "जगहों": 9228,
      "सवारी": 9229,
      "तुल्यका": 9230,
      "अग्रेषित": 9231,
      "चर्च": 9232,
      "बकाया": 9233,
      "तिरु": 9234,
      "मिति": 9235,
      "पेशियों": 9236,
      "न्दों": 9237,
      "न्यासी": 9238,
      "अर्द्ध": 9239,
      "आंख": 9240,
      "चर्या": 9241,
      "अत्याचारियों": 9242,
      "मधुर": 9243,
      "श्वसन": 9244,
      "कामयाबी": 9245,
      "अनुयायी": 9246,
      "41": 9247,
      "gt": 9248,
      "आला": 9249,
      "स्नेह": 9250,
      "विवश": 9251,
      "पेपर": 9252,
      "पर्दा": 9253,
      "क्रियाकलाप": 9254,
      "घुट": 9255,
      "लपेट": 9256,
      "केल": 9257,
      "दीव": 9258,
      "जबतक": 9259,
      "पहने": 9260,
      "नियाँ": 9261,
      "जमाने": 9262,
      "पिछड़े": 9263,
      "ठहराए": 9264,
      "our": 9265,
      "लेनदेन": 9266,
      "ग्रंथि": 9267,
      "बूझकर": 9268,
      "तसदीक़": 9269,
      "ON": 9270,
      "am": 9271,
      "वाक्या": 9272,
      "कियां": 9273,
      "अधू": 9274,
      "रेज": 9275,
      "1993": 9276,
      "चुनावों": 9277,
      "भौतिकी": 9278,
      "74": 9279,
      "खरे": 9280,
      "शही": 9281,
      "दाना": 9282,
      "खादी": 9283,
      "ज्म": 9284,
      "कार्यनीति": 9285,
      "सहारे": 9286,
      "लॉगिन": 9287,
      "नर्मदा": 9288,
      "नाफरमानी": 9289,
      "label": 9290,
      "कॉन्फ़िगरेशन": 9291,
      "ओडि": 9292,
      "थक": 9293,
      "पूँजी": 9294,
      "रियर": 9295,
      "चिप": 9296,
      "बढ़ाकर": 9297,
      "वार्ताला": 9298,
      "संभावनाएं": 9299,
      "कहानियाँ": 9300,
      "नारियल": 9301,
      "दिशानिर्देश": 9302,
      "तेलुगु": 9303,
      "एक्ट": 9304,
      "कालि": 9305,
      "संपर्कों": 9306,
      "शुष्क": 9307,
      "खेतों": 9308,
      "एनआई": 9309,
      "डालता": 9310,
      "ग्रेड": 9311,
      "ट्रां": 9312,
      "हल्की": 9313,
      "GN": 9314,
      "झार": 9315,
      "ललिता": 9316,
      "दिश": 9317,
      "सुथ": 9318,
      "फ़ज़ल": 9319,
      "अधिग्रहण": 9320,
      "चेतन": 9321,
      "डाइ": 9322,
      "पिघ": 9323,
      "समायोजित": 9324,
      "ट्ठी": 9325,
      "पत्थ": 9326,
      "टूल": 9327,
      "पद्धतियों": 9328,
      "कश्ती": 9329,
      "स्तंभों": 9330,
      "विजेता": 9331,
      "मसीह": 9332,
      "अज़ी": 9333,
      "रंज": 9334,
      "रुका": 9335,
      "जानती": 9336,
      "स्टै": 9337,
      "अभिवृद्धि": 9338,
      "घटकों": 9339,
      "प्रौढ़": 9340,
      "ica": 9341,
      "विस्फोट": 9342,
      "सल्तनत": 9343,
      "यूआरएल": 9344,
      "(&": 9345,
      "eb": 9346,
      "तको": 9347,
      "हुकुम": 9348,
      "रूसी": 9349,
      "पासना": 9350,
      "डीपी": 9351,
      "पोशीदा": 9352,
      "फेस": 9353,
      "कारावास": 9354,
      "विशेषज्ञता": 9355,
      "गायब": 9356,
      "गुज़रे": 9357,
      "भयंकर": 9358,
      "min": 9359,
      "छंद": 9360,
      "मठ": 9361,
      "वल्ल": 9362,
      "निपटा": 9363,
      "पाएँगे": 9364,
      "श्वत": 9365,
      "पिंड": 9366,
      "बहती": 9367,
      "इस्ला": 9368,
      "जांचें": 9369,
      "पारिवारिक": 9370,
      "ठहरने": 9371,
      "विधायिका": 9372,
      "णता": 9373,
      "रत्न": 9374,
      "विपक्ष": 9375,
      "निगेह": 9376,
      "क्तियों": 9377,
      "बुन": 9378,
      "हिंसक": 9379,
      "ard": 9380,
      "बर्तन": 9381,
      "कमाया": 9382,
      "फरमाएगा": 9383,
      "सुलभ": 9384,
      "तस्बीह": 9385,
      "मक़सूद": 9386,
      "_01": 9387,
      "कमि": 9388,
      "डबल": 9389,
      "िये": 9390,
      "एकड़": 9391,
      "मेश्वर": 9392,
      "सौहार्": 9393,
      "1997": 9394,
      "विज्ञानी": 9395,
      "अद": 9396,
      "आखि": 9397,
      "आरेख": 9398,
      "ईद": 9399,
      "घू": 9400,
      "रवाना": 9401,
      "सीय": 9402,
      "सीखा": 9403,
      "पांव": 9404,
      "मेले": 9405,
      "शाश्वत": 9406,
      "पैटर्न": 9407,
      "बुर": 9408,
      "कमजो": 9409,
      "ट्ठा": 9410,
      "बैठकों": 9411,
      "पढ़े": 9412,
      "1987": 9413,
      "ऑंखें": 9414,
      "टेक्नो": 9415,
      "मुकाबला": 9416,
      "हिजरत": 9417,
      "एब": 9418,
      "खजूर": 9419,
      "घने": 9420,
      "काई": 9421,
      "वादे": 9422,
      "साधना": 9423,
      "जोड": 9424,
      "अपर्या": 9425,
      "श्न": 9426,
      "चिड़ी": 9427,
      "आंबेडकर": 9428,
      "विधानसभा": 9429,
      "बहनों": 9430,
      "निकालें": 9431,
      "फॉर्": 9432,
      "दवाओं": 9433,
      "whats": 9434,
      "va": 9435,
      "आपरा": 9436,
      "खली": 9437,
      "मद्": 9438,
      "परिपूर्ण": 9439,
      "निर्णयों": 9440,
      "आधुनिकीकरण": 9441,
      "53": 9442,
      "ारि": 9443,
      "सिको": 9444,
      "द्वी": 9445,
      "भूभाग": 9446,
      "सोवियत": 9447,
      "श्रु": 9448,
      "दिशाओं": 9449,
      "भंडारित": 9450,
      "अब्दु": 9451,
      "गिक": 9452,
      "चारे": 9453,
      "ड़े": 9454,
      "साठ": 9455,
      "मेटा": 9456,
      "म्बे": 9457,
      "समाना": 9458,
      "बदरूद्दीन": 9459,
      "डीओ": 9460,
      "संस्कार": 9461,
      "अंगु": 9462,
      "पुनर्गठन": 9463,
      "जयपुर": 9464,
      "फिल्मों": 9465,
      "सनातन": 9466,
      "IT": 9467,
      "त्ती": 9468,
      "अपलोड": 9469,
      "रुख़": 9470,
      "मोल": 9471,
      "भरण": 9472,
      "स्पद": 9473,
      "इंस": 9474,
      "फैलाने": 9475,
      "दुर्बल": 9476,
      "दायित्वों": 9477,
      "उतने": 9478,
      "तुरन्त": 9479,
      "हिन्दुस्तान": 9480,
      "अटकल": 9481,
      "राज़्य": 9482,
      "शिष्य": 9483,
      "मौज़ूदा": 9484,
      "अपर": 9485,
      "काना": 9486,
      "साध्य": 9487,
      "लीज": 9488,
      "खुलने": 9489,
      "सोचना": 9490,
      "मूर्तियों": 9491,
      "रहोगे": 9492,
      "चमत्कार": 9493,
      "ज़िम्मेदार": 9494,
      "दिलचस्पी": 9495,
      "उक": 9496,
      "उपरो": 9497,
      "खानों": 9498,
      "फिक": 9499,
      "नाप": 9500,
      "न्दन": 9501,
      "ाराम": 9502,
      "अधी": 9503,
      "शिरा": 9504,
      "लाभप्रद": 9505,
      "पुनर्वास": 9506,
      "तालाब": 9507,
      "जरुरी": 9508,
      "चेन्नई": 9509,
      "पहचाना": 9510,
      "धरोहर": 9511,
      "चुंबकीय": 9512,
      "हेक्टेयर": 9513,
      "एक्सटेंशन": 9514,
      "शोकाकुल": 9515,
      "लड़ी": 9516,
      "वाकई": 9517,
      "वेट": 9518,
      "सामंज": 9519,
      "लाभदायक": 9520,
      "हस्ताक्षरित": 9521,
      "साँचा": 9522,
      "आखिरी": 9523,
      "अपर्याप्त": 9524,
      "400": 9525,
      "ph": 9526,
      "उग": 9527,
      "थित": 9528,
      "ुन": 9529,
      "निक्षेप": 9530,
      "समन्वित": 9531,
      "टेबल": 9532,
      "दृष्ट": 9533,
      "cri": 9534,
      "अन्न": 9535,
      "तंगी": 9536,
      "नता": 9537,
      "मनों": 9538,
      "हुर्इ": 9539,
      "वर्ल्ड": 9540,
      "बनावट": 9541,
      "बुढ़ा": 9542,
      "प्रत्यर्थी": 9543,
      "डराओ": 9544,
      "नाटकीय": 9545,
      "ताजमहल": 9546,
      "आपराधिक": 9547,
      "Re": 9548,
      "सँ": 9549,
      "र्ज़": 9550,
      "सीट": 9551,
      "ब्लॉक": 9552,
      "लगें": 9553,
      "अन्तः": 9554,
      "लाभकारी": 9555,
      "प्रबंधित": 9556,
      "कथाओं": 9557,
      "दिनांकित": 9558,
      "आश्चर्यजनक": 9559,
      "MAIL": 9560,
      "ER": 9561,
      "अठ": 9562,
      "मसौदा": 9563,
      "षड": 9564,
      "ारस": 9565,
      "प्रक": 9566,
      "क्चर": 9567,
      "हाए": 9568,
      "दीने": 9569,
      "साम्य": 9570,
      "ण्ट": 9571,
      "इन्स": 9572,
      "ख़ुशन": 9573,
      "राजनयिक": 9574,
      "वार्तालाप": 9575,
      "whatsthis": 9576,
      "कपटा": 9577,
      "मस्त": 9578,
      "नाइट": 9579,
      "नीस": 9580,
      "मेघ": 9581,
      "बेख़बर": 9582,
      "अधिष्ठा": 9583,
      "क्षेत्रफल": 9584,
      "बदली": 9585,
      "फीड": 9586,
      "प्रमाणीकरण": 9587,
      "पौरा": 9588,
      "फरमाबरदार": 9589,
      "जाँचें": 9590,
      "क्षतिग्रस्त": 9591,
      "मुहलत": 9592,
      "पुतली": 9593,
      "अम": 9594,
      "जंतु": 9595,
      "बहार": 9596,
      "ह्र": 9597,
      "दिग्ध": 9598,
      "तरंग": 9599,
      "मुम": 9600,
      "श्वरी": 9601,
      "हिला": 9602,
      "उपनिष": 9603,
      "महर्षि": 9604,
      "गोद": 9605,
      "फाइ": 9606,
      "कंठ": 9607,
      "आयाम": 9608,
      "अभिर": 9609,
      "प्लास्टिक": 9610,
      "शब्दावली": 9611,
      "अस्पष्ट": 9612,
      "ऊतकों": 9613,
      "तख्": 9614,
      "ौप": 9615,
      "भीतरी": 9616,
      "जोश": 9617,
      "कुश": 9618,
      "बनायी": 9619,
      "बहुमूल्य": 9620,
      "क्रमिक": 9621,
      "मंदी": 9622,
      "आदिवासी": 9623,
      "नुमा": 9624,
      "उदासीन": 9625,
      "निर्देशक": 9626,
      "स्नातको": 9627,
      "उद्धरण": 9628,
      "फतेह": 9629,
      "सफर": 9630,
      "सफ़र": 9631,
      "कारकों": 9632,
      "रूम": 9633,
      "खाद": 9634,
      "प्रतिवेदन": 9635,
      "शान्त": 9636,
      "रियायत": 9637,
      "मूर्तिकला": 9638,
      "बाजू": 9639,
      "श्क": 9640,
      "अनुस्मारक": 9641,
      "प्ट": 9642,
      "शुक्रा": 9643,
      "लड़कों": 9644,
      "शांतिपूर्ण": 9645,
      "ज़रुरत": 9646,
      "ड्राफ्ट": 9647,
      "अरुणा": 9648,
      "IP": 9649,
      "कसौ": 9650,
      "फली": 9651,
      "ूदी": 9652,
      "कांड": 9653,
      "प्रक्रम": 9654,
      "समीप": 9655,
      "मार्गदर्शक": 9656,
      "मध्यवर्ती": 9657,
      "मुनासिब": 9658,
      "ट्रेड": 9659,
      "वयस्क": 9660,
      "सिनेमा": 9661,
      "यश": 9662,
      "दाब": 9663,
      "दिखायी": 9664,
      "सौन्": 9665,
      "दर्शकों": 9666,
      "लैंगिक": 9667,
      "आत्मविश्वास": 9668,
      "स्नायु": 9669,
      "रसीद": 9670,
      "ton": 9671,
      "उत्थान": 9672,
      "डिस्": 9673,
      "पेयी": 9674,
      "पेड़ों": 9675,
      "मृदा": 9676,
      "रखनेवाले": 9677,
      "बुलन्द": 9678,
      "द्वारकानाथ": 9679,
      "झलक": 9680,
      "बरह": 9681,
      "यर्स": 9682,
      "वालि": 9683,
      "जिज्ञा": 9684,
      "क़ै": 9685,
      "सामयिक": 9686,
      "डीपीआई": 9687,
      "मैसूर": 9688,
      "एनए": 9689,
      "चाहेगा": 9690,
      "घंटा": 9691,
      "दिखता": 9692,
      "ऑंखों": 9693,
      "विवेकानंद": 9694,
      "उंडेशन": 9695,
      "ode": 9696,
      "कक": 9697,
      "निन": 9698,
      "साधक": 9699,
      "ब्बा": 9700,
      "पुरम": 9701,
      "प्रभावों": 9702,
      "भ्रूण": 9703,
      "आदर्शों": 9704,
      "उपक्रमों": 9705,
      "अहमदाबाद": 9706,
      "स्नातकोत्तर": 9707,
      "अणु": 9708,
      "छीन": 9709,
      "ज्ह": 9710,
      "पग": 9711,
      "केन": 9712,
      "वाशिंग": 9713,
      "जीने": 9714,
      "ख़त्म": 9715,
      "बुश": 9716,
      "व्याप्त": 9717,
      "दिखाएं": 9718,
      "बूट": 9719,
      "art": 9720,
      "यूनिकोड": 9721,
      "67": 9722,
      "ज्र": 9723,
      "ैरात": 9724,
      "हुल": 9725,
      "जीपी": 9726,
      "हिंद": 9727,
      "बैंग": 9728,
      "रखनेवाला": 9729,
      "ख़ाक": 9730,
      "1980": 9731,
      "हथियारों": 9732,
      "उपरांत": 9733,
      "उखा": 9734,
      "यियों": 9735,
      "तिकता": 9736,
      "साप्ता": 9737,
      "संस्थापक": 9738,
      "सीनों": 9739,
      "ज़ूम": 9740,
      "मुड़": 9741,
      "फाउंडेशन": 9742,
      "विधायी": 9743,
      "पॉलिसी": 9744,
      "विवादों": 9745,
      "गंभीरता": 9746,
      "चार्ट": 9747,
      "EMAIL": 9748,
      "कन्या": 9749,
      "विला": 9750,
      "वाक़": 9751,
      "नियोक्ता": 9752,
      "सूखा": 9753,
      "निर्वहन": 9754,
      "मारते": 9755,
      "गिरि": 9756,
      "शब्दकोश": 9757,
      "इटली": 9758,
      "सुभाषबाबू": 9759,
      "स्केल": 9760,
      "आभासी": 9761,
      "समुच्चय": 9762,
      "चंडी": 9763,
      "पवन": 9764,
      "सनी": 9765,
      "त्रिक": 9766,
      "मुआव": 9767,
      "परिसंपत्ति": 9768,
      "पैन": 9769,
      "अभियोग": 9770,
      "एनआर": 9771,
      "उत्पादित": 9772,
      "गरीय": 9773,
      "जनात्मक": 9774,
      "नस्लों": 9775,
      "जिन्नों": 9776,
      "निरूपित": 9777,
      "मलयालम": 9778,
      "छत्तीसगढ़": 9779,
      "सौहार्द": 9780,
      "पौराणिक": 9781,
      "आपरे": 9782,
      "इख्तेयार": 9783,
      "ताजों": 9784,
      "मान्": 9785,
      "मेहरा": 9786,
      "हरकत": 9787,
      "फिरो": 9788,
      "जेए": 9789,
      "जूट": 9790,
      "आयत": 9791,
      "लौह": 9792,
      "तौरैत": 9793,
      "जन्मदिन": 9794,
      "जहन्नुमी": 9795,
      "माबूदों": 9796,
      "......": 9797,
      "सुलह": 9798,
      "वायरस": 9799,
      "कुशादा": 9800,
      "अमीर": 9801,
      "चर्म": 9802,
      "धरा": 9803,
      "क्टो": 9804,
      "पीड़क": 9805,
      "चेरी": 9806,
      "अभिकरण": 9807,
      "जुड़ने": 9808,
[...]
