{
  "version": "1.0",
  "truncation": null,
  "padding": null,
  "added_tokens": [
    {
      "id": 0,
      "content": "[UNK]",
      "single_word": false,
      "lstrip": false,
      "rstrip": false,
      "normalized": false,
      "special": true
    },
    {
      "id": 1,
      "content": "[CLS]",
      "single_word": false,
      "lstrip": false,
      "rstrip": false,
      "normalized": false,
      "special": true
    },
    {
      "id": 2,
      "content": "[SEP]",
      "single_word": false,
      "lstrip": false,
      "rstrip": false,
      "normalized": false,
      "special": true
    },
    {
      "id": 3,
      "content": "[PAD]",
      "single_word": false,
      "lstrip": false,
      "rstrip": false,
      "normalized": false,
      "special": true
    },
    {
      "id": 4,
      "content": "[MASK]",
      "single_word": false,
      "lstrip": false,
      "rstrip": false,
      "normalized": false,
      "special": true
    }
  ],
  "normalizer": null,
  "pre_tokenizer": {
    "type": "Whitespace"
  },
  "post_processor": null,
  "decoder": null,
  "model": {
    "type": "BPE",
    "dropout": null,
    "unk_token": "[UNK]",
    "continuing_subword_prefix": null,
    "end_of_word_suffix": null,
    "fuse_unk": false,
    "byte_fallback": false,
    "ignore_merges": false,
    "vocab": {
      "[UNK]": 0,
      "[CLS]": 1,
      "[SEP]": 2,
      "[PAD]": 3,
      "[MASK]": 4,
      "\u0014": 5,
      "\u001b": 6,
      "!": 7,
      "\"": 8,
      "#": 9,
      "$": 10,
      "%": 11,
      "&": 12,
      "'": 13,
      "(": 14,
      ")": 15,
      "*": 16,
      "+": 17,
      ",": 18,
      "-": 19,
      ".": 20,
      "/": 21,
      "0": 22,
      "1": 23,
      "2": 24,
      "3": 25,
      "4": 26,
      "5": 27,
      "6": 28,
      "7": 29,
      "8": 30,
      "9": 31,
      ":": 32,
      ";": 33,
      "<": 34,
      "=": 35,
      ">": 36,
      "?": 37,
      "@": 38,
      "A": 39,
      "B": 40,
      "C": 41,
      "D": 42,
      "E": 43,
      "F": 44,
      "G": 45,
      "H": 46,
      "I": 47,
      "J": 48,
      "K": 49,
      "L": 50,
      "M": 51,
      "N": 52,
      "O": 53,
      "P": 54,
      "Q": 55,
      "R": 56,
      "S": 57,
      "T": 58,
      "U": 59,
      "V": 60,
      "W": 61,
      "X": 62,
      "Y": 63,
      "Z": 64,
      "[": 65,
      "\\": 66,
      "]": 67,
      "^": 68,
      "_": 69,
      "`": 70,
      "a": 71,
      "b": 72,
      "c": 73,
      "d": 74,
      "e": 75,
      "f": 76,
      "g": 77,
      "h": 78,
      "i": 79,
      "j": 80,
      "k": 81,
      "l": 82,
      "m": 83,
      "n": 84,
      "o": 85,
      "p": 86,
      "q": 87,
      "r": 88,
      "s": 89,
      "t": 90,
      "u": 91,
      "v": 92,
      "w": 93,
      "x": 94,
      "y": 95,
      "z": 96,
      "{": 97,
      "|": 98,
      "}": 99,
      "~": 100,
      "": 101,
      "": 102,
      "": 103,
      "": 104,
      "": 105,
      "": 106,
      "": 107,
      "": 108,
      "": 109,
      "": 110,
      "": 111,
      "": 112,
      "": 113,
      "": 114,
      "": 115,
      "": 116,
      "": 117,
      "": 118,
      "": 119,
      "": 120,
      "": 121,
      "": 122,
      "": 123,
      "": 124,
      "": 125,
      "": 126,
      "": 127,
      "": 128,
      "": 129,
      "": 130,
      "¡": 131,
      "¢": 132,
      "£": 133,
      "¤": 134,
      "¥": 135,
      "¦": 136,
      "§": 137,
      "¨": 138,
      "©": 139,
      "ª": 140,
      "«": 141,
      "¬": 142,
      "­": 143,
      "®": 144,
      "¯": 145,
      "°": 146,
      "±": 147,
      "²": 148,
      "³": 149,
      "´": 150,
      "µ": 151,
      "¶": 152,
      "·": 153,
      "¸": 154,
      "¹": 155,
      "º": 156,
      "»": 157,
      "¼": 158,
      "½": 159,
      "¾": 160,
      "¿": 161,
      "À": 162,
      "Á": 163,
      "Â": 164,
      "Ã": 165,
      "Ä": 166,
      "Å": 167,
      "Æ": 168,
      "Ç": 169,
      "É": 170,
      "Ê": 171,
      "Í": 172,
      "Î": 173,
      "Ð": 174,
      "Ñ": 175,
      "Ó": 176,
      "Ô": 177,
      "Õ": 178,
      "Ö": 179,
      "×": 180,
      "Ø": 181,
      "Ú": 182,
      "Û": 183,
      "Ü": 184,
      "ß": 185,
      "à": 186,
      "á": 187,
      "â": 188,
      "ã": 189,
      "ä": 190,
      "å": 191,
      "æ": 192,
      "ç": 193,
      "è": 194,
      "é": 195,
      "ê": 196,
      "ë": 197,
      "ì": 198,
      "í": 199,
      "î": 200,
      "ï": 201,
      "ð": 202,
      "ñ": 203,
      "ò": 204,
      "ó": 205,
      "ô": 206,
      "õ": 207,
      "ö": 208,
      "÷": 209,
      "ø": 210,
      "ù": 211,
      "ú": 212,
      "ü": 213,
      "ý": 214,
      "þ": 215,
      "Ā": 216,
      "ā": 217,
      "Ă": 218,
      "ă": 219,
      "Ą": 220,
      "ą": 221,
      "Ć": 222,
      "ć": 223,
      "Č": 224,
      "č": 225,
      "ď": 226,
      "Đ": 227,
      "ē": 228,
      "ė": 229,
      "Ę": 230,
      "ę": 231,
      "Ě": 232,
      "ě": 233,
      "ğ": 234,
      "ģ": 235,
      "ī": 236,
      "ĭ": 237,
      "İ": 238,
      "ı": 239,
      "Ĺ": 240,
      "ĺ": 241,
      "ļ": 242,
      "Ľ": 243,
      "ľ": 244,
      "Ł": 245,
      "ł": 246,
      "ń": 247,
      "Ň": 248,
      "ň": 249,
      "Ō": 250,
      "ō": 251,
      "ŏ": 252,
      "ő": 253,
      "œ": 254,
      "ŕ": 255,
      "Ř": 256,
      "ř": 257,
      "Ś": 258,
      "ś": 259,
      "Ş": 260,
      "ş": 261,
      "Š": 262,
      "š": 263,
      "Ţ": 264,
      "ţ": 265,
      "Ť": 266,
      "ť": 267,
      "ū": 268,
      "ŭ": 269,
      "ů": 270,
      "ű": 271,
      "ų": 272,
      "ź": 273,
      "Ż": 274,
      "ż": 275,
      "Ž": 276,
      "ž": 277,
      "ơ": 278,
      "ư": 279,
      "ǁ": 280,
      "ǆ": 281,
      "ș": 282,
      "ț": 283,
      "ɓ": 284,
      "ə": 285,
      "ɪ": 286,
      "ʼ": 287,
      "ʿ": 288,
      "ˇ": 289,
      "ː": 290,
      "˘": 291,
      "˙": 292,
      "˚": 293,
      "˛": 294,
      "˜": 295,
      "˝": 296,
      "̀": 297,
      "́": 298,
      "̂": 299,
      "̃": 300,
      "̄": 301,
      "̆": 302,
      "̇": 303,
      "̈": 304,
      "̊": 305,
      "̌": 306,
      "̣": 307,
      "̧": 308,
      "̨": 309,
      "̪": 310,
      "ͧ": 311,
      ";": 312,
      "Β": 313,
      "Δ": 314,
      "Θ": 315,
      "Κ": 316,
      "Λ": 317,
      "Μ": 318,
      "Π": 319,
      "Ω": 320,
      "ί": 321,
      "α": 322,
      "β": 323,
      "γ": 324,
      "ε": 325,
      "ζ": 326,
      "η": 327,
      "θ": 328,
      "ι": 329,
      "κ": 330,
      "λ": 331,
      "μ": 332,
      "ν": 333,
      "ο": 334,
      "π": 335,
      "ρ": 336,
      "σ": 337,
      "τ": 338,
      "φ": 339,
      "ψ": 340,
      "ω": 341,
      "ό": 342,
      "ώ": 343,
      "Ѕ": 344,
      "І": 345,
      "А": 346,
      "Б": 347,
      "В": 348,
      "Г": 349,
      "Д": 350,
      "Е": 351,
      "Ж": 352,
      "З": 353,
      "И": 354,
      "К": 355,
      "Л": 356,
      "М": 357,
      "Н": 358,
      "О": 359,
      "П": 360,
      "Р": 361,
      "С": 362,
      "Т": 363,
      "У": 364,
      "Х": 365,
      "Ч": 366,
      "Ш": 367,
      "Ы": 368,
      "Я": 369,
      "а": 370,
      "б": 371,
      "в": 372,
      "г": 373,
      "д": 374,
      "е": 375,
      "ж": 376,
      "з": 377,
      "и": 378,
      "й": 379,
      "к": 380,
      "л": 381,
      "м": 382,
      "н": 383,
      "о": 384,
      "п": 385,
      "р": 386,
      "с": 387,
      "т": 388,
      "у": 389,
      "ф": 390,
      "х": 391,
      "ц": 392,
      "ч": 393,
      "ш": 394,
      "щ": 395,
      "ъ": 396,
      "ы": 397,
      "ь": 398,
      "э": 399,
      "ю": 400,
      "я": 401,
      "є": 402,
      "і": 403,
      "ғ": 404,
      "Қ": 405,
      "қ": 406,
      "ң": 407,
      "Ү": 408,
      "ү": 409,
      "ұ": 410,
      "ә": 411,
      "Ө": 412,
      "ө": 413,
      "֠": 414,
      "֦": 415,
      "ֹ": 416,
      "׃": 417,
      "،": 418,
      "آ": 419,
      "أ": 420,
      "إ": 421,
      "ا": 422,
      "ة": 423,
      "ت": 424,
      "ج": 425,
      "ح": 426,
      "د": 427,
      "ر": 428,
      "س": 429,
      "ق": 430,
      "ك": 431,
      "ل": 432,
      "م": 433,
      "ن": 434,
      "و": 435,
      "ي": 436,
      "ٓ": 437,
      "ٕ": 438,
      "ی": 439,
      "ँ": 440,
      "ं": 441,
      "ः": 442,
      "अ": 443,
      "आ": 444,
      "इ": 445,
      "ई": 446,
      "उ": 447,
      "ऊ": 448,
      "ऋ": 449,
      "ऌ": 450,
      "ऍ": 451,
      "ऎ": 452,
      "ए": 453,
      "ऐ": 454,
      "ऑ": 455,
      "ऒ": 456,
      "ओ": 457,
      "औ": 458,
      "क": 459,
      "ख": 460,
      "ग": 461,
      "घ": 462,
      "ङ": 463,
      "च": 464,
      "छ": 465,
      "ज": 466,
      "झ": 467,
      "ञ": 468,
      "ट": 469,
      "ठ": 470,
      "ड": 471,
      "ढ": 472,
      "ण": 473,
      "त": 474,
      "थ": 475,
      "द": 476,
      "ध": 477,
      "न": 478,
      "ऩ": 479,
      "प": 480,
      "फ": 481,
      "ब": 482,
      "भ": 483,
      "म": 484,
      "य": 485,
      "र": 486,
      "ऱ": 487,
      "ल": 488,
      "ळ": 489,
      "ऴ": 490,
      "व": 491,
      "श": 492,
      "ष": 493,
      "स": 494,
      "ह": 495,
      "़": 496,
      "ऽ": 497,
      "ा": 498,
      "ि": 499,
      "ी": 500,
      "ु": 501,
      "ू": 502,
      "ृ": 503,
      "ॄ": 504,
      "ॅ": 505,
      "ॆ": 506,
      "े": 507,
      "ै": 508,
      "ॉ": 509,
      "ॊ": 510,
      "ो": 511,
      "ौ": 512,
      "्": 513,
      "ॐ": 514,
      "॑": 515,
      "॒": 516,
      "॓": 517,
      "॔": 518,
      "क़": 519,
      "ख़": 520,
      "ग़": 521,
      "ज़": 522,
      "ड़": 523,
      "ढ़": 524,
      "फ़": 525,
      "य़": 526,
      "ॠ": 527,
      "ॡ": 528,
      "ॣ": 529,
      "।": 530,
      "॥": 531,
      "०": 532,
      "१": 533,
      "२": 534,
      "३": 535,
      "४": 536,
      "५": 537,
      "६": 538,
      "७": 539,
      "८": 540,
      "९": 541,
      "॰": 542,
      "ক": 543,
      "চ": 544,
      "ঠ": 545,
      "থ": 546,
      "দ": 547,
      "ন": 548,
      "ব": 549,
      "ভ": 550,
      "র": 551,
      "ষ": 552,
      "স": 553,
      "া": 554,
      "ী": 555,
      "ু": 556,
      "্": 557,
      "ਦ": 558,
      "ਲ": 559,
      "ਿ": 560,
      "ੀ": 561,
      "ੱ": 562,
      "પ": 563,
      "બ": 564,
      "ા": 565,
      "ુ": 566,
      "ḍ": 567,
      "ḥ": 568,
      "ḷ": 569,
      "ṁ": 570,
      "ṃ": 571,
      "ṅ": 572,
      "ṇ": 573,
      "Ṛ": 574,
      "ṛ": 575,
      "ṣ": 576,
      "ṭ": 577,
      "ẻ": 578,
      "ờ": 579,
      "ủ": 580,
      "​": 581,
      "‌": 582,
      "‍": 583,
      "‎": 584,
      "‏": 585,
      "‐": 586,
      "‑": 587,
      "–": 588,
      "—": 589,
      "―": 590,
      "‘": 591,
      "’": 592,
      "‚": 593,
      "“": 594,
      "”": 595,
      "„": 596,
      "†": 597,
      "‡": 598,
      "•": 599,
      "…": 600,
      "‰": 601,
      "′": 602,
      "⁰": 603,
      "⁴": 604,
      "⁵": 605,
      "⁶": 606,
      "⁷": 607,
      "⁻": 608,
      "₀": 609,
      "₁": 610,
      "₂": 611,
      "€": 612,
      "₹": 613,
      "™": 614,
      "⅓": 615,
      "⅔": 616,
      "⅕": 617,
      "⅖": 618,
      "⅗": 619,
      "⅘": 620,
      "⅙": 621,
      "←": 622,
      "→": 623,
      "⇒": 624,
      "∂": 625,
      "−": 626,
      "∕": 627,
      "√": 628,
      "∞": 629,
      "∣": 630,
      "∨": 631,
      "∶": 632,
      "≠": 633,
      "≤": 634,
      "≥": 635,
      "⋯": 636,
      "⌈": 637,
      "⌉": 638,
      "⌊": 639,
      "⌋": 640,
      "⌘": 641,
      "⏎": 642,
      "─": 643,
      "═": 644,
      "■": 645,
      "☺": 646,
      "☻": 647,
      "♪": 648,
      "♫": 649,
      "➣": 650,
      "、": 651,
      "。": 652,
      "あ": 653,
      "い": 654,
      "う": 655,
      "え": 656,
      "か": 657,
      "き": 658,
      "く": 659,
      "け": 660,
      "こ": 661,
      "さ": 662,
      "し": 663,
      "す": 664,
      "せ": 665,
      "そ": 666,
      "た": 667,
      "ち": 668,
      "っ": 669,
      "つ": 670,
      "て": 671,
      "と": 672,
      "な": 673,
      "に": 674,
      "の": 675,
      "は": 676,
      "ひ": 677,
      "へ": 678,
      "ま": 679,
      "み": 680,
      "め": 681,
      "も": 682,
      "よ": 683,
      "ら": 684,
      "り": 685,
      "る": 686,
      "れ": 687,
      "を": 688,
      "ん": 689,
      "゙": 690,
      "゚": 691,
      "ァ": 692,
      "ア": 693,
      "ィ": 694,
      "イ": 695,
      "ウ": 696,
      "エ": 697,
      "ォ": 698,
      "オ": 699,
      "カ": 700,
      "ク": 701,
      "コ": 702,
      "サ": 703,
      "シ": 704,
      "ス": 705,
      "タ": 706,
      "ッ": 707,
      "テ": 708,
      "ト": 709,
      "ニ": 710,
      "ネ": 711,
      "ハ": 712,
      "ヒ": 713,
      "フ": 714,
      "ヘ": 715,
      "ホ": 716,
      "マ": 717,
      "ム": 718,
      "メ": 719,
      "モ": 720,
      "ョ": 721,
      "ラ": 722,
      "リ": 723,
      "ル": 724,
      "レ": 725,
      "ロ": 726,
      "ワ": 727,
      "ン": 728,
      "ー": 729,
      "一": 730,
      "上": 731,
      "下": 732,
      "不": 733,
      "両": 734,
      "並": 735,
      "中": 736,
      "了": 737,
      "他": 738,
      "付": 739,
      "作": 740,
      "使": 741,
      "保": 742,
      "信": 743,
      "傭": 744,
      "優": 745,
      "元": 746,
      "先": 747,
      "入": 748,
      "全": 749,
      "共": 750,
      "内": 751,
      "再": 752,
      "出": 753,
      "分": 754,
      "切": 755,
      "利": 756,
      "削": 757,
      "前": 758,
      "力": 759,
      "加": 760,
      "動": 761,
      "化": 762,
      "匿": 763,
      "参": 764,
      "可": 765,
      "同": 766,
      "名": 767,
      "否": 768,
      "含": 769,
      "員": 770,
      "國": 771,
      "堀": 772,
      "報": 773,
      "境": 774,
      "変": 775,
      "外": 776,
      "大": 777,
      "失": 778,
      "妖": 779,
      "始": 780,
      "字": 781,
      "存": 782,
      "定": 783,
      "容": 784,
      "対": 785,
      "小": 786,
      "広": 787,
      "度": 788,
      "庸": 789,
      "当": 790,
      "待": 791,
      "後": 792,
      "従": 793,
      "必": 794,
      "悠": 795,
      "情": 796,
      "態": 797,
      "憂": 798,
      "成": 799,
      "戻": 800,
      "所": 801,
      "手": 802,
      "打": 803,
      "承": 804,
      "択": 805,
      "抹": 806,
      "拒": 807,
      "接": 808,
      "揺": 809,
      "擁": 810,
      "敗": 811,
      "数": 812,
      "断": 813,
      "新": 814,
      "方": 815,
      "既": 816,
      "明": 817,
      "時": 818,
      "曜": 819,
      "更": 820,
      "替": 821,
      "最": 822,
      "有": 823,
      "未": 824,
      "本": 825,
      "様": 826,
      "正": 827,
      "毎": 828,
      "求": 829,
      "洋": 830,
      "消": 831,
      "満": 832,
      "溶": 833,
      "漢": 834,
      "点": 835,
      "熔": 836,
      "版": 837,
      "状": 838,
      "環": 839,
      "用": 840,
      "由": 841,
      "病": 842,
      "登": 843,
      "直": 844,
      "知": 845,
      "短": 846,
      "確": 847,
      "示": 848,
      "秒": 849,
      "秦": 850,
      "細": 851,
      "終": 852,
      "続": 853,
      "編": 854,
      "置": 855,
      "羊": 856,
      "耀": 857,
      "者": 858,
      "能": 859,
      "脱": 860,
      "自": 861,
      "致": 862,
      "般": 863,
      "色": 864,
      "葉": 865,
      "行": 866,
      "表": 867,
      "複": 868,
      "要": 869,
      "見": 870,
      "規": 871,
      "覧": 872,
      "設": 873,
      "詳": 874,
      "認": 875,
      "謡": 876,
      "设": 877,
      "象": 878,
      "起": 879,
      "越": 880,
      "追": 881,
      "送": 882,
      "通": 883,
      "連": 884,
      "遥": 885,
      "選": 886,
      "重": 887,
      "録": 888,
      "開": 889,
      "関": 890,
      "除": 891,
      "集": 892,
      "離": 893,
      "順": 894,
      "預": 895,
      "째": 896,
      "": 897,
      "": 898,
      "": 899,
      "": 900,
      "": 901,
      "": 902,
      "ﬁ": 903,
      "ﬂ": 904,
      "﻿": 905,
      "：": 906,
      "？": 907,
      "￼": 908,
      "�": 909,
      "th": 910,
      "in": 911,
      "the": 912,
      "an": 913,
      "re": 914,
      "on": 915,
      "er": 916,
      "के": 917,
      "्र": 918,
      "at": 919,
      "en": 920,
      "ार": 921,
      "is": 922,
      "है": 923,
      "or": 924,
      "ें": 925,
      "of": 926,
      "या": 927,
      "al": 928,
      "ou": 929,
      "es": 930,
      "ed": 931,
      "ने": 932,
      "and": 933,
      "ों": 934,
      "ar": 935,
      "में": 936,
      "to": 937,
      "कर": 938,
      "it": 939,
      "का": 940,
      "से": 941,
      "की": 942,
      "as": 943,
      "और": 944,
      "कि": 945,
      "ing": 946,
      "ता": 947,
      "ion": 948,
      "र्": 949,
      "स्": 950,
      "को": 951,
      "प्र": 952,
      "्य": 953,
      "ना": 954,
      "ic": 955,
      "le": 956,
      "क्": 957,
      "he": 958,
      "om": 959,
      "ान": 960,
      "ent": 961,
      "वि": 962,
      "st": 963,
      "se": 964,
      "be": 965,
      "ही": 966,
      "पर": 967,
      "il": 968,
      "वा": 969,
      "ति": 970,
      "ve": 971,
      "लि": 972,
      "ला": 973,
      "नि": 974,
      "ct": 975,
      "हो": 976,
      "न्": 977,
      "जा": 978,
      "de": 979,
      "for": 980,
      "सा": 981,
      "रा": 982,
      "ro": 983,
      "wh": 984,
      "no": 985,
      "ते": 986,
      "सं": 987,
      "ch": 988,
      "am": 989,
      "ित": 990,
      "कार": 991,
      "ce": 992,
      "ation": 993,
      "दे": 994,
      "im": 995,
      "ले": 996,
      "nd": 997,
      "ha": 998,
      "मा": 999,
      "तु": 1000,
      "हा": 1001,
      "ay": 1002,
      "दि": 1003,
      "हैं": 1004,
      "ly": 1005,
      "you": 1006,
      "ver": 1007,
      "त्": 1008,
      "id": 1009,
      "था": 1010,
      "ती": 1011,
      "ur": 1012,
      "ोग": 1013,
      "इस": 1014,
      "भी": 1015,
      "लिए": 1016,
      "ड़": 1017,
      "क्ष": 1018,
      "ut": 1019,
      "एक": 1020,
      "lo": 1021,
      "The": 1022,
      "ir": 1023,
      "सी": 1024,
      "li": 1025,
      "ad": 1026,
      "that": 1027,
      "tr": 1028,
      "are": 1029,
      "दा": 1030,
      "हीं": 1031,
      "जो": 1032,
      "सम": 1033,
      "उस": 1034,
      "उन": 1035,
      "ab": 1036,
      "तो": 1037,
      "बा": 1038,
      "ol": 1039,
      "ag": 1040,
      "su": 1041,
      "ment": 1042,
      "त्र": 1043,
      "अप": 1044,
      "द्": 1045,
      "ter": 1046,
      "जि": 1047,
      "नहीं": 1048,
      "we": 1049,
      "con": 1050,
      "ज़": 1051,
      "हु": 1052,
      "तुम": 1053,
      "ith": 1054,
      "हम": 1055,
      "ig": 1056,
      "ल्": 1057,
      "ष्": 1058,
      "not": 1059,
      "पा": 1060,
      "िक": 1061,
      "pe": 1062,
      "गा": 1063,
      "res": 1064,
      "ill": 1065,
      "all": 1066,
      "नी": 1067,
      "ll": 1068,
      "com": 1069,
      "pro": 1070,
      "us": 1071,
      "with": 1072,
      "un": 1073,
      "ess": 1074,
      "ul": 1075,
      "वे": 1076,
      "od": 1077,
      "तर": 1078,
      "ac": 1079,
      "et": 1080,
      "fr": 1081,
      "भा": 1082,
      "ate": 1083,
      "मु": 1084,
      "sh": 1085,
      "te": 1086,
      "चा": 1087,
      "किया": 1088,
      "if": 1089,
      "po": 1090,
      "यह": 1091,
      "ली": 1092,
      "per": 1093,
      "ain": 1094,
      "ld": 1095,
      "कु": 1096,
      "ther": 1097,
      "यों": 1098,
      "his": 1099,
      "री": 1100,
      "by": 1101,
      "वह": 1102,
      "श्": 1103,
      "ष्ट": 1104,
      "मि": 1105,
      "our": 1106,
      "रू": 1107,
      "अन": 1108,
      "ex": 1109,
      "so": 1110,
      "मान": 1111,
      "ारा": 1112,
      "पू": 1113,
      "ak": 1114,
      "do": 1115,
      "करने": 1116,
      "लोग": 1117,
      "अध": 1118,
      "ये": 1119,
      "fe": 1120,
      "ne": 1121,
      "was": 1122,
      "me": 1123,
      "iv": 1124,
      "have": 1125,
      "ap": 1126,
      "ht": 1127,
      "from": 1128,
      "ity": 1129,
      "they": 1130,
      "will": 1131,
      "op": 1132,
      "mo": 1133,
      "them": 1134,
      "ंग": 1135,
      "pl": 1136,
      "मे": 1137,
      "est": 1138,
      "रे": 1139,
      "खा": 1140,
      "who": 1141,
      "ah": 1142,
      "जी": 1143,
      "ख़": 1144,
      "art": 1145,
      "दी": 1146,
      "शा": 1147,
      "ri": 1148,
      "has": 1149,
      "हि": 1150,
      "this": 1151,
      "one": 1152,
      "ich": 1153,
      "ers": 1154,
      "वर्": 1155,
      "देश": 1156,
      "ant": 1157,
      "क़": 1158,
      "रह": 1159,
      "ारे": 1160,
      "अपने": 1161,
      "भार": 1162,
      "्या": 1163,
      "ind": 1164,
      "qu": 1165,
      "He": 1166,
      "सक": 1167,
      "ord": 1168,
      "ction": 1169,
      "ies": 1170,
      "न्ह": 1171,
      "सि": 1172,
      "सु": 1173,
      "फ़": 1174,
      "स्थ": 1175,
      "ive": 1176,
      "which": 1177,
      "pr": 1178,
      "िर": 1179,
      "उप": 1180,
      "any": 1181,
      "um": 1182,
      "out": 1183,
      "red": 1184,
      "In": 1185,
      "20": 1186,
      "ia": 1187,
      "Ind": 1188,
      "end": 1189,
      "सू": 1190,
      "ould": 1191,
      "ist": 1192,
      "All": 1193,
      "गे": 1194,
      "their": 1195,
      "शि": 1196,
      "क्र": 1197,
      "च्": 1198,
      "ard": 1199,
      "ge": 1200,
      "अनु": 1201,
      "जिस": 1202,
      "ci": 1203,
      "ार्": 1204,
      "व्य": 1205,
      "पु": 1206,
      "दो": 1207,
      "19": 1208,
      "प्": 1209,
      "गया": 1210,
      "em": 1211,
      "age": 1212,
      "ure": 1213,
      "ओं": 1214,
      "ैं": 1215,
      "तथा": 1216,
      "आप": 1217,
      "सर": 1218,
      "gr": 1219,
      "act": 1220,
      "ारी": 1221,
      "कुछ": 1222,
      "उन्ह": 1223,
      "oun": 1224,
      "रूप": 1225,
      "निर्": 1226,
      "ous": 1227,
      "up": 1228,
      "तक": 1229,
      "ort": 1230,
      "wor": 1231,
      "जब": 1232,
      "्ह": 1233,
      "over": 1234,
      "किसी": 1235,
      "द्व": 1236,
      "तुम्ह": 1237,
      "मी": 1238,
      "्री": 1239,
      "रि": 1240,
      "ear": 1241,
      "साथ": 1242,
      "We": 1243,
      "परि": 1244,
      "ow": 1245,
      "sa": 1246,
      "पूर्": 1247,
      "ंध": 1248,
      "ong": 1249,
      "au": 1250,
      "योग": 1251,
      "ame": 1252,
      "ish": 1253,
      "Allah": 1254,
      "but": 1255,
      "And": 1256,
      "ust": 1257,
      "प्रा": 1258,
      "dis": 1259,
      "ुदा": 1260,
      "गी": 1261,
      "कोई": 1262,
      "दू": 1263,
      "now": 1264,
      "ंड": 1265,
      "fo": 1266,
      "म्": 1267,
      "प्रति": 1268,
      "ans": 1269,
      "यो": 1270,
      "थे": 1271,
      "उनके": 1272,
      "हर": 1273,
      "वी": 1274,
      "ated": 1275,
      "कृ": 1276,
      "av": 1277,
      "द्ध": 1278,
      "बी": 1279,
      "your": 1280,
      "ance": 1281,
      "ight": 1282,
      "und": 1283,
      "ev": 1284,
      "able": 1285,
      "cl": 1286,
      "other": 1287,
      "ma": 1288,
      "इन": 1289,
      "द्वारा": 1290,
      "बना": 1291,
      "ke": 1292,
      "go": 1293,
      "िया": 1294,
      "जन": 1295,
      "वर": 1296,
      "ose": 1297,
      "क्ति": 1298,
      "ज्": 1299,
      "लोगों": 1300,
      "करें": 1301,
      "ren": 1302,
      "धार": 1303,
      "pt": 1304,
      "its": 1305,
      "ढ़": 1306,
      "करते": 1307,
      "फिर": 1308,
      "ra": 1309,
      "बे": 1310,
      "दिया": 1311,
      "ची": 1312,
      "can": 1313,
      "रो": 1314,
      "क्त": 1315,
      "port": 1316,
      "राज": 1317,
      "भारत": 1318,
      "गर": 1319,
      "राष्ट": 1320,
      "India": 1321,
      "जाए": 1322,
      "form": 1323,
      "यु": 1324,
      "ome": 1325,
      "नों": 1326,
      "गु": 1327,
      "there": 1328,
      "टी": 1329,
      "पह": 1330,
      "लाह": 1331,
      "पी": 1332,
      "ंत्र": 1333,
      "अल्": 1334,
      "ass": 1335,
      "ide": 1336,
      "oug": 1337,
      "ud": 1338,
      "Th": 1339,
      "टा": 1340,
      "कार्य": 1341,
      "लो": 1342,
      "मैं": 1343,
      "low": 1344,
      "थी": 1345,
      "क्या": 1346,
      "ast": 1347,
      "part": 1348,
      "अं": 1349,
      "ग्र": 1350,
      "him": 1351,
      "स्त": 1352,
      "ever": 1353,
      "बंध": 1354,
      "ach": 1355,
      "ary": 1356,
      "सब": 1357,
      "द्य": 1358,
      "..": 1359,
      "उत्": 1360,
      "स्था": 1361,
      "had": 1362,
      "कह": 1363,
      "कहा": 1364,
      "man": 1365,
      "अधि": 1366,
      "cre": 1367,
      "ज्ञ": 1368,
      "ख़ुदा": 1369,
      "ip": 1370,
      "जाता": 1371,
      "रख": 1372,
      "अल्लाह": 1373,
      "ice": 1374,
      "उसके": 1375,
      "00": 1376,
      "दु": 1377,
      "been": 1378,
      "af": 1379,
      "चार": 1380,
      "ok": 1381,
      "रहे": 1382,
      "ब्": 1383,
      "comp": 1384,
      "co": 1385,
      "coun": 1386,
      "अपनी": 1387,
      "ence": 1388,
      "ople": 1389,
      "ड़ा": 1390,
      "It": 1391,
      "were": 1392,
      "ical": 1393,
      "करना": 1394,
      "know": 1395,
      "मू": 1396,
      "अव": 1397,
      "br": 1398,
      "fore": 1399,
      "द्र": 1400,
      "लों": 1401,
      "ियों": 1402,
      "ie": 1403,
      "ions": 1404,
      "बहु": 1405,
      "रु": 1406,
      "भि": 1407,
      "tim": 1408,
      "way": 1409,
      "pres": 1410,
      "त्य": 1411,
      "ire": 1412,
      "pre": 1413,
      "निय": 1414,
      "those": 1415,
      "बर": 1416,
      "न्न": 1417,
      "bo": 1418,
      "du": 1419,
      "क्षे": 1420,
      "ine": 1421,
      "क्षा": 1422,
      "fa": 1423,
      "च्छ": 1424,
      "when": 1425,
      "ake": 1426,
      "प्त": 1427,
      "Wh": 1428,
      "iz": 1429,
      "said": 1430,
      "ber": 1431,
      "बात": 1432,
      "people": 1433,
      "beli": 1434,
      "वाले": 1435,
      "bl": 1436,
      "ser": 1437,
      "ानी": 1438,
      "बि": 1439,
      "ound": 1440,
      "je": 1441,
      "हुए": 1442,
      "चे": 1443,
      "टे": 1444,
      "ts": 1445,
      "under": 1446,
      "ang": 1447,
      "बाद": 1448,
      "str": 1449,
      "el": 1450,
      "shall": 1451,
      "शन": 1452,
      "चु": 1453,
      "लग": 1454,
      "उन्हें": 1455,
      "शी": 1456,
      "ase": 1457,
      "ign": 1458,
      "डा": 1459,
      "करता": 1460,
      "ile": 1461,
      "ens": 1462,
      "day": 1463,
      "स्व": 1464,
      "pos": 1465,
      "ations": 1466,
      "होता": 1467,
      "what": 1468,
      "old": 1469,
      "comm": 1470,
      "her": 1471,
      "come": 1472,
      "here": 1473,
      "दर्": 1474,
      "God": 1475,
      "विध": 1476,
      "ings": 1477,
      "ial": 1478,
      "क्षेत्र": 1479,
      "रहा": 1480,
      "ोंने": 1481,
      "also": 1482,
      "जान": 1483,
      "अधिक": 1484,
      "उसे": 1485,
      "सकता": 1486,
      "ड़े": 1487,
      "rit": 1488,
      "वन": 1489,
      "देख": 1490,
      "work": 1491,
      "पै": 1492,
      "शु": 1493,
      "ian": 1494,
      "समय": 1495,
      "दान": 1496,
      "चि": 1497,
      "ult": 1498,
      "चित": 1499,
      "cess": 1500,
      "sel": 1501,
      "जै": 1502,
      "बु": 1503,
      "ble": 1504,
      "बहुत": 1505,
      "मो": 1506,
      "राष्ट्र": 1507,
      "मह": 1508,
      "may": 1509,
      "ack": 1510,
      "ef": 1511,
      "्यों": 1512,
      "मिल": 1513,
      "र्थ": 1514,
      "कर्": 1515,
      "sp": 1516,
      "भू": 1517,
      "prov": 1518,
      "tain": 1519,
      "This": 1520,
      "ough": 1521,
      "काम": 1522,
      "Lord": 1523,
      "त्व": 1524,
      "then": 1525,
      "हे": 1526,
      "शे": 1527,
      "ted": 1528,
      "पति": 1529,
      "ful": 1530,
      "ise": 1531,
      "ड़ी": 1532,
      "पास": 1533,
      "some": 1534,
      "पूर्ण": 1535,
      "ep": 1536,
      "ail": 1537,
      "ater": 1538,
      "spe": 1539,
      "ident": 1540,
      "ace": 1541,
      "ath": 1542,
      "St": 1543,
      "तीय": 1544,
      "पि": 1545,
      "201": 1546,
      "ory": 1547,
      "ition": 1548,
      "णा": 1549,
      "overn": 1550,
      "try": 1551,
      "Ch": 1552,
      "कारी": 1553,
      "निक": 1554,
      "लय": 1555,
      "तरह": 1556,
      "डि": 1557,
      "tw": 1558,
      "ree": 1559,
      "वर्ष": 1560,
      "ally": 1561,
      "विश्": 1562,
      "year": 1563,
      "टि": 1564,
      "भाग": 1565,
      "ot": 1566,
      "टर": 1567,
      "हू": 1568,
      "कम": 1569,
      "only": 1570,
      "करण": 1571,
      "वं": 1572,
      "sub": 1573,
      "उन्होंने": 1574,
      "हुआ": 1575,
      "urn": 1576,
      "would": 1577,
      "ple": 1578,
      "पहले": 1579,
      "दर": 1580,
      "my": 1581,
      "सम्": 1582,
      "ious": 1583,
      "time": 1584,
      "योज": 1585,
      "such": 1586,
      "यदि": 1587,
      "पे": 1588,
      "हमने": 1589,
      "चना": 1590,
      "ject": 1591,
      "जिन": 1592,
      "दिन": 1593,
      "मत": 1594,
      "wn": 1595,
      "ty": 1596,
      "समा": 1597,
      "हों": 1598,
      "कों": 1599,
      "ue": 1600,
      "उनकी": 1601,
      "होने": 1602,
      "तुम्हारे": 1603,
      "चाहि": 1604,
      "नाम": 1605,
      "धि": 1606,
      "मुख": 1607,
      "than": 1608,
      "lig": 1609,
      "छो": 1610,
      "new": 1611,
      "ause": 1612,
      "होगा": 1613,
      "व्यक्ति": 1614,
      "ck": 1615,
      "son": 1616,
      "ज़ा": 1617,
      "्रे": 1618,
      "गत": 1619,
      "संबंध": 1620,
      "एं": 1621,
      "पर्": 1622,
      "गई": 1623,
      "cent": 1624,
      "्रीय": 1625,
      "गए": 1626,
      "मन": 1627,
      "झे": 1628,
      "हां": 1629,
      "अन्य": 1630,
      "like": 1631,
      "ational": 1632,
      "बो": 1633,
      "ौर": 1634,
      "ities": 1635,
      "हमारे": 1636,
      "made": 1637,
      "lect": 1638,
      "Re": 1639,
      "ob": 1640,
      "्रा": 1641,
      "ओर": 1642,
      "िति": 1643,
      "सभी": 1644,
      "gre": 1645,
      "ress": 1646,
      "ऐसे": 1647,
      "ite": 1648,
      "दार": 1649,
      "ward": 1650,
      "after": 1651,
      "min": 1652,
      "वाला": 1653,
      "sc": 1654,
      "thing": 1655,
      "दन": 1656,
      "करो": 1657,
      "should": 1658,
      "more": 1659,
      "एँ": 1660,
      "ho": 1661,
      "राष्ट्रपति": 1662,
      "ild": 1663,
      "स्ता": 1664,
      "eng": 1665,
      "about": 1666,
      "bet": 1667,
      "Com": 1668,
      "बद": 1669,
      "gu": 1670,
      "धान": 1671,
      "int": 1672,
      "say": 1673,
      "स्ट": 1674,
      "बार": 1675,
      "यी": 1676,
      "into": 1677,
      "off": 1678,
      "प्राप्त": 1679,
      "cont": 1680,
      "Sh": 1681,
      "Pr": 1682,
      "overnment": 1683,
      "ग़": 1684,
      "श्य": 1685,
      "As": 1686,
      "cur": 1687,
      "नियम": 1688,
      "भाव": 1689,
      "प्रकार": 1690,
      "स्थान": 1691,
      "सकते": 1692,
      "हाँ": 1693,
      "tern": 1694,
      "ces": 1695,
      "राज्य": 1696,
      "अच्छ": 1697,
      "लन": 1698,
      "giv": 1699,
      "200": 1700,
      "इसके": 1701,
      "see": 1702,
      "साम": 1703,
      "चाहिए": 1704,
      "vers": 1705,
      "But": 1706,
      "So": 1707,
      "ark": 1708,
      "जाने": 1709,
      "डी": 1710,
      "Un": 1711,
      "हित": 1712,
      "They": 1713,
      "उसकी": 1714,
      "पूर्व": 1715,
      "तों": 1716,
      "लिया": 1717,
      "बढ़": 1718,
      "ave": 1719,
      "eve": 1720,
      "Pro": 1721,
      "सार": 1722,
      "cer": 1723,
      "न्द": 1724,
      "किए": 1725,
      "lop": 1726,
      "दूस": 1727,
      "्यू": 1728,
      "सर्": 1729,
      "cial": 1730,
      "des": 1731,
      "किन": 1732,
      "igh": 1733,
      "reg": 1734,
      "ness": 1735,
      "होती": 1736,
      "ज्ञान": 1737,
      "aw": 1738,
      "ईमान": 1739,
      "Con": 1740,
      "क्रम": 1741,
      "sy": 1742,
      "),": 1743,
      "सरकार": 1744,
      "विका": 1745,
      "two": 1746,
      "stit": 1747,
      "ied": 1748,
      "माण": 1749,
      "गार": 1750,
      "ener": 1751,
      "अगर": 1752,
      "समझ": 1753,
      "cept": 1754,
      "खु": 1755,
      "चाह": 1756,
      "led": 1757,
      "ry": 1758,
      "करे": 1759,
      "शेष": 1760,
      "fir": 1761,
      "turn": 1762,
      "ific": 1763,
      "योजना": 1764,
      "न्या": 1765,
      "ीन": 1766,
      "ऐसा": 1767,
      "ph": 1768,
      "get": 1769,
      "वार": 1770,
      "used": 1771,
      "trans": 1772,
      "set": 1773,
      "यन": 1774,
      "ship": 1775,
      "जे": 1776,
      "deed": 1777,
      "good": 1778,
      "विक": 1779,
      "तन": 1780,
      "ual": 1781,
      "अभि": 1782,
      "ank": 1783,
      "ates": 1784,
      "ments": 1785,
      "serv": 1786,
      "these": 1787,
      "पो": 1788,
      "एवं": 1789,
      "ट्": 1790,
      "इल": 1791,
      "धन": 1792,
      "कारण": 1793,
      "ठा": 1794,
      "अब": 1795,
      "पहु": 1796,
      "भारतीय": 1797,
      "व्या": 1798,
      "द्योग": 1799,
      "लगा": 1800,
      "ange": 1801,
      "ंच": 1802,
      "क्षण": 1803,
      "har": 1804,
      "मुझे": 1805,
      "वै": 1806,
      "before": 1807,
      "विकास": 1808,
      "mis": 1809,
      "क्यों": 1810,
      "stitut": 1811,
      "mer": 1812,
      "log": 1813,
      "भे": 1814,
      "रसू": 1815,
      "तः": 1816,
      "सो": 1817,
      "मार्": 1818,
      "फल": 1819,
      "again": 1820,
      "mon": 1821,
      "गो": 1822,
      "सद": 1823,
      "ध्य": 1824,
      "क्रिया": 1825,
      "धारा": 1826,
      "मंत्र": 1827,
      "row": 1828,
      "His": 1829,
      "ash": 1830,
      "thr": 1831,
      "हुई": 1832,
      "where": 1833,
      "cause": 1834,
      "खो": 1835,
      "cy": 1836,
      "life": 1837,
      "निश्": 1838,
      "भाष": 1839,
      "Mo": 1840,
      "feren": 1841,
      "ubl": 1842,
      "वृ": 1843,
      "जू": 1844,
      "डर": 1845,
      "त्म": 1846,
      "ink": 1847,
      "call": 1848,
      "ors": 1849,
      "self": 1850,
      "यू": 1851,
      "आर": 1852,
      "ंद": 1853,
      "ily": 1854,
      "स्थिति": 1855,
      "most": 1856,
      "च्च": 1857,
      "An": 1858,
      "कृति": 1859,
      "दिखा": 1860,
      "col": 1861,
      "si": 1862,
      "well": 1863,
      "fer": 1864,
      "सह": 1865,
      "Se": 1866,
      "रसूल": 1867,
      "person": 1868,
      "ves": 1869,
      "sion": 1870,
      "वल": 1871,
      "hi": 1872,
      "मौ": 1873,
      "मूल": 1874,
      "उसने": 1875,
      "ating": 1876,
      "pol": 1877,
      "Ex": 1878,
      "very": 1879,
      "fol": 1880,
      "रब": 1881,
      "दोनों": 1882,
      "स्तु": 1883,
      "ेंगे": 1884,
      "De": 1885,
      "mem": 1886,
      "आई": 1887,
      "लेकिन": 1888,
      "world": 1889,
      "अपना": 1890,
      "You": 1891,
      "att": 1892,
      "Indian": 1893,
      "दृ": 1894,
      "विष": 1895,
      "resident": 1896,
      "add": 1897,
      "प्रे": 1898,
      "pur": 1899,
      "फा": 1900,
      "If": 1901,
      "बै": 1902,
      "जाती": 1903,
      "med": 1904,
      "युक्त": 1905,
      "being": 1906,
      "तुम्हें": 1907,
      "oc": 1908,
      "val": 1909,
      "For": 1910,
      "विश्व": 1911,
      "जीवन": 1912,
      "ख्या": 1913,
      "own": 1914,
      "प्रदान": 1915,
      "ict": 1916,
      "वाद": 1917,
      "पत्र": 1918,
      "पार": 1919,
      "विशेष": 1920,
      "rel": 1921,
      "ऐसी": 1922,
      "long": 1923,
      "...": 1924,
      "ced": 1925,
      "आय": 1926,
      "ru": 1927,
      "through": 1928,
      "वाली": 1929,
      "ative": 1930,
      "stru": 1931,
      "deve": 1932,
      "उपयोग": 1933,
      "लिख": 1934,
      "There": 1935,
      "ंक": 1936,
      "माल": 1937,
      "णी": 1938,
      "प्रयोग": 1939,
      "wer": 1940,
      "cons": 1941,
      "mat": 1942,
      "चल": 1943,
      "less": 1944,
      "section": 1945,
      ").": 1946,
      "fl": 1947,
      "कै": 1948,
      "read": 1949,
      "hel": 1950,
      "land": 1951,
      "every": 1952,
      "होते": 1953,
      "हाय": 1954,
      "10": 1955,
      "develop": 1956,
      "जु": 1957,
      "कं": 1958,
      "ext": 1959,
      "कता": 1960,
      "vis": 1961,
      "जैसे": 1962,
      "बन": 1963,
      "En": 1964,
      "ning": 1965,
      "श्री": 1966,
      "down": 1967,
      "ख्": 1968,
      "dif": 1969,
      "need": 1970,
      "डे": 1971,
      "name": 1972,
      "right": 1973,
      "ati": 1974,
      "tri": 1975,
      "Is": 1976,
      "fin": 1977,
      "ye": 1978,
      "stand": 1979,
      "produ": 1980,
      "main": 1981,
      "निया": 1982,
      "rest": 1983,
      "बीच": 1984,
      "No": 1985,
      "रही": 1986,
      "ंत": 1987,
      "ask": 1988,
      "बारे": 1989,
      "18": 1990,
      "aj": 1991,
      "ism": 1992,
      "lear": 1993,
      "काश": 1994,
      "use": 1995,
      "स्वा": 1996,
      "ण्": 1997,
      "war": 1998,
      "sure": 1999,
      "पं": 2000,
      "just": 2001,
      "ages": 2002,
      "make": 2003,
      "ents": 2004,
      "वास": 2005,
      "उसका": 2006,
      "uring": 2007,
      "सहाय": 2008,
      "inv": 2009,
      "ween": 2010,
      "char": 2011,
      "country": 2012,
      "arch": 2013,
      "ten": 2014,
      "tru": 2015,
      "लेख": 2016,
      "tak": 2017,
      "कू": 2018,
      "ided": 2019,
      "तना": 2020,
      "President": 2021,
      "।\"": 2022,
      "ting": 2023,
      "Government": 2024,
      "आव": 2025,
      "राष्ट्रीय": 2026,
      "ick": 2027,
      "ष्ठ": 2028,
      "put": 2029,
      "does": 2030,
      "मै": 2031,
      "आधार": 2032,
      "फ़ा": 2033,
      "र्म": 2034,
      "काल": 2035,
      "between": 2036,
      "सेवा": 2037,
      "men": 2038,
      "bu": 2039,
      "follow": 2040,
      "stem": 2041,
      "nor": 2042,
      "ublic": 2043,
      "inte": 2044,
      "स्थाप": 2045,
      "pp": 2046,
      "मेरे": 2047,
      "many": 2048,
      "ular": 2049,
      "fic": 2050,
      "सके": 2051,
      "एस": 2052,
      "भर": 2053,
      "believe": 2054,
      "gan": 2055,
      "Min": 2056,
      "back": 2057,
      "even": 2058,
      "first": 2059,
      "भिन्न": 2060,
      "ural": 2061,
      "नीति": 2062,
      "धी": 2063,
      "upon": 2064,
      "ms": 2065,
      "could": 2066,
      "did": 2067,
      "hand": 2068,
      "Him": 2069,
      "अंत": 2070,
      "pect": 2071,
      "ax": 2072,
      "शक": 2073,
      "hav": 2074,
      "num": 2075,
      "Act": 2076,
      "िय": 2077,
      "ought": 2078,
      "उनका": 2079,
      "sign": 2080,
      "cour": 2081,
      "विचार": 2082,
      "जाएगा": 2083,
      "देने": 2084,
      "हमें": 2085,
      "15": 2086,
      "years": 2087,
      "वही": 2088,
      "ters": 2089,
      "केवल": 2090,
      "cord": 2091,
      "मित": 2092,
      "lim": 2093,
      "तम": 2094,
      "चीज़": 2095,
      "शो": 2096,
      "माम": 2097,
      "given": 2098,
      "let": 2099,
      "यर": 2100,
      "came": 2101,
      "बू": 2102,
      "mu": 2103,
      "tem": 2104,
      "जिसमें": 2105,
      "स्प": 2106,
      "cond": 2107,
      "चय": 2108,
      "परा": 2109,
      "आवश्य": 2110,
      "ताकि": 2111,
      "हूँ": 2112,
      "मान्य": 2113,
      "प्रत्य": 2114,
      "धा": 2115,
      "सूचना": 2116,
      "present": 2117,
      "mit": 2118,
      "ility": 2119,
      "den": 2120,
      "sha": 2121,
      "ंभ": 2122,
      "peri": 2123,
      "श्र": 2124,
      "cap": 2125,
      "earth": 2126,
      "ited": 2127,
      "fect": 2128,
      "पत्": 2129,
      "als": 2130,
      "ल्प": 2131,
      "against": 2132,
      "uc": 2133,
      "निर्धार": 2134,
      "कृत": 2135,
      "play": 2136,
      "Bo": 2137,
      "mess": 2138,
      "पैदा": 2139,
      "वालों": 2140,
      "among": 2141,
      "par": 2142,
      "जाना": 2143,
      "take": 2144,
      "लें": 2145,
      "खे": 2146,
      "writ": 2147,
      "ature": 2148,
      "उसी": 2149,
      "ष्टि": 2150,
      "क्स": 2151,
      "requ": 2152,
      "हमारी": 2153,
      "12": 2154,
      "दूसरे": 2155,
      "place": 2156,
      "sent": 2157,
      "इसे": 2158,
      "ond": 2159,
      "आज": 2160,
      "बड़ा": 2161,
      "सन": 2162,
      "सबसे": 2163,
      "त्या": 2164,
      "न्तु": 2165,
      "ised": 2166,
      "संग": 2167,
      "soci": 2168,
      "To": 2169,
      "मद": 2170,
      "word": 2171,
      "तंत्र": 2172,
      "उत्पा": 2173,
      "मार्ग": 2174,
      "फ्": 2175,
      "formation": 2176,
      "भव": 2177,
      "अन्": 2178,
      "Ar": 2179,
      "ved": 2180,
      "वान": 2181,
      "incl": 2182,
      "पश्": 2183,
      "give": 2184,
      "great": 2185,
      "iew": 2186,
      "वेश": 2187,
      "घा": 2188,
      "cri": 2189,
      "तब": 2190,
      "अथ": 2191,
      "irect": 2192,
      "mark": 2193,
      "मार": 2194,
      "लब्": 2195,
      "pa": 2196,
      "cal": 2197,
      "ज्ञा": 2198,
      "cr": 2199,
      "var": 2200,
      "जाते": 2201,
      "inter": 2202,
      "लोक": 2203,
      "help": 2204,
      "इसमें": 2205,
      "गति": 2206,
      "ner": 2207,
      "स्वी": 2208,
      "ज़ि": 2209,
      "Ad": 2210,
      "घर": 2211,
      "ices": 2212,
      "क्योंकि": 2213,
      "IN": 2214,
      "अधिनियम": 2215,
      "car": 2216,
      "अधिकार": 2217,
      "कंप": 2218,
      "त्ता": 2219,
      "vel": 2220,
      "On": 2221,
      "power": 2222,
      "शक्ति": 2223,
      "देता": 2224,
      "समान": 2225,
      "स्त्र": 2226,
      "जिसे": 2227,
      "Su": 2228,
      "lar": 2229,
      "व्यव": 2230,
      "system": 2231,
      "pass": 2232,
      "Minis": 2233,
      "बस": 2234,
      "नो": 2235,
      "बल्": 2236,
      "ased": 2237,
      "यार": 2238,
      "gram": 2239,
      "alth": 2240,
      "भाषा": 2241,
      "ional": 2242,
      "उपलब्": 2243,
      "हरा": 2244,
      "छा": 2245,
      "ग्रा": 2246,
      "फी": 2247,
      "लू": 2248,
      "les": 2249,
      "ants": 2250,
      "lish": 2251,
      "अथवा": 2252,
      "ade": 2253,
      "इं": 2254,
      "cor": 2255,
      "अर्": 2256,
      "State": 2257,
      "दूर": 2258,
      "cho": 2259,
      "उनसे": 2260,
      "क्षम": 2261,
      "Ne": 2262,
      "Al": 2263,
      "उद्": 2264,
      "hum": 2265,
      "child": 2266,
      "ताओं": 2267,
      "ven": 2268,
      "पन": 2269,
      "ins": 2270,
      "संदेश": 2271,
      "ध्या": 2272,
      "भु": 2273,
      "वाह": 2274,
      "पुर": 2275,
      "because": 2276,
      "plo": 2277,
      "ures": 2278,
      "उससे": 2279,
      "import": 2280,
      "यालय": 2281,
      "कभी": 2282,
      "jo": 2283,
      "टन": 2284,
      "must": 2285,
      "she": 2286,
      "भूमि": 2287,
      "खि": 2288,
      "tal": 2289,
      "oper": 2290,
      "बैं": 2291,
      "lit": 2292,
      "fact": 2293,
      "दों": 2294,
      "When": 2295,
      "दाय": 2296,
      "count": 2297,
      "ital": 2298,
      "कुल": 2299,
      "ठी": 2300,
      "ii": 2301,
      "परवर": 2302,
      "तै": 2303,
      "फ़ाइल": 2304,
      "दिगार": 2305,
      "सान": 2306,
      "thor": 2307,
      "plic": 2308,
      "हूं": 2309,
      "षण": 2310,
      "शिक्षा": 2311,
      "महा": 2312,
      "परवरदिगार": 2313,
      "qual": 2314,
      "light": 2315,
      "अंतर": 2316,
      "सूची": 2317,
      "त्रा": 2318,
      "Our": 2319,
      "सकती": 2320,
      "ror": 2321,
      "ार्थ": 2322,
      "वो": 2323,
      "ides": 2324,
      "स्ते": 2325,
      "ouse": 2326,
      "iness": 2327,
      "कान": 2328,
      "gener": 2329,
      "मिक": 2330,
      "स्तर": 2331,
      "wom": 2332,
      "prom": 2333,
      "चर": 2334,
      "ES": 2335,
      "water": 2336,
      "how": 2337,
      "दौर": 2338,
      "करा": 2339,
      "कट": 2340,
      "यं": 2341,
      "रत": 2342,
      "वरण": 2343,
      "बन्": 2344,
      "लं": 2345,
      "ivers": 2346,
      "पहुँ": 2347,
      "tribut": 2348,
      "differen": 2349,
      "pend": 2350,
      "करती": 2351,
      "शब्": 2352,
      "ब्र": 2353,
      "ese": 2354,
      "बड़ी": 2355,
      "state": 2356,
      "ss": 2357,
      "sup": 2358,
      "महत्व": 2359,
      "उपलब्ध": 2360,
      "order": 2361,
      "तू": 2362,
      "found": 2363,
      "evers": 2364,
      "पुन": 2365,
      "बरा": 2366,
      "इसलिए": 2367,
      "leg": 2368,
      "Day": 2369,
      "स्ति": 2370,
      "199": 2371,
      "सहायता": 2372,
      "हाल": 2373,
      "उत्तर": 2374,
      "प्रो": 2375,
      "कई": 2376,
      "hold": 2377,
      "अलग": 2378,
      "tre": 2379,
      "लिये": 2380,
      "याद": 2381,
      "संख्या": 2382,
      "cus": 2383,
      "che": 2384,
      "ps": 2385,
      "मं": 2386,
      "11": 2387,
      "लाभ": 2388,
      "bod": 2389,
      "far": 2390,
      "ग्रह": 2391,
      "गि": 2392,
      "selves": 2393,
      "ीय": 2394,
      "मेरी": 2395,
      "आया": 2396,
      "ट्र": 2397,
      "छोड़": 2398,
      "कला": 2399,
      "फि": 2400,
      "fil": 2401,
      "ताब": 2402,
      "resp": 2403,
      "Hind": 2404,
      "अति": 2405,
      "while": 2406,
      "away": 2407,
      "तान": 2408,
      "होना": 2409,
      "निर्माण": 2410,
      "पता": 2411,
      "बल्कि": 2412,
      "न्द्र": 2413,
      "उनमें": 2414,
      "संस्": 2415,
      "lead": 2416,
      "want": 2417,
      "ata": 2418,
      "Do": 2419,
      "ution": 2420,
      "pay": 2421,
      "ft": 2422,
      "जिन्ह": 2423,
      "सुर": 2424,
      "पक": 2425,
      "अर्थ": 2426,
      "each": 2427,
      "होगी": 2428,
      "उठा": 2429,
      "ified": 2430,
      "परिवर्": 2431,
      "number": 2432,
      "इससे": 2433,
      "सल": 2434,
      "बता": 2435,
      "फे": 2436,
      "sur": 2437,
      "शामिल": 2438,
      "अधीन": 2439,
      "सदस्": 2440,
      "clo": 2441,
      "कॉ": 2442,
      "सामान्य": 2443,
      "िका": 2444,
      "mal": 2445,
      "विभिन्न": 2446,
      "सफल": 2447,
      "यहाँ": 2448,
      "fam": 2449,
      "इसी": 2450,
      "ral": 2451,
      "angu": 2452,
      "dec": 2453,
      "ety": 2454,
      "list": 2455,
      "book": 2456,
      "कर्म": 2457,
      "द्धि": 2458,
      "भग": 2459,
      "शै": 2460,
      "उच्च": 2461,
      "स्थित": 2462,
      "heav": 2463,
      "ys": 2464,
      "आगे": 2465,
      ".\"": 2466,
      "पड़": 2467,
      "कहते": 2468,
      "view": 2469,
      "जहां": 2470,
      "conom": 2471,
      "करके": 2472,
      "बल": 2473,
      "mission": 2474,
      "og": 2475,
      "dow": 2476,
      "िकी": 2477,
      "दौरान": 2478,
      "Cent": 2479,
      "धर": 2480,
      "heart": 2481,
      "वस्तु": 2482,
      "मंत्री": 2483,
      "विद्": 2484,
      "लित": 2485,
      "during": 2486,
      "organ": 2487,
      "Mu": 2488,
      "लिक": 2489,
      "high": 2490,
      "ime": 2491,
      "अंग": 2492,
      "खंड": 2493,
      "believers": 2494,
      "ctions": 2495,
      "त्मक": 2496,
      "move": 2497,
      "वित": 2498,
      "यही": 2499,
      "्व": 2500,
      "मृ": 2501,
      "वास्त": 2502,
      "घट": 2503,
      "Res": 2504,
      "dev": 2505,
      "स्पष्ट": 2506,
      "उनको": 2507,
      "कें": 2508,
      "logy": 2509,
      "case": 2510,
      "aug": 2511,
      "विषय": 2512,
      "000": 2513,
      "same": 2514,
      "dr": 2515,
      "sm": 2516,
      "spec": 2517,
      "जल": 2518,
      "EN": 2519,
      "अनुसार": 2520,
      "ls": 2521,
      "र्इ": 2522,
      "change": 2523,
      "ledge": 2524,
      "बैठ": 2525,
      "law": 2526,
      "अवसर": 2527,
      "मुख्य": 2528,
      "एम": 2529,
      "la": 2530,
      "त्त": 2531,
      "whom": 2532,
      "AN": 2533,
      "हाथ": 2534,
      "ंगा": 2535,
      "Be": 2536,
      "rece": 2537,
      "जिसके": 2538,
      "पूरा": 2539,
      "ana": 2540,
      "ars": 2541,
      "ेक": 2542,
      "दुनिया": 2543,
      "issu": 2544,
      "छे": 2545,
      "development": 2546,
      "हत": 2547,
      "मीन": 2548,
      "सित": 2549,
      "called": 2550,
      "process": 2551,
      "यां": 2552,
      "होंगे": 2553,
      "सामने": 2554,
      "ik": 2555,
      "तरफ": 2556,
      "कौ": 2557,
      "इसका": 2558,
      "Then": 2559,
      "मर": 2560,
      "नेक": 2561,
      "ics": 2562,
      "cas": 2563,
      "fac": 2564,
      "ired": 2565,
      "अच्छा": 2566,
      "ya": 2567,
      "हार": 2568,
      "bus": 2569,
      "ists": 2570,
      "both": 2571,
      ":%": 2572,
      "संर": 2573,
      "ives": 2574,
      "परी": 2575,
      "बढ़ा": 2576,
      "ways": 2577,
      "certain": 2578,
      "प्रक्रिया": 2579,
      "16": 2580,
      "My": 2581,
      "tech": 2582,
      "Par": 2583,
      "open": 2584,
      "धु": 2585,
      "look": 2586,
      "sul": 2587,
      "press": 2588,
      "समू": 2589,
      "पृ": 2590,
      "गह": 2591,
      "stud": 2592,
      "file": 2593,
      "another": 2594,
      "public": 2595,
      "क्षित": 2596,
      "bal": 2597,
      "etc": 2598,
      "पक्ष": 2599,
      "mind": 2600,
      "उसमें": 2601,
      "जाएँ": 2602,
      "cro": 2603,
      "ंतु": 2604,
      "कल": 2605,
      "आपको": 2606,
      "30": 2607,
      "Tr": 2608,
      "things": 2609,
      "यास": 2610,
      "head": 2611,
      "टो": 2612,
      "educ": 2613,
      "known": 2614,
      "mak": 2615,
      "संबंधित": 2616,
      "truth": 2617,
      "fu": 2618,
      "पद": 2619,
      "start": 2620,
      "सौ": 2621,
      "देते": 2622,
      "wards": 2623,
      "bro": 2624,
      "commun": 2625,
      "करेगा": 2626,
      "Mus": 2627,
      "तैयार": 2628,
      "साइ": 2629,
      "kind": 2630,
      "निश्चित": 2631,
      "नई": 2632,
      "io": 2633,
      "opt": 2634,
      "रंग": 2635,
      "बाहर": 2636,
      "फो": 2637,
      "रखा": 2638,
      "र्ष": 2639,
      "जार": 2640,
      "Of": 2641,
      "return": 2642,
      "ared": 2643,
      "जह": 2644,
      "जित": 2645,
      "period": 2646,
      "gg": 2647,
      "ID": 2648,
      "पानी": 2649,
      "knowledge": 2650,
      "sto": 2651,
      "comple": 2652,
      "indust": 2653,
      "लाने": 2654,
      "ize": 2655,
      "econom": 2656,
      "cut": 2657,
      "ount": 2658,
      "प्रत्येक": 2659,
      "लगे": 2660,
      "प्रौ": 2661,
      "जारी": 2662,
      "hal": 2663,
      "different": 2664,
      "चाहते": 2665,
      "राम": 2666,
      "किताब": 2667,
      "indeed": 2668,
      "बड़े": 2669,
      "partic": 2670,
      "विधा": 2671,
      "14": 2672,
      "National": 2673,
      "AT": 2674,
      "पढ़": 2675,
      "find": 2676,
      "तार": 2677,
      "योजन": 2678,
      "sect": 2679,
      "without": 2680,
      "ann": 2681,
      "लने": 2682,
      "ON": 2683,
      "What": 2684,
      "अग": 2685,
      "र्ट": 2686,
      "win": 2687,
      "por": 2688,
      "समर्थ": 2689,
      "50": 2690,
      "three": 2691,
      "Mess": 2692,
      "ज्या": 2693,
      "bers": 2694,
      "suc": 2695,
      "show": 2696,
      "महि": 2697,
      "तीन": 2698,
      "lease": 2699,
      "चुन": 2700,
      "mar": 2701,
      "तुम्हारी": 2702,
      "रात": 2703,
      "support": 2704,
      "account": 2705,
      "ving": 2706,
      "bed": 2707,
      "अध्य": 2708,
      "bar": 2709,
      "प्रकाश": 2710,
      "देशों": 2711,
      "OF": 2712,
      "avail": 2713,
      "शान": 2714,
      "बनाने": 2715,
      "गू": 2716,
      "body": 2717,
      "includ": 2718,
      "निश्चय": 2719,
      "सिद्ध": 2720,
      "धर्म": 2721,
      "लु": 2722,
      "खुदा": 2723,
      "ून": 2724,
      "आदि": 2725,
      "bre": 2726,
      "relig": 2727,
      "प्रार": 2728,
      "फै": 2729,
      "respect": 2730,
      "line": 2731,
      "पूरी": 2732,
      "author": 2733,
      "pun": 2734,
      "स्वयं": 2735,
      "रुप": 2736,
      "कार्यक्रम": 2737,
      "सां": 2738,
      "ision": 2739,
      "cu": 2740,
      "एन": 2741,
      "शुरू": 2742,
      "झु": 2743,
      "interest": 2744,
      "यम": 2745,
      "istr": 2746,
      "sing": 2747,
      "means": 2748,
      "AR": 2749,
      "much": 2750,
      "'%": 2751,
      "except": 2752,
      "last": 2753,
      "program": 2754,
      "wr": 2755,
      "शत": 2756,
      "ived": 2757,
      "सभा": 2758,
      "contin": 2759,
      "ध्यम": 2760,
      "तरी": 2761,
      "sol": 2762,
      "श्रे": 2763,
      "appe": 2764,
      "अत्य": 2765,
      "गल": 2766,
      "adv": 2767,
      "dom": 2768,
      "fear": 2769,
      "प्रौद्योग": 2770,
      "आपके": 2771,
      "ric": 2772,
      "सन्": 2773,
      "दृष्टि": 2774,
      "गुण": 2775,
      "grow": 2776,
      "स्थापित": 2777,
      "आं": 2778,
      "information": 2779,
      "निर्धारित": 2780,
      "PR": 2781,
      "ince": 2782,
      "Shri": 2783,
      "यान": 2784,
      "क़ा": 2785,
      "व्यवस्था": 2786,
      "ament": 2787,
      "tax": 2788,
      "जें": 2789,
      "king": 2790,
      "langu": 2791,
      "grou": 2792,
      "tle": 2793,
      "अज़ा": 2794,
      "esh": 2795,
      "संघ": 2796,
      "प्रधान": 2797,
      "Man": 2798,
      "प्रयास": 2799,
      "taken": 2800,
      "direct": 2801,
      "गण": 2802,
      "गै": 2803,
      "sk": 2804,
      "पस": 2805,
      "ield": 2806,
      "ele": 2807,
      "मगर": 2808,
      "ऊपर": 2809,
      "44": 2810,
      "सुन": 2811,
      "मदद": 2812,
      "Or": 2813,
      "उन्": 2814,
      "हास": 2815,
      "vir": 2816,
      "''": 2817,
      "hy": 2818,
      "side": 2819,
      "unto": 2820,
      "real": 2821,
      "ह्": 2822,
      "post": 2823,
      "देह": 2824,
      "incre": 2825,
      "ither": 2826,
      "mod": 2827,
      "गये": 2828,
      "ण्ड": 2829,
      "Say": 2830,
      "government": 2831,
      "परियोजना": 2832,
      "ished": 2833,
      "ix": 2834,
      "human": 2835,
      "rent": 2836,
      "sible": 2837,
      "जरू": 2838,
      "ben": 2839,
      "aim": 2840,
      "action": 2841,
      "That": 2842,
      "सिवा": 2843,
      "दर्शन": 2844,
      "inst": 2845,
      "अज़ाब": 2846,
      "Go": 2847,
      "prev": 2848,
      "13": 2849,
      "अनेक": 2850,
      "think": 2851,
      "ठीक": 2852,
      "गिर": 2853,
      "आद": 2854,
      "लौ": 2855,
      "हेतु": 2856,
      "अंतर्": 2857,
      "कार्": 2858,
      "विश्वास": 2859,
      "unt": 2860,
      "गें": 2861,
      "member": 2862,
      "ai": 2863,
      "हरी": 2864,
      "भावना": 2865,
      "Ac": 2866,
      "प्रणा": 2867,
      "विज्ञान": 2868,
      "चाहता": 2869,
      "sim": 2870,
      "institut": 2871,
      "बैंक": 2872,
      "ER": 2873,
      "women": 2874,
      "हिं": 2875,
      "षि": 2876,
      "बनाया": 2877,
      "तुम्हारा": 2878,
      "search": 2879,
      "25": 2880,
      "vol": 2881,
      "ized": 2882,
      "उद्योग": 2883,
      "prof": 2884,
      "भवन": 2885,
      "यत": 2886,
      "ोर": 2887,
      "hether": 2888,
      "महत्वपूर्ण": 2889,
      "Me": 2890,
      "गयी": 2891,
      "ग्": 2892,
      "clear": 2893,
      "small": 2894,
      "point": 2895,
      "happ": 2896,
      "ca": 2897,
      "विधान": 2898,
      "ियाँ": 2899,
      "प्रभाव": 2900,
      "आए": 2901,
      "pen": 2902,
      "meet": 2903,
      "सिं": 2904,
      "जोड़": 2905,
      "lam": 2906,
      "शील": 2907,
      "project": 2908,
      "New": 2909,
      "वादी": 2910,
      "प्रमाण": 2911,
      "proper": 2912,
      "ned": 2913,
      "मूल्य": 2914,
      "ham": 2915,
      "त्रु": 2916,
      "प्रबंध": 2917,
      "might": 2918,
      "फ़ो": 2919,
      "app": 2920,
      "Name": 2921,
      "created": 2922,
      "प्रौद्योगिकी": 2923,
      "itu": 2924,
      "RB": 2925,
      "न्त": 2926,
      "देखा": 2927,
      "allow": 2928,
      "ablish": 2929,
      "प्रतिशत": 2930,
      "han": 2931,
      "company": 2932,
      "evil": 2933,
      "ंजी": 2934,
      "क्षेत्रों": 2935,
      "परिणा": 2936,
      "मैंने": 2937,
      "तियों": 2938,
      "संस्थान": 2939,
      "exam": 2940,
      "sou": 2941,
      "जमा": 2942,
      "cult": 2943,
      "pet": 2944,
      "div": 2945,
      "17": 2946,
      "शरी": 2947,
      "आर्थ": 2948,
      "बह": 2949,
      "ched": 2950,
      "यहां": 2951,
      "196": 2952,
      "कित": 2953,
      "लाए": 2954,
      "जिसने": 2955,
      "ध्यान": 2956,
      "cannot": 2957,
      "ल्डर": 2958,
      "bit": 2959,
      "घु": 2960,
      "These": 2961,
      "effect": 2962,
      "ify": 2963,
      "सीमा": 2964,
      "बेशक": 2965,
      "नीचे": 2966,
      "देना": 2967,
      "वर्ग": 2968,
      "ंति": 2969,
      "मौजू": 2970,
      "vi": 2971,
      "dist": 2972,
      "important": 2973,
      "फर": 2974,
      "साहित": 2975,
      "पाठ": 2976,
      "become": 2977,
      "plan": 2978,
      "पीछे": 2979,
      "message": 2980,
      "करेंगे": 2981,
      "बिना": 2982,
      "नीय": 2983,
      "शब्द": 2984,
      "ason": 2985,
      "ient": 2986,
      "शासन": 2987,
      "bring": 2988,
      "धित": 2989,
      "ज़ी": 2990,
      "प्रमुख": 2991,
      "believ": 2992,
      "Who": 2993,
      "Book": 2994,
      "उल्": 2995,
      "lected": 2996,
      "समाज": 2997,
      "cell": 2998,
      "आर्थिक": 2999,
      "दिष्ट": 3000,
      "ज़मीन": 3001,
      "ency": 3002,
      "तिहास": 3003,
      "आवश्यकता": 3004,
      "conne": 3005,
      "च्चे": 3006,
      "business": 3007,
      "राह": 3008,
      "hist": 3009,
      "bes": 3010,
      "जिसका": 3011,
      "नु": 3012,
      "Ram": 3013,
      "ends": 3014,
      "ज्यादा": 3015,
      "depend": 3016,
      "ider": 3017,
      "gn": 3018,
      "परिणाम": 3019,
      "Au": 3020,
      "स्या": 3021,
      "today": 3022,
      "nam": 3023,
      "हिस्": 3024,
      "लाया": 3025,
      "केंद्र": 3026,
      "ses": 3027,
      "दिर": 3028,
      "चाहे": 3029,
      "never": 3030,
      "रखने": 3031,
      "going": 3032,
      "surely": 3033,
      "सत": 3034,
      "इन्": 3035,
      "older": 3036,
      "ense": 3037,
      "Pl": 3038,
      "लेकर": 3039,
      "किन्तु": 3040,
      "establish": 3041,
      "कवि": 3042,
      "sum": 3043,
      "चित्र": 3044,
      "wrong": 3045,
      "too": 3046,
      "At": 3047,
      "धरती": 3048,
      "days": 3049,
      "ready": 3050,
      "fri": 3051,
      "198": 3052,
      "्त": 3053,
      "income": 3054,
      "ग्री": 3055,
      "?\"": 3056,
      "chang": 3057,
      "माध्यम": 3058,
      "punish": 3059,
      "चौ": 3060,
      "ator": 3061,
      "जबकि": 3062,
      "बेह": 3063,
      "आने": 3064,
      "activ": 3065,
      "पड़े": 3066,
      "ones": 3067,
      "विदेश": 3068,
      "quest": 3069,
      "children": 3070,
      "best": 3071,
      "दें": 3072,
      "दारी": 3073,
      "mand": 3074,
      "IT": 3075,
      "air": 3076,
      "ोह": 3077,
      "ज्य": 3078,
      "र्ड": 3079,
      "bank": 3080,
      "gress": 3081,
      "विस्त": 3082,
      "रोग": 3083,
      "fun": 3084,
      "घो": 3085,
      "bs": 3086,
      "di": 3087,
      "month": 3088,
      "ashtr": 3089,
      "Muslim": 3090,
      "icy": 3091,
      "अतः": 3092,
      "गुना": 3093,
      "कंपनी": 3094,
      "ably": 3095,
      "Lo": 3096,
      "शिष्ट": 3097,
      "आग": 3098,
      "applic": 3099,
      "अमे": 3100,
      "कृषि": 3101,
      "four": 3102,
      "tex": 3103,
      "दर्श": 3104,
      "Minister": 3105,
      "कठ": 3106,
      "ica": 3107,
      "हिन्": 3108,
      "अच्छे": 3109,
      "large": 3110,
      "इसकी": 3111,
      "दिए": 3112,
      "emplo": 3113,
      "लड़": 3114,
      "accept": 3115,
      "पिछ": 3116,
      "सुधार": 3117,
      "सुविधा": 3118,
      "विधि": 3119,
      "various": 3120,
      "लना": 3121,
      "प्रभा": 3122,
      "within": 3123,
      "पन्न": 3124,
      "gy": 3125,
      "ल्ली": 3126,
      "wit": 3127,
      "nology": 3128,
      "cture": 3129,
      "होकर": 3130,
      "विंड": 3131,
      "निर्दिष्ट": 3132,
      "tail": 3133,
      "निष्": 3134,
      "faith": 3135,
      "bas": 3136,
      "लाल": 3137,
      "झा": 3138,
      "jud": 3139,
      "क्षि": 3140,
      "date": 3141,
      "themselves": 3142,
      "ech": 3143,
      "कार्या": 3144,
      "gin": 3145,
      "राशि": 3146,
      "जिक": 3147,
      "र्य": 3148,
      "ore": 3149,
      "success": 3150,
      "रहने": 3151,
      "ल्म": 3152,
      "मेरा": 3153,
      "ines": 3154,
      "अभी": 3155,
      "नाथ": 3156,
      "better": 3157,
      "मध्य": 3158,
      "रिक्त": 3159,
      "नियंत्र": 3160,
      "plain": 3161,
      "window": 3162,
      "times": 3163,
      "विद्य": 3164,
      "face": 3165,
      "परिवर्तन": 3166,
      "Af": 3167,
      "others": 3168,
      "विभाग": 3169,
      "इनकार": 3170,
      "net": 3171,
      "धिक": 3172,
      "जैसा": 3173,
      "sess": 3174,
      "IS": 3175,
      "dra": 3176,
      "ination": 3177,
      "उद्देश": 3178,
      "htt": 3179,
      "समूह": 3180,
      "एल": 3181,
      "done": 3182,
      "ternal": 3183,
      "कर्ता": 3184,
      "spir": 3185,
      "भो": 3186,
      "जनता": 3187,
      "वर्ण": 3188,
      "तुमसे": 3189,
      "थो": 3190,
      "ali": 3191,
      "लाम": 3192,
      "शं": 3193,
      "amount": 3194,
      "suf": 3195,
      "proble": 3196,
      "Raj": 3197,
      "पश्चा": 3198,
      "प्रणाली": 3199,
      "pri": 3200,
      "सामा": 3201,
      "transl": 3202,
      "बद्ध": 3203,
      "left": 3204,
      "लगभग": 3205,
      "जानकारी": 3206,
      "लक्ष": 3207,
      "level": 3208,
      "respon": 3209,
      "साल": 3210,
      "सारे": 3211,
      "क़ौ": 3212,
      "रखते": 3213,
      "निम्": 3214,
      "ref": 3215,
      "स्वीकार": 3216,
      "पर्या": 3217,
      "कहीं": 3218,
      "मंड": 3219,
      "सहयोग": 3220,
      "position": 3221,
      "Eng": 3222,
      "ceed": 3223,
      "अवधि": 3224,
      "अमेरि": 3225,
      "contro": 3226,
      "197": 3227,
      "टक": 3228,
      "Im": 3229,
      "वर्त": 3230,
      "address": 3231,
      "फ़ोल्डर": 3232,
      "wever": 3233,
      "abo": 3234,
      "विद्यालय": 3235,
      "path": 3236,
      "tar": 3237,
      "बदला": 3238,
      "concer": 3239,
      "अच्छी": 3240,
      "Le": 3241,
      "काफी": 3242,
      "संगठ": 3243,
      "build": 3244,
      "polit": 3245,
      "education": 3246,
      "194": 3247,
      "ible": 3248,
      "ऋण": 3249,
      "az": 3250,
      "ढा": 3251,
      "पर्क": 3252,
      "due": 3253,
      "keep": 3254,
      "धे": 3255,
      "समस्या": 3256,
      "दम": 3257,
      "संस्था": 3258,
      "लागू": 3259,
      "free": 3260,
      "लॉ": 3261,
      "मानव": 3262,
      "बन्द": 3263,
      "):": 3264,
      "social": 3265,
      "ont": 3266,
      "worship": 3267,
      "जानता": 3268,
      "वहां": 3269,
      "cient": 3270,
      "eas": 3271,
      "व्यापार": 3272,
      "mad": 3273,
      "cover": 3274,
      "सदस्य": 3275,
      "Gr": 3276,
      "ically": 3277,
      "ton": 3278,
      "वक्त": 3279,
      "tries": 3280,
      "remain": 3281,
      "trad": 3282,
      "ंतर": 3283,
      "tract": 3284,
      "arr": 3285,
      "full": 3286,
      "available": 3287,
      "ट्टी": 3288,
      "नेट": 3289,
      "प्रती": 3290,
      "सामाजिक": 3291,
      "Ser": 3292,
      "24": 3293,
      "Mah": 3294,
      "देव": 3295,
      "ability": 3296,
      "invest": 3297,
      "मिला": 3298,
      "ization": 3299,
      "http": 3300,
      "मामले": 3301,
      "nic": 3302,
      "कोशि": 3303,
      "आदेश": 3304,
      "गम": 3305,
      "सका": 3306,
      "जों": 3307,
      "ENT": 3308,
      "र्फ": 3309,
      "grap": 3310,
      "डाल": 3311,
      "conf": 3312,
      "comes": 3313,
      "ulation": 3314,
      "चान": 3315,
      "house": 3316,
      "आख़": 3317,
      "इस्": 3318,
      "que": 3319,
      "प्रस्तु": 3320,
      "ंचा": 3321,
      "डियो": 3322,
      "मर्": 3323,
      "jee": 3324,
      "cted": 3325,
      "ferred": 3326,
      "benef": 3327,
      "दिल": 3328,
      "exp": 3329,
      "One": 3330,
      "कल्प": 3331,
      "ंट": 3332,
      "पोर्ट": 3333,
      "ium": 3334,
      "गर्": 3335,
      "ances": 3336,
      "निका": 3337,
      "offic": 3338,
      "//": 3339,
      "mor": 3340,
      "father": 3341,
      "enter": 3342,
      "जाएगी": 3343,
      "towards": 3344,
      "pop": 3345,
      "cle": 3346,
      "tee": 3347,
      "बराबर": 3348,
      "यक़": 3349,
      "रिया": 3350,
      "text": 3351,
      "पट": 3352,
      "resul": 3353,
      "क़ु": 3354,
      "Dis": 3355,
      "equ": 3356,
      "appro": 3357,
      "षित": 3358,
      "क्षमता": 3359,
      "non": 3360,
      "घटना": 3361,
      "आवश्यक": 3362,
      "ged": 3363,
      "लाई": 3364,
      "निवेश": 3365,
      "सुरक्षा": 3366,
      "reach": 3367,
      "TH": 3368,
      "म्बर": 3369,
      "na": 3370,
      "लिखित": 3371,
      "जाओ": 3372,
      "Central": 3373,
      "उसको": 3374,
      "ger": 3375,
      "top": 3376,
      "धारण": 3377,
      "health": 3378,
      "ption": 3379,
      "amp": 3380,
      "contain": 3381,
      "वाई": 3382,
      "संदेह": 3383,
      "://": 3384,
      "care": 3385,
      "चन": 3386,
      "run": 3387,
      "राय": 3388,
      "class": 3389,
      "195": 3390,
      "enger": 3391,
      "नया": 3392,
      "जगह": 3393,
      "¤¾": 3394,
      "उदा": 3395,
      "prote": 3396,
      "test": 3397,
      "mb": 3398,
      "सै": 3399,
      "Bhav": 3400,
      "pose": 3401,
      "पित": 3402,
      "लेने": 3403,
      "understand": 3404,
      "आत": 3405,
      "live": 3406,
      "Po": 3407,
      "ME": 3408,
      "वेब": 3409,
      "हमे": 3410,
      "exist": 3411,
      "ta": 3412,
      "plac": 3413,
      "language": 3414,
      "ury": 3415,
      "महिला": 3416,
      "यात्रा": 3417,
      "value": 3418,
      "chool": 3419,
      "iful": 3420,
      "cording": 3421,
      "seen": 3422,
      "fort": 3423,
      "साह": 3424,
      "किस": 3425,
      "inal": 3426,
      "जानते": 3427,
      "heavens": 3428,
      "Indeed": 3429,
      "ended": 3430,
      "क़ौम": 3431,
      "कोर्इ": 3432,
      "वों": 3433,
      "हरण": 3434,
      "युद्ध": 3435,
      "Ho": 3436,
      "निर्ण": 3437,
      "जिससे": 3438,
      "निम्न": 3439,
      "key": 3440,
      "iversity": 3441,
      "हक़": 3442,
      "तिक": 3443,
      "ुष": 3444,
      "ird": 3445,
      "gether": 3446,
      "लिम": 3447,
      "thou": 3448,
      "संधान": 3449,
      "loc": 3450,
      "command": 3451,
      "brought": 3452,
      "पार्": 3453,
      "सही": 3454,
      "national": 3455,
      "सत्य": 3456,
      "निस्": 3457,
      "पाल": 3458,
      "field": 3459,
      "नए": 3460,
      "ंगे": 3461,
      "चुका": 3462,
      "Islam": 3463,
      "punishment": 3464,
      "Co": 3465,
      "Wor": 3466,
      "ूम": 3467,
      "अभ": 3468,
      "though": 3469,
      "रों": 3470,
      "sche": 3471,
      "आकार": 3472,
      "Gu": 3473,
      "जाय": 3474,
      "itions": 3475,
      "family": 3476,
      "तौर": 3477,
      "lay": 3478,
      "kher": 3479,
      "तुमने": 3480,
      "तिम": 3481,
      "group": 3482,
      "ियां": 3483,
      "together": 3484,
      "न्याय": 3485,
      "रोक": 3486,
      "अतिरिक्त": 3487,
      "प्ति": 3488,
      "Rs": 3489,
      "kherjee": 3490,
      "बुरा": 3491,
      "कूल": 3492,
      "रहते": 3493,
      "got": 3494,
      "आन": 3495,
      "dest": 3496,
      "ww": 3497,
      "fair": 3498,
      "detail": 3499,
      "तें": 3500,
      "regard": 3501,
      "food": 3502,
      "उत्पादन": 3503,
      "भाई": 3504,
      "कहने": 3505,
      "Del": 3506,
      "योग्य": 3507,
      "ks": 3508,
      "product": 3509,
      "night": 3510,
      "poin": 3511,
      "ually": 3512,
      "स्क": 3513,
      "something": 3514,
      "Br": 3515,
      "बच्च": 3516,
      "kg": 3517,
      "चला": 3518,
      "ateg": 3519,
      "अनुसंधान": 3520,
      "चुके": 3521,
      "वेदन": 3522,
      "मंदिर": 3523,
      "clause": 3524,
      "comput": 3525,
      "अंतर्गत": 3526,
      "death": 3527,
      "पृष्ठ": 3528,
      "मूसा": 3529,
      "एफ": 3530,
      "आकाश": 3531,
      "scri": 3532,
      "associ": 3533,
      "apati": 3534,
      "words": 3535,
      "She": 3536,
      "स्र": 3537,
      "blo": 3538,
      "क्ता": 3539,
      "यातना": 3540,
      "service": 3541,
      "छु": 3542,
      "UR": 3543,
      "महान": 3544,
      "समिति": 3545,
      "ately": 3546,
      "जाये": 3547,
      "market": 3548,
      "बचा": 3549,
      "aring": 3550,
      "nat": 3551,
      "शल": 3552,
      "कृतिक": 3553,
      "ource": 3554,
      "वरी": 3555,
      "ale": 3556,
      "IC": 3557,
      "¥": 3558,
      "Bhavan": 3559,
      "true": 3560,
      "माँ": 3561,
      "agement": 3562,
      "र्च": 3563,
      "wish": 3564,
      "समु": 3565,
      "flow": 3566,
      "क्ट": 3567,
      "नही": 3568,
      "aren": 3569,
      "Add": 3570,
      "pray": 3571,
      "पश्चि": 3572,
      "hard": 3573,
      "anab": 3574,
      "object": 3575,
      "ification": 3576,
      "वास्तव": 3577,
      "पाद": 3578,
      "उद्देश्य": 3579,
      "मेल": 3580,
      "फू": 3581,
      "ari": 3582,
      "Can": 3583,
      "Ver": 3584,
      "ternational": 3585,
      "vill": 3586,
      "माना": 3587,
      "साय": 3588,
      "maj": 3589,
      "gl": 3590,
      "nation": 3591,
      "ste": 3592,
      "Fr": 3593,
      "Your": 3594,
      "ंस": 3595,
      "हुक्": 3596,
      "हाला": 3597,
      "Amer": 3598,
      "der": 3599,
      "जिन्हें": 3600,
      "ground": 3601,
      "वर्तमान": 3602,
      "sed": 3603,
      "reve": 3604,
      "23": 3605,
      "gen": 3606,
      "रान": 3607,
      "uty": 3608,
      "ंश": 3609,
      "कौन": 3610,
      "god": 3611,
      "रोध": 3612,
      "fall": 3613,
      "स्वतंत्र": 3614,
      "ivid": 3615,
      "ey": 3616,
      "phe": 3617,
      "reason": 3618,
      "ड्": 3619,
      "सिर्फ": 3620,
      "subject": 3621,
      "matter": 3622,
      "खोज": 3623,
      "वर्षों": 3624,
      "ष्ण": 3625,
      "संपर्क": 3626,
      "प्रारंभ": 3627,
      "second": 3628,
      "परिवार": 3629,
      "गीत": 3630,
      "OR": 3631,
      "Gener": 3632,
      "love": 3633,
      "लाइन": 3634,
      "AL": 3635,
      "अधिकारी": 3636,
      "data": 3637,
      "ज़र": 3638,
      "स्वास्थ": 3639,
      "Spe": 3640,
      "उपधारा": 3641,
      "ंधी": 3642,
      "provided": 3643,
      "मनुष": 3644,
      "छि": 3645,
      "area": 3646,
      "economic": 3647,
      "प्रदेश": 3648,
      "near": 3649,
      "ential": 3650,
      "कम्": 3651,
      "बनाए": 3652,
      "already": 3653,
      "gave": 3654,
      "परन्तु": 3655,
      "साहित्य": 3656,
      "विशिष्ट": 3657,
      "met": 3658,
      "Rashtr": 3659,
      "रिश्": 3660,
      "urther": 3661,
      "charact": 3662,
      "pain": 3663,
      "rep": 3664,
      "ference": 3665,
      "acy": 3666,
      "स्तान": 3667,
      "based": 3668,
      "हमारा": 3669,
      "बेहतर": 3670,
      "इतिहास": 3671,
      "Sub": 3672,
      "अल": 3673,
      "whole": 3674,
      "निकाल": 3675,
      "इंड": 3676,
      "दक्षि": 3677,
      "isions": 3678,
      "half": 3679,
      "दूसरी": 3680,
      "fund": 3681,
      "reng": 3682,
      "Sing": 3683,
      "Gand": 3684,
      "दुर्": 3685,
      "जन्": 3686,
      "संभव": 3687,
      "fully": 3688,
      "thy": 3689,
      "onment": 3690,
      "ising": 3691,
      "त्मा": 3692,
      "नित": 3693,
      "आरंभ": 3694,
      "liter": 3695,
      "yed": 3696,
      "Delhi": 3697,
      "anch": 3698,
      "equal": 3699,
      "instru": 3700,
      "capital": 3701,
      "याँ": 3702,
      "स्वास्थ्य": 3703,
      "took": 3704,
      "26": 3705,
      "तुमको": 3706,
      "Those": 3707,
      "बदल": 3708,
      "सेना": 3709,
      "निर्णय": 3710,
      "perform": 3711,
      "न्यू": 3712,
      "commit": 3713,
      "छवि": 3714,
      "Cha": 3715,
      "type": 3716,
      "ूब": 3717,
      "मुद्र": 3718,
      "oney": 3719,
      "दिल्ली": 3720,
      "पत्ति": 3721,
      "त्रुटि": 3722,
      "Rashtrapati": 3723,
      "signs": 3724,
      "वहाँ": 3725,
      "Pre": 3726,
      "प्रशि": 3727,
      "ख़ा": 3728,
      "एक्स": 3729,
      "शहर": 3730,
      "निर": 3731,
      "services": 3732,
      "थीं": 3733,
      "टों": 3734,
      "हुक्म": 3735,
      "term": 3736,
      "countries": 3737,
      "Am": 3738,
      "विवरण": 3739,
      "pract": 3740,
      "वत": 3741,
      "सिल": 3742,
      "शरीर": 3743,
      "following": 3744,
      "भेज": 3745,
      "आख़िर": 3746,
      "ention": 3747,
      "खी": 3748,
      "झुठ": 3749,
      "उपा": 3750,
      "pal": 3751,
      "iding": 3752,
      "above": 3753,
      "न्यायालय": 3754,
      "making": 3755,
      "शीर्ष": 3756,
      "नर": 3757,
      "तरा": 3758,
      "जवा": 3759,
      "वहार": 3760,
      "न्यास": 3761,
      "स्थानी": 3762,
      "नौ": 3763,
      "mail": 3764,
      "ib": 3765,
      "¤": 3766,
      "डॉ": 3767,
      "ues": 3768,
      "including": 3769,
      "Brit": 3770,
      "fail": 3771,
      "¤°": 3772,
      "htm": 3773,
      "पण": 3774,
      "cost": 3775,
      "थम": 3776,
      "little": 3777,
      "निर्देश": 3778,
      "सलमान": 3779,
      "giving": 3780,
      "reed": 3781,
      "बत": 3782,
      "provide": 3783,
      "lies": 3784,
      "dou": 3785,
      "ather": 3786,
      "aged": 3787,
      "प्रधानमंत्री": 3788,
      "himself": 3789,
      "ined": 3790,
      "अंग्रे": 3791,
      "लाख": 3792,
      "major": 3793,
      "पालन": 3794,
      "current": 3795,
      "few": 3796,
      "areas": 3797,
      "जर": 3798,
      "streng": 3799,
      "सम्बन्": 3800,
      "particular": 3801,
      "चै": 3802,
      "liament": 3803,
      "सिक": 3804,
      "वार्": 3805,
      "consider": 3806,
      "दया": 3807,
      "pat": 3808,
      "train": 3809,
      "अपे": 3810,
      "SA": 3811,
      "परे": 3812,
      "पुरा": 3813,
      "बच्चों": 3814,
      "मति": 3815,
      "having": 3816,
      "मुसलमान": 3817,
      "Pe": 3818,
      "र्क": 3819,
      "load": 3820,
      "thought": 3821,
      "ancial": 3822,
      "teach": 3823,
      "श्रेणी": 3824,
      "सिंह": 3825,
      "ery": 3826,
      "छोटे": 3827,
      "rate": 3828,
      "ृत": 3829,
      "जिनके": 3830,
      "देखते": 3831,
      "हमेशा": 3832,
      "विश्वविद्यालय": 3833,
      "kgm": 3834,
      "प्रस्तुत": 3835,
      "itor": 3836,
      "mes": 3837,
      "प्रश्": 3838,
      "सार्": 3839,
      "उत्पाद": 3840,
      "यक": 3841,
      "क्षर": 3842,
      "tor": 3843,
      "erc": 3844,
      "init": 3845,
      "देगा": 3846,
      "necess": 3847,
      "००": 3848,
      "ief": 3849,
      "वासी": 3850,
      "special": 3851,
      "complete": 3852,
      "अमेरिका": 3853,
      "still": 3854,
      "वीं": 3855,
      "ilities": 3856,
      "local": 3857,
      "कैसे": 3858,
      "मंत्रा": 3859,
      "mode": 3860,
      "possible": 3861,
      "विकसित": 3862,
      "परंतु": 3863,
      "ala": 3864,
      "संसा": 3865,
      "जहाँ": 3866,
      "वास्ते": 3867,
      "शिया": 3868,
      "cred": 3869,
      "isation": 3870,
      "वृद्धि": 3871,
      "policy": 3872,
      "निर्धारण": 3873,
      "अग्र": 3874,
      "उदाहरण": 3875,
      "ling": 3876,
      "पुस्": 3877,
      "आसमान": 3878,
      "prob": 3879,
      "ividual": 3880,
      "22": 3881,
      "रचना": 3882,
      "थि": 3883,
      "until": 3884,
      "mus": 3885,
      "त्ति": 3886,
      "pot": 3887,
      "लै": 3888,
      "hearts": 3889,
      "100": 3890,
      "योजित": 3891,
      "members": 3892,
      "मौजूद": 3893,
      "around": 3894,
      "ians": 3895,
      "report": 3896,
      "cil": 3897,
      "send": 3898,
      "cogn": 3899,
      "DI": 3900,
      "द्वि": 3901,
      "स्थानीय": 3902,
      "operation": 3903,
      "Commission": 3904,
      "वित्": 3905,
      "ples": 3906,
      "partment": 3907,
      "adesh": 3908,
      "निकल": 3909,
      "ब्रि": 3910,
      "पथ": 3911,
      "Some": 3912,
      "bor": 3913,
      "curity": 3914,
      "निधि": 3915,
      "hind": 3916,
      "विदेशी": 3917,
      "deeds": 3918,
      "mil": 3919,
      "tic": 3920,
      "using": 3921,
      "कित्": 3922,
      "Reg": 3923,
      "ng": 3924,
      "स्वरूप": 3925,
      "industri": 3926,
      "Col": 3927,
      "जिन्होंने": 3928,
      "five": 3929,
      "चीन": 3930,
      "Cour": 3931,
      "common": 3932,
      "संबंधी": 3933,
      "fav": 3934,
      "चू": 3935,
      "firm": 3936,
      "opy": 3937,
      "लेखा": 3938,
      "claim": 3939,
      "भूत": 3940,
      "Dr": 3941,
      "whether": 3942,
      "तहत": 3943,
      "sector": 3944,
      "rul": 3945,
      "प्रस्ता": 3946,
      "belong": 3947,
      "ज़े": 3948,
      "प्रथम": 3949,
      "II": 3950,
      "मक": 3951,
      "ded": 3952,
      "साइट": 3953,
      "posed": 3954,
      "wo": 3955,
      "21": 3956,
      "society": 3957,
      "श्वर": 3958,
      "Nor": 3959,
      "लक": 3960,
      "aled": 3961,
      "orig": 3962,
      "दस्ता": 3963,
      "ories": 3964,
      "28": 3965,
      "ait": 3966,
      "idence": 3967,
      "ried": 3968,
      "तारी": 3969,
      "atic": 3970,
      "lection": 3971,
      "मिले": 3972,
      "always": 3973,
      "सक्र": 3974,
      "uro": 3975,
      "along": 3976,
      "रण": 3977,
      "occas": 3978,
      "States": 3979,
      "फ़ि": 3980,
      "pan": 3981,
      "मिटा": 3982,
      "whose": 3983,
      "ern": 3984,
      "मिन": 3985,
      "आधारित": 3986,
      "meas": 3987,
      "Ma": 3988,
      "individual": 3989,
      "क़ि": 3990,
      "believed": 3991,
      "हटा": 3992,
      "vironment": 3993,
      "ering": 3994,
      "स्थापना": 3995,
      "home": 3996,
      "अफ": 3997,
      "ats": 3998,
      "भेजा": 3999,
      "अंतिम": 4000,
      "सार्व": 4001,
      "तत्व": 4002,
      "nothing": 4003,
      "PRES": 4004,
      "mill": 4005,
      "टिंग": 4006,
      "hammad": 4007,
      "पाया": 4008,
      "plement": 4009,
      "वायु": 4010,
      "termin": 4011,
      "दिशा": 4012,
      "held": 4013,
      "friend": 4014,
      "दृश्य": 4015,
      "ron": 4016,
      "tom": 4017,
      "सक्रिय": 4018,
      "lab": 4019,
      "प्रवेश": 4020,
      "किये": 4021,
      "अला": 4022,
      "झू": 4023,
      "गां": 4024,
      "create": 4025,
      "समाप्त": 4026,
      "therefore": 4027,
      "contribut": 4028,
      "political": 4029,
      "bey": 4030,
      "later": 4031,
      "Show": 4032,
      "रिक": 4033,
      "spirit": 4034,
      "Coun": 4035,
      "With": 4036,
      "करी": 4037,
      "प्रेम": 4038,
      "जन्म": 4039,
      "ji": 4040,
      "ards": 4041,
      "mean": 4042,
      "mult": 4043,
      "yet": 4044,
      "ल्या": 4045,
      "lot": 4046,
      "अनुभव": 4047,
      "error": 4048,
      "folder": 4049,
      "निस्संदेह": 4050,
      "विस्तार": 4051,
      "2014": 4052,
      "course": 4053,
      "wise": 4054,
      "दारों": 4055,
      "लत": 4056,
      "Please": 4057,
      "लगता": 4058,
      "भूमिका": 4059,
      "feel": 4060,
      "asses": 4061,
      "Ap": 4062,
      "कारा": 4063,
      "prin": 4064,
      "Beng": 4065,
      "thee": 4066,
      "जिसकी": 4067,
      "गांधी": 4068,
      "ems": 4069,
      "जल्": 4070,
      "मॉ": 4071,
      "Bank": 4072,
      "जाति": 4073,
      "मित्र": 4074,
      "fel": 4075,
      "flu": 4076,
      "संयुक्त": 4077,
      "ges": 4078,
      "पहचान": 4079,
      "र्जा": 4080,
      "पुरु": 4081,
      "खेल": 4082,
      "ban": 4083,
      "religion": 4084,
      "force": 4085,
      "school": 4086,
      "ंब": 4087,
      "How": 4088,
      "आस": 4089,
      "stitution": 4090,
      "Not": 4091,
      "witness": 4092,
      "मांग": 4093,
      "वित्तीय": 4094,
      "total": 4095,
      "further": 4096,
      "दय": 4097,
      "आम": 4098,
      "ours": 4099,
      "दस्तावे": 4100,
      "चिकित्": 4101,
      "cir": 4102,
      "लक्ष्य": 4103,
      "राजनीति": 4104,
      "अनुमति": 4105,
      "27": 4106,
      "growth": 4107,
      "sever": 4108,
      "ज़िल": 4109,
      "research": 4110,
      "नियंत्रण": 4111,
      "Gandhi": 4112,
      "¥": 4113,
      "पुस्तक": 4114,
      "स्‍": 4115,
      "पहुँचा": 4116,
      "नागर": 4117,
      "ministr": 4118,
      "तृ": 4119,
      "रहता": 4120,
      "केन्द्र": 4121,
      "cit": 4122,
      "पुरुष": 4123,
      "anim": 4124,
      "ideo": 4125,
      "pati": 4126,
      "चले": 4127,
      "British": 4128,
      "ife": 4129,
      "बंद": 4130,
      "vo": 4131,
      "सर्व": 4132,
      "control": 4133,
      "cing": 4134,
      "received": 4135,
      "plant": 4136,
      "cience": 4137,
      "विकल्प": 4138,
      "यक़ीन": 4139,
      "ड़ों": 4140,
      "peace": 4141,
      "record": 4142,
      "मूर्": 4143,
      "कमी": 4144,
      "तकनी": 4145,
      "बाजार": 4146,
      "portun": 4147,
      "पहुंच": 4148,
      "सला": 4149,
      "Muhammad": 4150,
      "अप्र": 4151,
      "link": 4152,
      "ऊँ": 4153,
      "cret": 4154,
      "Ro": 4155,
      "sis": 4156,
      "Offic": 4157,
      "सेट": 4158,
      "सफलता": 4159,
      "image": 4160,
      "taking": 4161,
      "question": 4162,
      "atch": 4163,
      "Hindi": 4164,
      "शर्": 4165,
      "ख़ु": 4166,
      "ल्क": 4167,
      "संरचना": 4168,
      "किसान": 4169,
      "दियों": 4170,
      "जहन्न": 4171,
      "मंत्रालय": 4172,
      "Commit": 4173,
      "हिस्सा": 4174,
      "त्यु": 4175,
      "short": 4176,
      "docu": 4177,
      "nature": 4178,
      "ush": 4179,
      "अन्त": 4180,
      "technology": 4181,
      "atever": 4182,
      "became": 4183,
      "function": 4184,
      "तत्": 4185,
      "डाक": 4186,
      "सरकारी": 4187,
      "coming": 4188,
      "gain": 4189,
      "प्रयोजन": 4190,
      "र्स": 4191,
      "यात": 4192,
      "verse": 4193,
      "मनुष्य": 4194,
      "English": 4195,
      "strong": 4196,
      "since": 4197,
      "ources": 4198,
      "Ab": 4199,
      "बाहरी": 4200,
      "सहायक": 4201,
      "60": 4202,
      "रीब": 4203,
      "After": 4204,
      "मल": 4205,
      "Sha": 4206,
      "अनि": 4207,
      "itional": 4208,
      "Isra": 4209,
      "priv": 4210,
      "mother": 4211,
      "नाज़िल": 4212,
      "संविधान": 4213,
      "इत": 4214,
      "fig": 4215,
      "mater": 4216,
      "THE": 4217,
      "fill": 4218,
      "क्षक": 4219,
      "sat": 4220,
      "शाली": 4221,
      "Sy": 4222,
      "six": 4223,
      "मृत्यु": 4224,
      "cast": 4225,
      "ream": 4226,
      "leave": 4227,
      "प्रेर": 4228,
      "went": 4229,
      "crit": 4230,
      "Deve": 4231,
      "next": 4232,
      "opportun": 4233,
      "access": 4234,
      "जांच": 4235,
      "Messenger": 4236,
      "विंडो": 4237,
      "forms": 4238,
      "Most": 4239,
      "glo": 4240,
      "सत्ता": 4241,
      "खाता": 4242,
      "स्ती": 4243,
      "पहली": 4244,
      "IDENT": 4245,
      "प्रगति": 4246,
      "जीव": 4247,
      "पौ": 4248,
      "कृप": 4249,
      "पूंजी": 4250,
      "ened": 4251,
      "translation": 4252,
      "प्रबंधन": 4253,
      "tell": 4254,
      "भुग": 4255,
      "probably": 4256,
      "road": 4257,
      "tra": 4258,
      "टै": 4259,
      "ences": 4260,
      "step": 4261,
      "Per": 4262,
      "पहुँच": 4263,
      "bt": 4264,
      "पैग़": 4265,
      "optional": 4266,
      "lied": 4267,
      "works": 4268,
      "previous": 4269,
      "forth": 4270,
      "\"%": 4271,
      "required": 4272,
      "ute": 4273,
      "ently": 4274,
      "टल": 4275,
      "outh": 4276,
      "ीकरण": 4277,
      "ons": 4278,
      "पिछले": 4279,
      "pointed": 4280,
      "31": 4281,
      "knows": 4282,
      "कठि": 4283,
      "उपकरण": 4284,
      "reward": 4285,
      "wel": 4286,
      "Prime": 4287,
      "ama": 4288,
      "ज्ञात": 4289,
      "पर्य": 4290,
      "लेते": 4291,
      "earch": 4292,
      "PRESIDENT": 4293,
      "नागरिक": 4294,
      "सहित": 4295,
      "selected": 4296,
      "share": 4297,
      "brother": 4298,
      "मही": 4299,
      "recogn": 4300,
      "दिनों": 4301,
      "पुनर्": 4302,
      "कृपया": 4303,
      "कांग": 4304,
      "समर्थन": 4305,
      "ivil": 4306,
      "पूर्वक": 4307,
      "रहो": 4308,
      "tered": 4309,
      "यामत": 4310,
      "वैज्ञान": 4311,
      "सोच": 4312,
      "अलावा": 4313,
      "augh": 4314,
      "money": 4315,
      "foreign": 4316,
      "दक्षिण": 4317,
      "decl": 4318,
      "either": 4319,
      "निशान": 4320,
      "गैर": 4321,
      "descri": 4322,
      "ert": 4323,
      "सामग्री": 4324,
      "पड़ा": 4325,
      "fault": 4326,
      "task": 4327,
      "speak": 4328,
      "पसं": 4329,
      "application": 4330,
      "occasion": 4331,
      "सर्वर": 4332,
      "hands": 4333,
      "industry": 4334,
      "chan": 4335,
      "assess": 4336,
      "राजा": 4337,
      "लोड": 4338,
      "भुगतान": 4339,
      "ION": 4340,
      "artic": 4341,
      "पुनः": 4342,
      "सहे": 4343,
      "साधारण": 4344,
      "pers": 4345,
      "व्यवहार": 4346,
      "ज़रू": 4347,
      "स्रो": 4348,
      "रखता": 4349,
      "sib": 4350,
      "वैज्ञानिक": 4351,
      "ानि": 4352,
      "चरण": 4353,
      "च्छा": 4354,
      "Singh": 4355,
      "quality": 4356,
      "Hindu": 4357,
      "production": 4358,
      "म्मे": 4359,
      "several": 4360,
      "भीतर": 4361,
      "मात्रा": 4362,
      "Develop": 4363,
      "aid": 4364,
      "संशो": 4365,
      "बच": 4366,
      "ier": 4367,
      "2015": 4368,
      "वास्तविक": 4369,
      "इस्ते": 4370,
      "लिखा": 4371,
      "gar": 4372,
      "उत्पन्न": 4373,
      "टु": 4374,
      "अध्ययन": 4375,
      "ंकि": 4376,
      "क्रा": 4377,
      "AP": 4378,
      "वेद": 4379,
      "आदमी": 4380,
      "uary": 4381,
      "प्रशिक्षण": 4382,
      "Ministry": 4383,
      "चर्": 4384,
      "ival": 4385,
      "thod": 4386,
      "बाप": 4387,
      "graph": 4388,
      "working": 4389,
      "राज्यों": 4390,
      "लयों": 4391,
      "stat": 4392,
      "don": 4393,
      "aster": 4394,
      "ब्रा": 4395,
      "Prov": 4396,
      "Cont": 4397,
      "activities": 4398,
      "खाते": 4399,
      "hu": 4400,
      "certainly": 4401,
      "trust": 4402,
      "बाज़": 4403,
      "elect": 4404,
      "बोर्ड": 4405,
      "Parliament": 4406,
      "role": 4407,
      "यंत्र": 4408,
      "University": 4409,
      "वस": 4410,
      "authority": 4411,
      "young": 4412,
      "Serv": 4413,
      "ैंड": 4414,
      "General": 4415,
      "खरी": 4416,
      "ऊर्जा": 4417,
      "close": 4418,
      "उठ": 4419,
      "character": 4420,
      "क्षमा": 4421,
      "समुदा": 4422,
      "फाइल": 4423,
      "नियों": 4424,
      "पल": 4425,
      "सुनिश्चित": 4426,
      "contact": 4427,
      "आधु": 4428,
      "मजब": 4429,
      "क़यामत": 4430,
      "च्चा": 4431,
      "बच्चे": 4432,
      "mag": 4433,
      "प्रश्न": 4434,
      "अर": 4435,
      "anything": 4436,
      "visit": 4437,
      "example": 4438,
      "ran": 4439,
      "बान": 4440,
      "40": 4441,
      "साब": 4442,
      "paren": 4443,
      "agree": 4444,
      "छ्": 4445,
      "progress": 4446,
      "Moses": 4447,
      "मजबू": 4448,
      "80": 4449,
      "ighte": 4450,
      "Des": 4451,
      "urely": 4452,
      "idance": 4453,
      "fire": 4454,
      "जोर": 4455,
      "ension": 4456,
      "--": 4457,
      "ively": 4458,
      "sl": 4459,
      "जय": 4460,
      "टू": 4461,
      "रक्षा": 4462,
      "hon": 4463,
      "ises": 4464,
      "यदा": 4465,
      "oh": 4466,
      "िता": 4467,
      "सियों": 4468,
      "situ": 4469,
      "continu": 4470,
      "itself": 4471,
      "सुना": 4472,
      "सम्मान": 4473,
      "big": 4474,
      "igher": 4475,
      "तौ": 4476,
      "City": 4477,
      "विन": 4478,
      "ulture": 4479,
      "fut": 4480,
      "sal": 4481,
      "उम्": 4482,
      "वापस": 4483,
      "deal": 4484,
      "उनपर": 4485,
      "paid": 4486,
      "kill": 4487,
      "Cong": 4488,
      "जैसी": 4489,
      "Here": 4490,
      "सार्वज": 4491,
      "उपबंध": 4492,
      "हैः": 4493,
      "यद": 4494,
      "udd": 4495,
      "बर्": 4496,
      "फ़िर": 4497,
      "स्थायी": 4498,
      "खुद": 4499,
      "भौ": 4500,
      "प्रकृति": 4501,
      "ficult": 4502,
      "वृत्ति": 4503,
      "साफ": 4504,
      "fast": 4505,
      "मरा": 4506,
      "necessary": 4507,
      "इतना": 4508,
      "तीस": 4509,
      "परिक": 4510,
      "सार्वजनिक": 4511,
      "ctor": 4512,
      "युवा": 4513,
      "आत्म": 4514,
      "ील": 4515,
      "city": 4516,
      "कमा": 4517,
      "भ्र": 4518,
      "acc": 4519,
      "जाएँगे": 4520,
      "oud": 4521,
      "दर्भ": 4522,
      "poet": 4523,
      "remo": 4524,
      "medi": 4525,
      "इस्तेमाल": 4526,
      "समझा": 4527,
      "ँच": 4528,
      "हस्ता": 4529,
      "ण्श्": 4530,
      "By": 4531,
      "ऊण्श्": 4532,
      "छ्ष्": 4533,
      "ऊण्श्छ्ष्": 4534,
      "experi": 4535,
      "represent": 4536,
      "निकट": 4537,
      "history": 4538,
      "material": 4539,
      "akh": 4540,
      "पूर्ति": 4541,
      "farm": 4542,
      "sequ": 4543,
      "न्व": 4544,
      "agric": 4545,
      "काली": 4546,
      "charge": 4547,
      "Pol": 4548,
      "ross": 4549,
      "soon": 4550,
      "Direct": 4551,
      "related": 4552,
      "NA": 4553,
      "धिकार": 4554,
      "difficult": 4555,
      "provisions": 4556,
      "शुभ": 4557,
      "property": 4558,
      "चुनें": 4559,
      "2018": 4560,
      "established": 4561,
      "save": 4562,
      "financial": 4563,
      "चुना": 4564,
      "स्कार": 4565,
      "विष्य": 4566,
      "ST": 4567,
      "स्टे": 4568,
      "mic": 4569,
      "Mar": 4570,
      "mber": 4571,
      "बातें": 4572,
      "poses": 4573,
      "Now": 4574,
      "भागी": 4575,
      "une": 4576,
      "उद्य": 4577,
      "गठ": 4578,
      "Em": 4579,
      "umb": 4580,
      "Fin": 4581,
      "bsite": 4582,
      "भविष्य": 4583,
      "thus": 4584,
      "क्रि": 4585,
      "पूरे": 4586,
      "यें": 4587,
      "purpose": 4588,
      "केंद": 4589,
      "sin": 4590,
      "Pradesh": 4591,
      "Open": 4592,
      "देखने": 4593,
      "Court": 4594,
      "हरे": 4595,
      "grant": 4596,
      "security": 4597,
      "मामलों": 4598,
      "therein": 4599,
      "enjo": 4600,
      "isl": 4601,
      "ending": 4602,
      "hath": 4603,
      "High": 4604,
      "बिल": 4605,
      "draw": 4606,
      "nov": 4607,
      "जरूरत": 4608,
      "Development": 4609,
      "scheme": 4610,
      "र्जी": 4611,
      "ँह": 4612,
      "idd": 4613,
      "changes": 4614,
      "दशा": 4615,
      "meeting": 4616,
      "ude": 4617,
      "aught": 4618,
      "दौ": 4619,
      "मय": 4620,
      "Cal": 4621,
      "soul": 4622,
      "संगठन": 4623,
      "म्ब": 4624,
      "्रेस": 4625,
      "प्रिय": 4626,
      "compan": 4627,
      "पात": 4628,
      "Cl": 4629,
      "ped": 4630,
      "ौती": 4631,
      "जिनमें": 4632,
      "urope": 4633,
      "मालूम": 4634,
      "files": 4635,
      "doing": 4636,
      "bur": 4637,
      "अपरा": 4638,
      "ध्व": 4639,
      "जवाब": 4640,
      "phet": 4641,
      "behind": 4642,
      "acity": 4643,
      "ग्रामी": 4644,
      "लौट": 4645,
      "ilar": 4646,
      "अत्यन्त": 4647,
      "उल्लेख": 4648,
      "rain": 4649,
      "2016": 4650,
      "started": 4651,
      "मात्र": 4652,
      "Know": 4653,
      "वाही": 4654,
      "बाव": 4655,
      "बातों": 4656,
      "वेबसाइट": 4657,
      "Sat": 4658,
      "mot": 4659,
      "entire": 4660,
      "च्छे": 4661,
      "ेंट": 4662,
      "ग्रामीण": 4663,
      "written": 4664,
      "court": 4665,
      "प्रभु": 4666,
      "pread": 4667,
      "पहा": 4668,
      "कहो": 4669,
      "2000": 4670,
      "Us": 4671,
      "सक्षम": 4672,
      "uni": 4673,
      "कोशिश": 4674,
      "35": 4675,
      "संके": 4676,
      "Could": 4677,
      "दिखाएँ": 4678,
      "gri": 4679,
      "चारी": 4680,
      "aud": 4681,
      "ek": 4682,
      "29": 4683,
      "mir": 4684,
      "asked": 4685,
      "संसद": 4686,
      "mercy": 4687,
      "def": 4688,
      "forward": 4689,
      "शख्": 4690,
      "्यूटर": 4691,
      "पश्चात": 4692,
      "यक़ीनन": 4693,
      "specified": 4694,
      "खिला": 4695,
      "सदस्यों": 4696,
      "vent": 4697,
      "future": 4698,
      "णि": 4699,
      "logical": 4700,
      "referred": 4701,
      "रिपोर्ट": 4702,
      "त्रि": 4703,
      "Thus": 4704,
      "personal": 4705,
      "yment": 4706,
      "सवा": 4707,
      "लिंग": 4708,
      "distr": 4709,
      "2013": 4710,
      "demand": 4711,
      "constru": 4712,
      "male": 4713,
      "rich": 4714,
      "लती": 4715,
      "soever": 4716,
      "fight": 4717,
      "मुँह": 4718,
      "बंगा": 4719,
      "Congress": 4720,
      "expect": 4721,
      "imum": 4722,
      "greater": 4723,
      "बने": 4724,
      "नदी": 4725,
      "भारी": 4726,
      "List": 4727,
      "stitute": 4728,
      "करोड़": 4729,
      "ल्यू": 4730,
      "कने": 4731,
      "अर्था": 4732,
      "volution": 4733,
      "treat": 4734,
      "implement": 4735,
      "Europe": 4736,
      "मुक्त": 4737,
      "शख्स": 4738,
      "ners": 4739,
      "once": 4740,
      "कानून": 4741,
      "living": 4742,
      "पैग़म्बर": 4743,
      "aware": 4744,
      "revealed": 4745,
      "community": 4746,
      "वर्ती": 4747,
      "ighteous": 4748,
      "म्भ": 4749,
      "whatever": 4750,
      "समार": 4751,
      "aves": 4752,
      "higher": 4753,
      "House": 4754,
      "उचित": 4755,
      "Li": 4756,
      "आँ": 4757,
      "मों": 4758,
      "seek": 4759,
      "institutions": 4760,
      "parts": 4761,
      "रोप": 4762,
      "लिस": 4763,
      "ordin": 4764,
      "aries": 4765,
      "istan": 4766,
      "नक": 4767,
      "अपेक्षा": 4768,
      "RRB": 4769,
      "क्टर": 4770,
      "सात": 4771,
      "हक": 4772,
      "lled": 4773,
      "केंद्रीय": 4774,
      "पिता": 4775,
      "प्रोत्": 4776,
      "Chr": 4777,
      "vision": 4778,
      "engers": 4779,
      "शास्त्र": 4780,
      "formed": 4781,
      "व्यापक": 4782,
      "आधुनिक": 4783,
      "ilt": 4784,
      "एशिया": 4785,
      "ख़बर": 4786,
      "अध्यक्ष": 4787,
      "guidance": 4788,
      "नल": 4789,
      "students": 4790,
      "मुद्रा": 4791,
      "iction": 4792,
      "डो": 4793,
      "वर्क": 4794,
      "guide": 4795,
      "initi": 4796,
      "गं": 4797,
      "ficient": 4798,
      "modern": 4799,
      "mach": 4800,
      "ease": 4801,
      "standing": 4802,
      "dro": 4803,
      "फु": 4804,
      "दल": 4805,
      "Rep": 4806,
      "प्रस": 4807,
      "औद्योग": 4808,
      "एच": 4809,
      "¤¸": 4810,
      "uses": 4811,
      "abha": 4812,
      "CO": 4813,
      "separ": 4814,
      "defin": 4815,
      "Department": 4816,
      "Let": 4817,
      "आयु": 4818,
      "mitted": 4819,
      "deli": 4820,
      "hood": 4821,
      "Union": 4822,
      "Er": 4823,
      "ईसा": 4824,
      "लिका": 4825,
      "hor": 4826,
      "संदर्भ": 4827,
      "squ": 4828,
      "rele": 4829,
      "according": 4830,
      "ोगे": 4831,
      "पुकार": 4832,
      "INDI": 4833,
      "पुरस्कार": 4834,
      "परीक्षा": 4835,
      "दिखाई": 4836,
      "posit": 4837,
      "months": 4838,
      "righteous": 4839,
      "ूँ": 4840,
      "website": 4841,
      "कामना": 4842,
      "relation": 4843,
      "देती": 4844,
      "इनमें": 4845,
      "Qur": 4846,
      "¤¿": 4847,
      "irth": 4848,
      "Muslims": 4849,
      "mocr": 4850,
      "release": 4851,
      "मुझ": 4852,
      "round": 4853,
      "told": 4854,
      "appointed": 4855,
      "Surely": 4856,
      "व्यक्त": 4857,
      "महत्": 4858,
      "condu": 4859,
      "निजी": 4860,
      "ख्त": 4861,
      "Verily": 4862,
      "१९": 4863,
      "ठहरा": 4864,
      "itation": 4865,
      "sof": 4866,
      "lier": 4867,
      "बदले": 4868,
      "vari": 4869,
      "ग्रहण": 4870,
      "building": 4871,
      "बयान": 4872,
      "सृ": 4873,
      "host": 4874,
      "tray": 4875,
      "घोष": 4876,
      "प्राथ": 4877,
      "story": 4878,
      "ोग्रा": 4879,
      "prove": 4880,
      "till": 4881,
      "bel": 4882,
      "turned": 4883,
      "शायद": 4884,
      "past": 4885,
      "goods": 4886,
      "Israel": 4887,
      "संस्कृति": 4888,
      "वजह": 4889,
      "result": 4890,
      "ountain": 4891,
      "Ass": 4892,
      "रोज": 4893,
      "नाटक": 4894,
      "बाल": 4895,
      "check": 4896,
      "Committee": 4897,
      "wealth": 4898,
      "प्रदर्श": 4899,
      "verily": 4900,
      "loss": 4901,
      "कोण": 4902,
      "निर्भर": 4903,
      "क्रमण": 4904,
      "environment": 4905,
      "#-": 4906,
      "grad": 4907,
      "valid": 4908,
      "प्राथमिक": 4909,
      "संगीत": 4910,
      "केन्द": 4911,
      "ouch": 4912,
      "remember": 4913,
      "computer": 4914,
      "गाह": 4915,
      "पेश": 4916,
      "atives": 4917,
      "eyes": 4918,
      "नू": 4919,
      "लाइ": 4920,
      "Sup": 4921,
      "needs": 4922,
      "बं": 4923,
      "ina": 4924,
      "nder": 4925,
      "मीटर": 4926,
      "कांग्रेस": 4927,
      "सदी": 4928,
      "cially": 4929,
      "सर्वो": 4930,
      "तय": 4931,
      "योगदान": 4932,
      "forts": 4933,
      "अधिका": 4934,
      "sen": 4935,
      "acqu": 4936,
      "डिस्क": 4937,
      "01": 4938,
      "band": 4939,
      "पाए": 4940,
      "integr": 4941,
      "वधान": 4942,
      "पूछ": 4943,
      "ऑफ": 4944,
      "aut": 4945,
      "office": 4946,
      "reme": 4947,
      "नगर": 4948,
      "इस्लाम": 4949,
      "Tech": 4950,
      "निर्यात": 4951,
      "रखे": 4952,
      "स्वतंत्रता": 4953,
      "शता": 4954,
      "fru": 4955,
      "destro": 4956,
      "ills": 4957,
      "स्य": 4958,
      "AS": 4959,
      "Cor": 4960,
      "method": 4961,
      "cious": 4962,
      "Mad": 4963,
      "Govern": 4964,
      "reedom": 4965,
      "परिष": 4966,
      "चयनित": 4967,
      "LRB": 4968,
      "invol": 4969,
      "आवेदन": 4970,
      "वित्त": 4971,
      "ires": 4972,
      "century": 4973,
      "TO": 4974,
      "शांति": 4975,
      "नै": 4976,
      "किंतु": 4977,
      "व्यक्तियों": 4978,
      "‍य": 4979,
      "प्रस्ताव": 4980,
      "rish": 4981,
      "server": 4982,
      "ategory": 4983,
      "रखना": 4984,
      "Mr": 4985,
      "¤": 4986,
      "design": 4987,
      "्म": 4988,
      "gives": 4989,
      "ieve": 4990,
      "why": 4991,
      "चाहिये": 4992,
      "issue": 4993,
      "blood": 4994,
      "माता": 4995,
      "Cre": 4996,
      "allowed": 4997,
      "poor": 4998,
      "prep": 4999,
      "नमा": 5000,
      "श्त": 5001,
      "कीय": 5002,
      "mention": 5003,
      "sun": 5004,
      "Set": 5005,
      "saying": 5006,
      "मंडल": 5007,
      "particip": 5008,
      "problem": 5009,
      "enc": 5010,
      "लब": 5011,
      "हृ": 5012,
      "idered": 5013,
      "आतंक": 5014,
      "औद्योगिक": 5015,
      "रहेंगे": 5016,
      "अदा": 5017,
      "books": 5018,
      "publ": 5019,
      "आशा": 5020,
      "asse": 5021,
      "क्का": 5022,
      "प्रकट": 5023,
      "आयतों": 5024,
      "किंग": 5025,
      "रखो": 5026,
      "रल": 5027,
      "ultural": 5028,
      "लियों": 5029,
      "party": 5030,
      "however": 5031,
      "Bengal": 5032,
      "सुरक्षित": 5033,
      "sor": 5034,
      "हन": 5035,
      "aste": 5036,
      "ंख": 5037,
      "ita": 5038,
      "Select": 5039,
      "write": 5040,
      "दिवस": 5041,
      "basis": 5042,
      "ंज": 5043,
      "रहम": 5044,
      "लागत": 5045,
      "trade": 5046,
      "बनी": 5047,
      "ret": 5048,
      "deep": 5049,
      "ित्व": 5050,
      "बिल्": 5051,
      "terror": 5052,
      "दीन": 5053,
      "tree": 5054,
      "fal": 5055,
      "Are": 5056,
      "युक्ति": 5057,
      "considered": 5058,
      "लर": 5059,
      "administr": 5060,
      "चर्चा": 5061,
      "sense": 5062,
      "energy": 5063,
      "persons": 5064,
      "!\"": 5065,
      "Where": 5066,
      "ट्स": 5067,
      "hab": 5068,
      "vert": 5069,
      "problems": 5070,
      "समारोह": 5071,
      "कार्यालय": 5072,
      "Council": 5073,
      "ane": 5074,
      "spread": 5075,
      "क्रो": 5076,
      "ken": 5077,
      "UN": 5078,
      "स्रोत": 5079,
      "kar": 5080,
      "purposes": 5081,
      "rup": 5082,
      "begin": 5083,
      "rect": 5084,
      "कत": 5085,
      "Fire": 5086,
      "rad": 5087,
      "wide": 5088,
      "Mon": 5089,
      "मुद्": 5090,
      "supp": 5091,
      "viol": 5092,
      "jour": 5093,
      "movement": 5094,
      "terms": 5095,
      "pleas": 5096,
      "आवा": 5097,
      "scient": 5098,
      "¤¨": 5099,
      "क़र": 5100,
      "रकम": 5101,
      "अवश्य": 5102,
      "पांच": 5103,
      "html": 5104,
      "single": 5105,
      "ंचे": 5106,
      "stri": 5107,
      "Public": 5108,
      "चयन": 5109,
      "हद": 5110,
      "कारों": 5111,
      "दूसरा": 5112,
      "कार्ड": 5113,
      "फार": 5114,
      "manner": 5115,
      "proved": 5116,
      "कम्प": 5117,
      "रक्त": 5118,
      "discus": 5119,
      "प्रभावित": 5120,
      "version": 5121,
      "phys": 5122,
      "ंकन": 5123,
      "यल": 5124,
      "ication": 5125,
      "शुरु": 5126,
      "अध्या": 5127,
      "ब्या": 5128,
      "approach": 5129,
      "मना": 5130,
      "display": 5131,
      "ga": 5132,
      "आयोजित": 5133,
      "natural": 5134,
      "sac": 5135,
      "itude": 5136,
      "हट": 5137,
      "often": 5138,
      "ificate": 5139,
      "प्रकाशित": 5140,
      "princi": 5141,
      "ढंग": 5142,
      "reat": 5143,
      "room": 5144,
      "ताल": 5145,
      "08": 5146,
      "none": 5147,
      "संपत्ति": 5148,
      "Constitution": 5149,
      "passed": 5150,
      "international": 5151,
      "मुस्": 5152,
      "However": 5153,
      "assist": 5154,
      "religious": 5155,
      "citiz": 5156,
      "चालन": 5157,
      "cul": 5158,
      "user": 5159,
      "ृह": 5160,
      "Information": 5161,
      "नव": 5162,
      "इयों": 5163,
      "size": 5164,
      ".)": 5165,
      "चो": 5166,
      "शताब्": 5167,
      "त्री": 5168,
      "डेटा": 5169,
      "शिका": 5170,
      "village": 5171,
      "शुल्क": 5172,
      "छू": 5173,
      "Arab": 5174,
      "समुदाय": 5175,
      "ero": 5176,
      "possess": 5177,
      "imp": 5178,
      "डाला": 5179,
      "ंगी": 5180,
      "network": 5181,
      "lines": 5182,
      "फ़ॉ": 5183,
      "विशा": 5184,
      "general": 5185,
      "ूप": 5186,
      "pression": 5187,
      "खोल": 5188,
      "ड़ाई": 5189,
      "fix": 5190,
      "मेलन": 5191,
      "ister": 5192,
      "जिला": 5193,
      "पश्चिम": 5194,
      "ured": 5195,
      "विभा": 5196,
      "US": 5197,
      "सॉ": 5198,
      "प्राय": 5199,
      "रुद्ध": 5200,
      "राजनीतिक": 5201,
      "मशी": 5202,
      "दोलन": 5203,
      "front": 5204,
      "America": 5205,
      "File": 5206,
      "तरण": 5207,
      "संरक्षण": 5208,
      "ouses": 5209,
      "'.": 5210,
      "Ed": 5211,
      "Prophet": 5212,
      "sound": 5213,
      "मारी": 5214,
      "ीप": 5215,
      "कूट": 5216,
      "carry": 5217,
      "May": 5218,
      "ंग्": 5219,
      "निर्धारिती": 5220,
      "doers": 5221,
      "रेल": 5222,
      "messages": 5223,
      "बंगाल": 5224,
      "counts": 5225,
      "पर्याप्त": 5226,
      "क्शन": 5227,
      "विद्या": 5228,
      "assessee": 5229,
      "फ़ी": 5230,
      "ging": 5231,
      "दंड": 5232,
      "कदम": 5233,
      "management": 5234,
      "redu": 5235,
      "box": 5236,
      "मुसलमानों": 5237,
      "(%": 5238,
      "पाने": 5239,
      "संस्करण": 5240,
      "makes": 5241,
      "brah": 5242,
      "बुद्धि": 5243,
      "issued": 5244,
      "payment": 5245,
      "ousand": 5246,
      "बोल": 5247,
      "प्रशा": 5248,
      "condition": 5249,
      "sec": 5250,
      "सीधे": 5251,
      "अवस्था": 5252,
      "देंगे": 5253,
      "पदार्थ": 5254,
      "civil": 5255,
      "INDIA": 5256,
      "CH": 5257,
      "लाते": 5258,
      "वें": 5259,
      "भंड": 5260,
      "alone": 5261,
      "assessment": 5262,
      "चुकी": 5263,
      "समझौ": 5264,
      "hara": 5265,
      "break": 5266,
      "छोटी": 5267,
      "यद्य": 5268,
      "benefit": 5269,
      "ub": 5270,
      "सलाह": 5271,
      "space": 5272,
      "फ्ट": 5273,
      "freedom": 5274,
      "san": 5275,
      "बैठे": 5276,
      "शख़": 5277,
      "हासिल": 5278,
      "ior": 5279,
      "टिक": 5280,
      "occur": 5281,
      "maintain": 5282,
      "आपकी": 5283,
      "योक्ता": 5284,
      "guard": 5285,
      "केन्द्रीय": 5286,
      "early": 5287,
      "दायित्व": 5288,
      "increase": 5289,
      "बॉ": 5290,
      "बाग़": 5291,
      "सेवाओं": 5292,
      "आस्ति": 5293,
      "आत्मा": 5294,
      "ug": 5295,
      "मुखर्जी": 5296,
      "विविध": 5297,
      "ule": 5298,
      "झी": 5299,
      "यथा": 5300,
      "Chand": 5301,
      "यद्यपि": 5302,
      "गुनाह": 5303,
      "region": 5304,
      "लघु": 5305,
      "everything": 5306,
      "mukherjee": 5307,
      "pranab": 5308,
      "हार्": 5309,
      "चिकित्सा": 5310,
      "इका": 5311,
      "ani": 5312,
      "निम्नलिखित": 5313,
      "sil": 5314,
      "हिन्दी": 5315,
      "source": 5316,
      "ड़क": 5317,
      "ज़रूर": 5318,
      "conditions": 5319,
      "सिद्धा": 5320,
      "istic": 5321,
      "शैली": 5322,
      "pranabmukherjee": 5323,
      "gard": 5324,
      "प्रमाणपत्र": 5325,
      "ports": 5326,
      "वान्": 5327,
      "profess": 5328,
      "प्रण": 5329,
      "imes": 5330,
      "cert": 5331,
      "iii": 5332,
      "झूठ": 5333,
      "MS": 5334,
      "really": 5335,
      "stant": 5336,
      "उल": 5337,
      "Mem": 5338,
      "चक": 5339,
      "lock": 5340,
      "प्रभावी": 5341,
      "डिया": 5342,
      "phas": 5343,
      "efforts": 5344,
      "intel": 5345,
      "दस": 5346,
      "नमाज़": 5347,
      "Qu": 5348,
      "Kar": 5349,
      "पंजी": 5350,
      "र्ण": 5351,
      "ान्": 5352,
      "Such": 5353,
      "seven": 5354,
      "हीन": 5355,
      "developed": 5356,
      "credit": 5357,
      "उट": 5358,
      "हवा": 5359,
      "शेयर": 5360,
      "ler": 5361,
      "least": 5362,
      "neither": 5363,
      "भूति": 5364,
      "केट": 5365,
      "कहना": 5366,
      "प्रत्यक्ष": 5367,
      "ँकि": 5368,
      "तरीके": 5369,
      "million": 5370,
      "घ्र": 5371,
      "तेरे": 5372,
      "शब्दों": 5373,
      "धाई": 5374,
      "matters": 5375,
      "सकें": 5376,
      "आती": 5377,
      "river": 5378,
      "usu": 5379,
      "नेता": 5380,
      "global": 5381,
      "culture": 5382,
      "wal": 5383,
      "ison": 5384,
      "मियों": 5385,
      "रिए": 5386,
      "reject": 5387,
      "विशाल": 5388,
      "respond": 5389,
      "वत्ता": 5390,
      "हानि": 5391,
      "फ़र": 5392,
      "वेयर": 5393,
      "express": 5394,
      "शाह": 5395,
      "duty": 5396,
      "idden": 5397,
      "आता": 5398,
      "आयोग": 5399,
      "स्कूल": 5400,
      "creation": 5401,
      "cove": 5402,
      "संसाधन": 5403,
      "Bhar": 5404,
      "हीम": 5405,
      "पद्ध": 5406,
      "जहन्नु": 5407,
      "पादन": 5408,
      "दृढ़": 5409,
      "Whether": 5410,
      "determin": 5411,
      "ज़ु": 5412,
      "प्ता": 5413,
      "tings": 5414,
      "video": 5415,
      "आयात": 5416,
      "हिक": 5417,
      "पृथ": 5418,
      "thousand": 5419,
      "सूचित": 5420,
      "transfer": 5421,
      "भेद": 5422,
      "ज़ालिम": 5423,
      "spo": 5424,
      "stay": 5425,
      "सों": 5426,
      "Even": 5427,
      "बधाई": 5428,
      "निदेश": 5429,
      "mankind": 5430,
      "External": 5431,
      "],": 5432,
      "birth": 5433,
      "ze": 5434,
      "vere": 5435,
      "आख़िरत": 5436,
      "विरुद्ध": 5437,
      "capacity": 5438,
      "हल": 5439,
      "अत्या": 5440,
      "atory": 5441,
      "मेहर": 5442,
      "LE": 5443,
      "deny": 5444,
      "गुणवत्ता": 5445,
      "सारी": 5446,
      "म्र": 5447,
      "chall": 5448,
      "industrial": 5449,
      "सिर": 5450,
      "प्राकृतिक": 5451,
      "वार्य": 5452,
      "rodu": 5453,
      "193": 5454,
      "event": 5455,
      "Tri": 5456,
      "उपस्थित": 5457,
      "निर्मित": 5458,
      "शीघ्र": 5459,
      "dead": 5460,
      "followed": 5461,
      "training": 5462,
      "eat": 5463,
      "भीर": 5464,
      "महारा": 5465,
      "doubt": 5466,
      "सच": 5467,
      "ties": 5468,
      "षक": 5469,
      "धनों": 5470,
      "woman": 5471,
      "बैठक": 5472,
      "नेटवर्क": 5473,
      "अनिवार्य": 5474,
      "ara": 5475,
      "पान": 5476,
      "town": 5477,
      "president": 5478,
      "भंडार": 5479,
      "dy": 5480,
      "astru": 5481,
      "रखी": 5482,
      "ilo": 5483,
      "पंचा": 5484,
      "gest": 5485,
      "चढ़": 5486,
      "Error": 5487,
      "justice": 5488,
      "पकड़": 5489,
      "frastru": 5490,
      "अता": 5491,
      "मिली": 5492,
      "wife": 5493,
      "independ": 5494,
      "आते": 5495,
      "इला": 5496,
      "सीमित": 5497,
      "धार्": 5498,
      "स्म": 5499,
      "प्राचीन": 5500,
      "छात्र": 5501,
      "सम्बन्ध": 5502,
      "hope": 5503,
      "बौ": 5504,
      "च्छेद": 5505,
      "mun": 5506,
      "प्राधि": 5507,
      "attle": 5508,
      "पसंद": 5509,
      "फ्र": 5510,
      "uk": 5511,
      "टाइ": 5512,
      "attach": 5513,
      "प्रोग्रा": 5514,
      "2017": 5515,
      "संशोधन": 5516,
      "sit": 5517,
      "लगी": 5518,
      "lat": 5519,
      "छोड़कर": 5520,
      "उम्मी": 5521,
      "wers": 5522,
      "angels": 5523,
      "जनक": 5524,
      "temple": 5525,
      "इच्छा": 5526,
      "ecut": 5527,
      "भोजन": 5528,
      "Cannot": 5529,
      "समृ": 5530,
      "ज़ार": 5531,
      "rights": 5532,
      "writing": 5533,
      "प्रसन्न": 5534,
      "जली": 5535,
      "sea": 5536,
      "Jan": 5537,
      "प्रदर्शन": 5538,
      "श्रम": 5539,
      "opens": 5540,
      "People": 5541,
      "बन्दों": 5542,
      "swe": 5543,
      "वीडियो": 5544,
      "saw": 5545,
      "दूरी": 5546,
      "धार्मिक": 5547,
      "बताया": 5548,
      "www": 5549,
      "Have": 5550,
      "color": 5551,
      "कंप्यूटर": 5552,
      "dire": 5553,
      "लेना": 5554,
      "धीरे": 5555,
      "lete": 5556,
      "अगले": 5557,
      "ग़र": 5558,
      "वार्ष": 5559,
      "bless": 5560,
      "official": 5561,
      "जल्दी": 5562,
      "itable": 5563,
      "trave": 5564,
      "क्रे": 5565,
      "दर्शा": 5566,
      "हस्ताक्षर": 5567,
      "माइ": 5568,
      "फेर": 5569,
      "va": 5570,
      "Part": 5571,
      "दोष": 5572,
      "yle": 5573,
      "अक्": 5574,
      "ols": 5575,
      "वर्णन": 5576,
      "ni": 5577,
      "काट": 5578,
      "खर": 5579,
      "outside": 5580,
      "emed": 5581,
      "lling": 5582,
      "literature": 5583,
      "पें": 5584,
      "ग्राम": 5585,
      "DE": 5586,
      "Te": 5587,
      "तुलना": 5588,
      "mountain": 5589,
      "ung": 5590,
      "Dev": 5591,
      "wait": 5592,
      "डरा": 5593,
      "संचार": 5594,
      "democr": 5595,
      "population": 5596,
      "घोषणा": 5597,
      "rs": 5598,
      "ggest": 5599,
      "achieve": 5600,
      "सम्मेलन": 5601,
      "bound": 5602,
      "खाने": 5603,
      "मर्श": 5604,
      "थर": 5605,
      "belief": 5606,
      "02": 5607,
      "गतिविध": 5608,
      "asing": 5609,
      "promise": 5610,
      "पाक": 5611,
      "disease": 5612,
      "चारियों": 5613,
      "board": 5614,
      "harm": 5615,
      "खड़े": 5616,
      "ब्याज": 5617,
      "ईश्वर": 5618,
      "pes": 5619,
      "ram": 5620,
      "....": 5621,
      "कालीन": 5622,
      "issues": 5623,
      "placed": 5624,
      "हिदाय": 5625,
      "pra": 5626,
      "auto": 5627,
      "¤²": 5628,
      "व्यय": 5629,
      "चिह्": 5630,
      "अधिकारियों": 5631,
      "ूं": 5632,
      "द्वार": 5633,
      "lives": 5634,
      "nel": 5635,
      "कुंजी": 5636,
      "समाधान": 5637,
      "sust": 5638,
      "पंक्ति": 5639,
      "पहुंचा": 5640,
      "drink": 5641,
      "ets": 5642,
      "प्ले": 5643,
      "रखें": 5644,
      "vey": 5645,
      "स्वामी": 5646,
      "अधिकांश": 5647,
      "अपील": 5648,
      "गर्इ": 5649,
      "serve": 5650,
      "proceed": 5651,
      "आउट": 5652,
      "पट्टी": 5653,
      "पॉ": 5654,
      "सख्त": 5655,
      ".,": 5656,
      "बनाना": 5657,
      "page": 5658,
      "िश": 5659,
      "नियमित": 5660,
      "पश्चात्": 5661,
      "Div": 5662,
      "संकल्प": 5663,
      "लम": 5664,
      "arm": 5665,
      "पेट": 5666,
      "rule": 5667,
      "sw": 5668,
      "study": 5669,
      "मरी": 5670,
      "आपका": 5671,
      "cases": 5672,
      "संस्थानों": 5673,
      "document": 5674,
      "ening": 5675,
      "स्टर": 5676,
      "न्ट": 5677,
      "सम्मि": 5678,
      "Trans": 5679,
      "programme": 5680,
      "मूर्ति": 5681,
      "तुमपर": 5682,
      "ote": 5683,
      "usion": 5684,
      "kept": 5685,
      "2007": 5686,
      "जोड़ें": 5687,
      "raised": 5688,
      "covered": 5689,
      "install": 5690,
      "परं": 5691,
      "disbelieve": 5692,
      "fare": 5693,
      "active": 5694,
      "Apr": 5695,
      "Mal": 5696,
      "tempt": 5697,
      "ns": 5698,
      "डु": 5699,
      "सिस्ट": 5700,
      "उन्हीं": 5701,
      "iddle": 5702,
      "हिदायत": 5703,
      "third": 5704,
      "connect": 5705,
      "judge": 5706,
      "cum": 5707,
      "ंबर": 5708,
      "संभावना": 5709,
      "खर्च": 5710,
      "मिलता": 5711,
      "similar": 5712,
      "Sw": 5713,
      "chol": 5714,
      "lost": 5715,
      "tware": 5716,
      "resources": 5717,
      "olution": 5718,
      "price": 5719,
      "Afr": 5720,
      "वैश्": 5721,
      "ators": 5722,
      "ansk": 5723,
      "संस्कृत": 5724,
      "RA": 5725,
      "innov": 5726,
      "कार्यों": 5727,
      "कविता": 5728,
      "संसार": 5729,
      "include": 5730,
      "कृष्ण": 5731,
      "हालत": 5732,
      "Sur": 5733,
      "माने": 5734,
      "super": 5735,
      "immedi": 5736,
      "ल्ड": 5737,
      "Mukherjee": 5738,
      "09": 5739,
      "request": 5740,
      "ैल": 5741,
      "almost": 5742,
      "चालित": 5743,
      "तल": 5744,
      "द्वीप": 5745,
      "सच्चे": 5746,
      "uration": 5747,
      "spect": 5748,
      "तित": 5749,
      "तुममें": 5750,
      "मीर": 5751,
      "rap": 5752,
      "इबरा": 5753,
      "2012": 5754,
      "1961": 5755,
      "टिश": 5756,
      "receive": 5757,
      "Bha": 5758,
      "स्थल": 5759,
      "Sam": 5760,
      "petition": 5761,
      "Project": 5762,
      "frastructure": 5763,
      "न्याया": 5764,
      "Section": 5765,
      "earlier": 5766,
      "शुद्ध": 5767,
      "continue": 5768,
      "revel": 5769,
      "leader": 5770,
      "2019": 5771,
      "sibility": 5772,
      "शाखा": 5773,
      "investment": 5774,
      "करनी": 5775,
      "परंपरा": 5776,
      "व्र": 5777,
      "bear": 5778,
      "otion": 5779,
      "मजबूत": 5780,
      "फॉ": 5781,
      "Why": 5782,
      "West": 5783,
      "suggest": 5784,
      "legal": 5785,
      "undred": 5786,
      "estern": 5787,
      "omb": 5788,
      "आकर्": 5789,
      "उत": 5790,
      "erve": 5791,
      "atures": 5792,
      "शैतान": 5793,
      "इबराहीम": 5794,
      "प्रणब": 5795,
      "says": 5796,
      "फरमा": 5797,
      "Merc": 5798,
      "निर्वा": 5799,
      "torment": 5800,
      "April": 5801,
      "ufact": 5802,
      "जरूरी": 5803,
      "इंडिया": 5804,
      "श्रेणीः": 5805,
      "तारीख": 5806,
      "From": 5807,
      "RE": 5808,
      "emer": 5809,
      "मुस्लिम": 5810,
      "ican": 5811,
      "Pur": 5812,
      "ग़ा": 5813,
      "तथ": 5814,
      "reli": 5815,
      "न्नत": 5816,
      "2006": 5817,
      "structure": 5818,
      "Mahar": 5819,
      "रिश्ते": 5820,
      "देखो": 5821,
      "signific": 5822,
      "lakh": 5823,
      "खाना": 5824,
      "experience": 5825,
      "cup": 5826,
      "इज": 5827,
      "फोन": 5828,
      "anskrit": 5829,
      "affect": 5830,
      "recent": 5831,
      "Merciful": 5832,
      "बिल्कुल": 5833,
      "ग़रज़": 5834,
      "Sabha": 5835,
      "परिस्थिति": 5836,
      "समझते": 5837,
      "science": 5838,
      "ission": 5839,
      "Institute": 5840,
      "across": 5841,
      "provision": 5842,
      "products": 5843,
      "Pal": 5844,
      "अना": 5845,
      "संपाद": 5846,
      "Med": 5847,
      "ring": 5848,
      "ैव": 5849,
      "strength": 5850,
      "शक़": 5851,
      "eness": 5852,
      "endar": 5853,
      "laun": 5854,
      "hear": 5855,
      "conscious": 5856,
      "enough": 5857,
      "्यु": 5858,
      "दिलों": 5859,
      "रहती": 5860,
      "news": 5861,
      "partner": 5862,
      "guided": 5863,
      "cript": 5864,
      "United": 5865,
      "regular": 5866,
      "अपराध": 5867,
      "स्क्र": 5868,
      "पुलिस": 5869,
      "्राष्ट": 5870,
      "रहना": 5871,
      "अनुप्रयोग": 5872,
      "छोटा": 5873,
      "burn": 5874,
      ");": 5875,
      "states": 5876,
      "omet": 5877,
      "कट्": 5878,
      "फ़ार": 5879,
      "दुख": 5880,
      "पात्र": 5881,
      "require": 5882,
      "इंटर": 5883,
      "नसी": 5884,
      "district": 5885,
      "IP": 5886,
      "खिल": 5887,
      "खरीद": 5888,
      "job": 5889,
      "protect": 5890,
      "ables": 5891,
      "सें": 5892,
      "\",": 5893,
      "मानते": 5894,
      "विरोध": 5895,
      "enem": 5896,
      "urre": 5897,
      "duc": 5898,
      "ब्रिटिश": 5899,
      "वहन": 5900,
      "पीठ": 5901,
      "private": 5902,
      "os": 5903,
      "happy": 5904,
      "East": 5905,
      "नें": 5906,
      "distribut": 5907,
      "produce": 5908,
      "आश्": 5909,
      "हजार": 5910,
      "शताब्दी": 5911,
      "Republic": 5912,
      "sions": 5913,
      "AD": 5914,
      "Budd": 5915,
      "वंश": 5916,
      "अत": 5917,
      "शय": 5918,
      "lying": 5919,
      "projects": 5920,
      "असफल": 5921,
      "इन्ह": 5922,
      "ailed": 5923,
      "आपने": 5924,
      "ानों": 5925,
      "विफल": 5926,
      "दर्शी": 5927,
      "Pers": 5928,
      "tit": 5929,
      "नाक": 5930,
      "बले": 5931,
      "दिक": 5932,
      "चिं": 5933,
      "“”": 5934,
      "अंग्रेजी": 5935,
      "satis": 5936,
      "Pun": 5937,
      "Board": 5938,
      "तला": 5939,
      "below": 5940,
      "लैंड": 5941,
      "farmers": 5942,
      "प्राप्ति": 5943,
      "गलत": 5944,
      "अक": 5945,
      "#-#-": 5946,
      "तया": 5947,
      "stor": 5948,
      "ager": 5949,
      "stone": 5950,
      "उम्मीद": 5951,
      "“%": 5952,
      "मेंट": 5953,
      "करनेवालों": 5954,
      "Har": 5955,
      "hundred": 5956,
      "espe": 5957,
      "feed": 5958,
      "pair": 5959,
      "option": 5960,
      "दाता": 5961,
      "अंश": 5962,
      "desire": 5963,
      "भाषण": 5964,
      "सामान": 5965,
      "disbelievers": 5966,
      "सचि": 5967,
      "विवाह": 5968,
      "व्यक्तिगत": 5969,
      "influ": 5970,
      "CT": 5971,
      "places": 5972,
      "tour": 5973,
      "2005": 5974,
      "World": 5975,
      "किसानों": 5976,
      "AND": 5977,
      "प्रतीक": 5978,
      "false": 5979,
      "साद": 5980,
      "introdu": 5981,
      "सज़ा": 5982,
      "Fe": 5983,
      "Jud": 5984,
      "CD": 5985,
      "ensive": 5986,
      "2001": 5987,
      "astray": 5988,
      "prescri": 5989,
      "पुस्त": 5990,
      "अर्थव्यवस्था": 5991,
      "ada": 5992,
      "गुज": 5993,
      "पर्यावरण": 5994,
      "टुक": 5995,
      "द्धा": 5996,
      "समुद्र": 5997,
      "सौं": 5998,
      "South": 5999,
      "cele": 6000,
      "विचारों": 6001,
      "रेखा": 6002,
      "हालाँकि": 6003,
      "आंदोलन": 6004,
      "कात": 6005,
      "attack": 6006,
      "औन": 6007,
      "weak": 6008,
      "\".": 6009,
      "शाला": 6010,
      "अनुच्छेद": 6011,
      "जहन्नुम": 6012,
      "copy": 6013,
      "inc": 6014,
      "सांस्": 6015,
      "संघर्ष": 6016,
      "अप्रैल": 6017,
      "राब": 6018,
      "failed": 6019,
      "dig": 6020,
      "प्रसार": 6021,
      "कानू": 6022,
      "्राष्ट्रीय": 6023,
      "75": 6024,
      "agar": 6025,
      "रोजगार": 6026,
      "भय": 6027,
      "लाओ": 6028,
      "लग्": 6029,
      "carried": 6030,
      "मौजूदा": 6031,
      "संगत": 6032,
      "decided": 6033,
      "संकेत": 6034,
      "सत्या": 6035,
      "ney": 6036,
      "appear": 6037,
      "आकाशों": 6038,
      "संतु": 6039,
      "सूर": 6040,
      "rural": 6041,
      "द्द": 6042,
      "परिषद": 6043,
      "observ": 6044,
      "साफ़": 6045,
      "haps": 6046,
      "Asia": 6047,
      "णु": 6048,
      "exchange": 6049,
      "Their": 6050,
      "जूद": 6051,
      "mut": 6052,
      "जंग": 6053,
      "काव्य": 6054,
      "हम्": 6055,
      "इट": 6056,
      "Brah": 6057,
      "Sanskrit": 6058,
      "45": 6059,
      "aya": 6060,
      "कृष्ट": 6061,
      "music": 6062,
      "Ak": 6063,
      "prepared": 6064,
      "Sp": 6065,
      "कोड": 6066,
      "खुलती": 6067,
      "Comment": 6068,
      "built": 6069,
      "प्रदर्शित": 6070,
      "HT": 6071,
      "Tru": 6072,
      "प्रवि": 6073,
      "आदर्श": 6074,
      "लता": 6075,
      "अह": 6076,
      "लेखक": 6077,
      "provides": 6078,
      "मार्च": 6079,
      "अत्यंत": 6080,
      "Use": 6081,
      "card": 6082,
      "ris": 6083,
      "कीमत": 6084,
      "कुफ्": 6085,
      "vest": 6086,
      "कां": 6087,
      "Bi": 6088,
      "कठिन": 6089,
      "Sche": 6090,
      "मानी": 6091,
      "iving": 6092,
      "portion": 6093,
      "महीने": 6094,
      "त्तर": 6095,
      "तरफ़": 6096,
      "Every": 6097,
      "relating": 6098,
      "King": 6099,
      "झग": 6100,
      "प्रयोजनों": 6101,
      "institution": 6102,
      "',": 6103,
      "ल्स": 6104,
      "anda": 6105,
      "Fir": 6106,
      "Gur": 6107,
      "prayer": 6108,
      "jar": 6109,
      "मिट्टी": 6110,
      "economy": 6111,
      "सम्मिलित": 6112,
      "Income": 6113,
      "meaning": 6114,
      "चलते": 6115,
      "गिरोह": 6116,
      "चं": 6117,
      "डल": 6118,
      "हिर": 6119,
      "विंडों": 6120,
      "Leg": 6121,
      "नियमों": 6122,
      "देखें": 6123,
      "नतम": 6124,
      "अभिलेख": 6125,
      "युग": 6126,
      "decision": 6127,
      "पद्धति": 6128,
      "exper": 6129,
      "original": 6130,
      "published": 6131,
      "बख्": 6132,
      "cam": 6133,
      "देय": 6134,
      "ping": 6135,
      "behalf": 6136,
      "wall": 6137,
      "सहम": 6138,
      "Category": 6139,
      "Chief": 6140,
      "मिलने": 6141,
      "groups": 6142,
      "जिम्मे": 6143,
      "seed": 6144,
      "manufact": 6145,
      "dark": 6146,
      "actually": 6147,
      "घरों": 6148,
      "सांस्कृतिक": 6149,
      "improve": 6150,
      "status": 6151,
      "पों": 6152,
      "Up": 6153,
      "popular": 6154,
      "ensure": 6155,
      "सदैव": 6156,
      "strengthen": 6157,
      "Educ": 6158,
      "ift": 6159,
      "Ph": 6160,
      "creen": 6161,
      "Technology": 6162,
      "Fil": 6163,
      "नये": 6164,
      "यूनि": 6165,
      "wid": 6166,
      "अफ्री": 6167,
      "Je": 6168,
      "March": 6169,
      "tele": 6170,
      "बीमा": 6171,
      "पहला": 6172,
      "sper": 6173,
      "प्राण": 6174,
      "गांव": 6175,
      "तकनीकी": 6176,
      "learn": 6177,
      "गढ़": 6178,
      "क्षेत्रीय": 6179,
      "hoto": 6180,
      "सारा": 6181,
      "जाँच": 6182,
      "normal": 6183,
      "मशीन": 6184,
      "भली": 6185,
      "पंजा": 6186,
      "favour": 6187,
      "बहा": 6188,
      "india": 6189,
      "leaders": 6190,
      "rules": 6191,
      "कक्ष": 6192,
      "तेजी": 6193,
      "speech": 6194,
      "Che": 6195,
      "iment": 6196,
      "manif": 6197,
      "लगाया": 6198,
      "inste": 6199,
      "संभा": 6200,
      "ार्थियों": 6201,
      "employe": 6202,
      "instrument": 6203,
      "निशानियाँ": 6204,
      "jab": 6205,
      "गुरु": 6206,
      "accord": 6207,
      "situation": 6208,
      "लम्": 6209,
      "item": 6210,
      "whoever": 6211,
      "जिसको": 6212,
      "ware": 6213,
      "लियन": 6214,
      "रहेगा": 6215,
      "न्त्र": 6216,
      "कथा": 6217,
      "iture": 6218,
      "dam": 6219,
      "Pranab": 6220,
      "बढ़ाने": 6221,
      "अंदर": 6222,
      "शानी": 6223,
      "inion": 6224,
      "especially": 6225,
      "इनके": 6226,
      "कथ": 6227,
      "chief": 6228,
      "ल्ला": 6229,
      "lower": 6230,
      "कोशिका": 6231,
      "gir": 6232,
      "hus": 6233,
      "central": 6234,
      "खों": 6235,
      "ुत": 6236,
      "Mod": 6237,
      "easy": 6238,
      "ªà": 6239,
      "unbelievers": 6240,
      "aff": 6241,
      "अभिया": 6242,
      "महत्त्व": 6243,
      "estic": 6244,
      "ivity": 6245,
      "सागर": 6246,
      "तरित": 6247,
      "हृदय": 6248,
      "ava": 6249,
      "besides": 6250,
      "IL": 6251,
      "फ़ै": 6252,
      "Child": 6253,
      "गिज़": 6254,
      "crore": 6255,
      "दृष्टिकोण": 6256,
      "takes": 6257,
      "fairs": 6258,
      "relations": 6259,
      "र्व": 6260,
      "unit": 6261,
      "CC": 6262,
      "बुरी": 6263,
      "spr": 6264,
      "physical": 6265,
      "कश्": 6266,
      "कहेंगे": 6267,
      "मालिक": 6268,
      "खूब": 6269,
      "विवाद": 6270,
      "Ut": 6271,
      "iver": 6272,
      "पना": 6273,
      "resh": 6274,
      "details": 6275,
      "आर्": 6276,
      "rive": 6277,
      "brary": 6278,
      "die": 6279,
      "fered": 6280,
      "सरों": 6281,
      "lic": 6282,
      "आंक": 6283,
      "friends": 6284,
      "essential": 6285,
      "Indust": 6286,
      "तर्क": 6287,
      "indic": 6288,
      "Bal": 6289,
      "anal": 6290,
      "values": 6291,
      "वस्तुओं": 6292,
      "clean": 6293,
      "गरी": 6294,
      "aran": 6295,
      "ago": 6296,
      "टेड": 6297,
      "aver": 6298,
      "sens": 6299,
      "खाद्य": 6300,
      "गंभीर": 6301,
      "विनिर्दिष्ट": 6302,
      "ंदर": 6303,
      "तेज": 6304,
      "2008": 6305,
      "प्रसिद्ध": 6306,
      "स्मृ": 6307,
      "प्रतिनि": 6308,
      "बिजली": 6309,
      "प्रशं": 6310,
      "90": 6311,
      "rec": 6312,
      "प्रशासन": 6313,
      "wro": 6314,
      "यण": 6315,
      "विदा": 6316,
      "concerned": 6317,
      "बौद्ध": 6318,
      "accepted": 6319,
      "stra": 6320,
      "note": 6321,
      "आपस": 6322,
      "पत्थर": 6323,
      "सिस्टम": 6324,
      "Net": 6325,
      "वाक़ि": 6326,
      "घन": 6327,
      "सत्र": 6328,
      "preci": 6329,
      "पढ़ा": 6330,
      "जीवित": 6331,
      "खड़ा": 6332,
      "appoint": 6333,
      "iloso": 6334,
      "bad": 6335,
      "मंच": 6336,
      "stage": 6337,
      "SE": 6338,
      "gone": 6339,
      "लेता": 6340,
      "ंबई": 6341,
      "विद्व": 6342,
      "व्": 6343,
      "univers": 6344,
      "International": 6345,
      "एह": 6346,
      "अंतरराष्ट्रीय": 6347,
      "रुपये": 6348,
      "suffer": 6349,
      "opportunity": 6350,
      "fest": 6351,
      "letter": 6352,
      "जिनका": 6353,
      "gment": 6354,
      "एँगे": 6355,
      "born": 6356,
      "सबको": 6357,
      "wind": 6358,
      "जादू": 6359,
      "दीर्": 6360,
      "वैश्विक": 6361,
      "celebr": 6362,
      "abled": 6363,
      "05": 6364,
      "पाई": 6365,
      "रहें": 6366,
      "prim": 6367,
      "पड़ता": 6368,
      "ह्म": 6369,
      "क़ुरान": 6370,
      "नवी": 6371,
      "मज़": 6372,
      "encour": 6373,
      "बनाकर": 6374,
      "नियत": 6375,
      "भाग्य": 6376,
      "specific": 6377,
      "पश्चिमी": 6378,
      "शिकायत": 6379,
      "fold": 6380,
      "ti": 6381,
      "ered": 6382,
      "pi": 6383,
      "वाता": 6384,
      "disput": 6385,
      "एजें": 6386,
      "धो": 6387,
      "इतनी": 6388,
      "बरी": 6389,
      "Sign": 6390,
      "बावजूद": 6391,
      "achi": 6392,
      "ony": 6393,
      "सज": 6394,
      "ज्ञापन": 6395,
      "agreement": 6396,
      "yal": 6397,
      "urrection": 6398,
      "महिलाओं": 6399,
      "Service": 6400,
      "कार्र": 6401,
      "providing": 6402,
      "names": 6403,
      "ड्र": 6404,
      "हिमा": 6405,
      "apply": 6406,
      "वार्षिक": 6407,
      "नसीहत": 6408,
      "07": 6409,
      "प्रभार": 6410,
      "forest": 6411,
      "ख़ि": 6412,
      "बढ़ावा": 6413,
      "During": 6414,
      "विनि": 6415,
      "patient": 6416,
      "wrote": 6417,
      "bird": 6418,
      "अंध": 6419,
      "दबा": 6420,
      "हरगिज़": 6421,
      "Under": 6422,
      "दास": 6423,
      "व्याख्या": 6424,
      "नृ": 6425,
      "संग्रह": 6426,
      "caused": 6427,
      "evidence": 6428,
      "View": 6429,
      "rivers": 6430,
      "स्वच्छ": 6431,
      "समाचार": 6432,
      "उपयुक्त": 6433,
      "Kash": 6434,
      "भला": 6435,
      "lie": 6436,
      "aging": 6437,
      "नेह": 6438,
      "secret": 6439,
      "मानसिक": 6440,
      "reached": 6441,
      "न्दा": 6442,
      "मां": 6443,
      "प्लग": 6444,
      "UT": 6445,
      "धानी": 6446,
      "क्ट्र": 6447,
      "increased": 6448,
      "eight": 6449,
      "लाना": 6450,
      "अनुवाद": 6451,
      "प्रयुक्त": 6452,
      "facilities": 6453,
      "अधिकतम": 6454,
      "cto": 6455,
      "plus": 6456,
      "ender": 6457,
      "बनाई": 6458,
      "विस्तृत": 6459,
      "instead": 6460,
      "साझी": 6461,
      "folk": 6462,
      "प्रयासों": 6463,
      "remind": 6464,
      "While": 6465,
      "पशु": 6466,
      "DA": 6467,
      "becomes": 6468,
      "स्थिर": 6469,
      "IM": 6470,
      "dered": 6471,
      "समे": 6472,
      "cultural": 6473,
      "planation": 6474,
      "Hell": 6475,
      "prescribed": 6476,
      "Right": 6477,
      "percent": 6478,
      "अधिकतर": 6479,
      "obtain": 6480,
      "itary": 6481,
      "डाटा": 6482,
      "ATION": 6483,
      "समर्": 6484,
      "क़रीब": 6485,
      "oil": 6486,
      "thereof": 6487,
      "Program": 6488,
      "answer": 6489,
      "ley": 6490,
      "ene": 6491,
      "उत्तम": 6492,
      "ान्त": 6493,
      "मुना": 6494,
      "cry": 6495,
      "¤®": 6496,
      "रोज़ी": 6497,
      "phy": 6498,
      "एका": 6499,
      "कठोर": 6500,
      "तेल": 6501,
      "talk": 6502,
      "Ge": 6503,
      "स्पर": 6504,
      "कहानी": 6505,
      "अरब": 6506,
      "Christ": 6507,
      "Krish": 6508,
      "ऑन": 6509,
      "हिसाब": 6510,
      "employment": 6511,
      "infrastructure": 6512,
      "bow": 6513,
      "क्षेप": 6514,
      "Agr": 6515,
      "दर्द": 6516,
      "भरो": 6517,
      "देन": 6518,
      "morning": 6519,
      "bill": 6520,
      "ार्ड": 6521,
      "बुनिया": 6522,
      "importance": 6523,
      "conduct": 6524,
      "वां": 6525,
      "Val": 6526,
      "comb": 6527,
      "Save": 6528,
      "Hereafter": 6529,
      "विल": 6530,
      "began": 6531,
      "yourselves": 6532,
      "Sar": 6533,
      "unless": 6534,
      "corpor": 6535,
      "हालांकि": 6536,
      "दिये": 6537,
      "2002": 6538,
      "aughter": 6539,
      "fection": 6540,
      "सरक": 6541,
      "ज़रु": 6542,
      "मिशन": 6543,
      "दिखाया": 6544,
      "सच्चा": 6545,
      "ताव": 6546,
      "tempor": 6547,
      "gets": 6548,
      "Cur": 6549,
      "बिक": 6550,
      "programmes": 6551,
      "measure": 6552,
      "पत": 6553,
      "neg": 6554,
      "sky": 6555,
      "mere": 6556,
      "belongs": 6557,
      "CE": 6558,
      "Pak": 6559,
      "expend": 6560,
      "explain": 6561,
      "hat": 6562,
      "aving": 6563,
      "बूल": 6564,
      "dwell": 6565,
      "प्रि": 6566,
      "शख़्": 6567,
      "rather": 6568,
      "खोलें": 6569,
      "मौसम": 6570,
      "36": 6571,
      "लिखने": 6572,
      "responsible": 6573,
      "Officer": 6574,
      "सूक्ष": 6575,
      "mbly": 6576,
      "जानवर": 6577,
      "Commissioner": 6578,
      "ining": 6579,
      "मार्गदर्शन": 6580,
      "स्त्री": 6581,
      "ships": 6582,
      "स्ट्र": 6583,
      "वासियों": 6584,
      "tran": 6585,
      "tu": 6586,
      "ग्रे": 6587,
      "पार्टी": 6588,
      "देवी": 6589,
      "स्मृति": 6590,
      "phone": 6591,
      "प्रोग्राम": 6592,
      "ल्यूशन": 6593,
      "खाली": 6594,
      "मिलकर": 6595,
      "beyond": 6596,
      "घं": 6597,
      "समक्ष": 6598,
      "वेतन": 6599,
      "वितरण": 6600,
      "दीवार": 6601,
      "flo": 6602,
      "एगा": 6603,
      "हिन्दू": 6604,
      "Africa": 6605,
      "टर्": 6606,
      "conv": 6607,
      "dedu": 6608,
      "prevent": 6609,
      "Other": 6610,
      "गंगा": 6611,
      "Fo": 6612,
      "्ति": 6613,
      "बाई": 6614,
      "सूस": 6615,
      "acts": 6616,
      "कटौती": 6617,
      "Governor": 6618,
      "Enter": 6619,
      "multip": 6620,
      "शुभकामना": 6621,
      "ull": 6622,
      "aka": 6623,
      "script": 6624,
      "pict": 6625,
      "संलग्": 6626,
      "relev": 6627,
      "्यता": 6628,
      "shown": 6629,
      "Jo": 6630,
      "अवै": 6631,
      "lands": 6632,
      "felt": 6633,
      "rupt": 6634,
      "स्पष्टीकरण": 6635,
      "song": 6636,
      "Director": 6637,
      "बारा": 6638,
      "निरंतर": 6639,
      "device": 6640,
      "करार": 6641,
      "ili": 6642,
      "कल्या": 6643,
      "North": 6644,
      "fif": 6645,
      "ously": 6646,
      "न्वयन": 6647,
      "manifest": 6648,
      "PM": 6649,
      "ka": 6650,
      "Bar": 6651,
      "रवी": 6652,
      "chast": 6653,
      "आज्ञा": 6654,
      "विमान": 6655,
      "quot": 6656,
      "grace": 6657,
      "idea": 6658,
      "स्पर्": 6659,
      "heard": 6660,
      "powers": 6661,
      "करनेवाला": 6662,
      "अनुमान": 6663,
      "Ben": 6664,
      "मूल्या": 6665,
      "languages": 6666,
      "itive": 6667,
      "परस्पर": 6668,
      "सामना": 6669,
      "prior": 6670,
      "03": 6671,
      "hur": 6672,
      "गृह": 6673,
      "accounts": 6674,
      "Gujar": 6675,
      "origin": 6676,
      "ट्ट": 6677,
      "returned": 6678,
      "वायदा": 6679,
      "लेन": 6680,
      "खास": 6681,
      "Prof": 6682,
      "ल्ट": 6683,
      "चन्द्र": 6684,
      "किस्तान": 6685,
      "iva": 6686,
      "चलता": 6687,
      "activity": 6688,
      "ेंस": 6689,
      "understanding": 6690,
      "style": 6691,
      "उपभो": 6692,
      "मोड": 6693,
      "Grou": 6694,
      ".'": 6695,
      "सदन": 6696,
      "forb": 6697,
      "पाते": 6698,
      "पुट": 6699,
      "पुत्र": 6700,
      "setting": 6701,
      "obey": 6702,
      "कारबार": 6703,
      "ancient": 6704,
      ")।": 6705,
      "bio": 6706,
      "न्ना": 6707,
      "deb": 6708,
      "Speak": 6709,
      "तृत्व": 6710,
      "कर्मचारियों": 6711,
      "राजन": 6712,
      "भेजे": 6713,
      "Education": 6714,
      "सीख": 6715,
      "अंड": 6716,
      "गहरा": 6717,
      "शून": 6718,
      "गतिविधियों": 6719,
      "govern": 6720,
      "क्लिक": 6721,
      "rown": 6722,
      "rug": 6723,
      "ggle": 6724,
      "Air": 6725,
      "अके": 6726,
      "ैर": 6727,
      "War": 6728,
      "¥": 6729,
      "क्य": 6730,
      "goes": 6731,
      "ट्रै": 6732,
      "figure": 6733,
      "Wise": 6734,
      "ries": 6735,
      "Comp": 6736,
      "histor": 6737,
      "amb": 6738,
      "त्न": 6739,
      "सुझा": 6740,
      "scale": 6741,
      "Quran": 6742,
      "content": 6743,
      "रौ": 6744,
      "ases": 6745,
      "white": 6746,
      "schol": 6747,
      "चम": 6748,
      "जिए": 6749,
      "heaven": 6750,
      "हाथों": 6751,
      "परीक्षण": 6752,
      "दै": 6753,
      "enty": 6754,
      "Plan": 6755,
      "इबाद": 6756,
      "ठिका": 6757,
      "restr": 6758,
      "पूर": 6759,
      "branch": 6760,
      "effective": 6761,
      "विश्ले": 6762,
      "सूक्ष्म": 6763,
      "नियुक्त": 6764,
      "नामक": 6765,
      "hol": 6766,
      "default": 6767,
      "Centre": 6768,
      "जानी": 6769,
      "amil": 6770,
      "imate": 6771,
      "pie": 6772,
      "boy": 6773,
      "तरिक": 6774,
      "film": 6775,
      "loan": 6776,
      "आसान": 6777,
      "उसपर": 6778,
      "wood": 6779,
      "चारों": 6780,
      "ग्रं": 6781,
      "सकेगा": 6782,
      "potential": 6783,
      "मतलब": 6784,
      "Failed": 6785,
      "Tod": 6786,
      "gam": 6787,
      "स्ना": 6788,
      "offer": 6789,
      "added": 6790,
      "System": 6791,
      "hom": 6792,
      "मनो": 6793,
      "इबादत": 6794,
      "राव": 6795,
      "दिख": 6796,
      "Research": 6797,
      "अफ्रीका": 6798,
      "Out": 6799,
      "संपूर्ण": 6800,
      "बाह": 6801,
      "कुशल": 6802,
      "exceed": 6803,
      "correct": 6804,
      "connection": 6805,
      "tur": 6806,
      "गुप्त": 6807,
      "houses": 6808,
      "ड्रा": 6809,
      "parents": 6810,
      "mighty": 6811,
      "abad": 6812,
      "णीय": 6813,
      "निगम": 6814,
      "mental": 6815,
      "beginning": 6816,
      "ming": 6817,
      "former": 6818,
      "getting": 6819,
      "दावा": 6820,
      "anti": 6821,
      "स्वागत": 6822,
      "वातावरण": 6823,
      "argu": 6824,
      "मुर्": 6825,
      "ख़ास": 6826,
      "treatment": 6827,
      "limit": 6828,
      "supported": 6829,
      "तिथि": 6830,
      "जाएं": 6831,
      "70": 6832,
      "सरण": 6833,
      "ढ़ी": 6834,
      "32": 6835,
      "प्य": 6836,
      "spiritual": 6837,
      "ML": 6838,
      "र्द": 6839,
      "स्वर": 6840,
      "quite": 6841,
      "इत्या": 6842,
      "proof": 6843,
      "URL": 6844,
      "PO": 6845,
      "decre": 6846,
      "format": 6847,
      "खुशी": 6848,
      "वाद्य": 6849,
      "article": 6850,
      "तट": 6851,
      "माबू": 6852,
      "Char": 6853,
      "existence": 6854,
      "steps": 6855,
      "सूत्र": 6856,
      "servants": 6857,
      "Evolution": 6858,
      "ार्थी": 6859,
      "filled": 6860,
      "Search": 6861,
      "stream": 6862,
      "वालो": 6863,
      "existing": 6864,
      "Many": 6865,
      "स्टा": 6866,
      "contract": 6867,
      "Move": 6868,
      "sight": 6869,
      "अद्य": 6870,
      "constitut": 6871,
      "Scheme": 6872,
      "wanted": 6873,
      "व्यवसाय": 6874,
      "IR": 6875,
      "सश": 6876,
      "else": 6877,
      "स्क्रीन": 6878,
      "अवैध": 6879,
      "safe": 6880,
      "Sep": 6881,
      "भाल": 6882,
      "शून्य": 6883,
      "करनेवाले": 6884,
      "da": 6885,
      "वचन": 6886,
      "अस": 6887,
      "anced": 6888,
      "Ko": 6889,
      "सरल": 6890,
      "philoso": 6891,
      "location": 6892,
      "eth": 6893,
      "mass": 6894,
      "सर्वा": 6895,
      "Gang": 6896,
      "देकर": 6897,
      "कहे": 6898,
      "खेती": 6899,
      "महसूस": 6900,
      "क्षति": 6901,
      "Therefore": 6902,
      "गवाह": 6903,
      "icts": 6904,
      "कल्याण": 6905,
      "fish": 6906,
      "कदा": 6907,
      "Ag": 6908,
      "Phara": 6909,
      "¤¤": 6910,
      "assu": 6911,
      "निहित": 6912,
      "तुर": 6913,
      "avo": 6914,
      "simple": 6915,
      "mom": 6916,
      "ँव": 6917,
      "unjust": 6918,
      "जनवरी": 6919,
      "Pakistan": 6920,
      "अंतर्राष्ट्रीय": 6921,
      "ग्रस्त": 6922,
      "गठन": 6923,
      "माह": 6924,
      "इजराय": 6925,
      "Will": 6926,
      "काफ़िर": 6927,
      "निरा": 6928,
      "riage": 6929,
      "यूरोप": 6930,
      "Author": 6931,
      "सप्ता": 6932,
      "पाठ्य": 6933,
      "Kal": 6934,
      "दादा": 6935,
      "Pharaoh": 6936,
      "nal": 6937,
      "वृत्त": 6938,
      "ंखला": 6939,
      "ED": 6940,
      "sle": 6941,
      "igation": 6942,
      "pack": 6943,
      "लिब": 6944,
      "citizens": 6945,
      "grat": 6946,
      "पत्नी": 6947,
      "fixed": 6948,
      "black": 6949,
      "ometimes": 6950,
      "कार्रवाई": 6951,
      "asset": 6952,
      "किल": 6953,
      "notice": 6954,
      "systems": 6955,
      "SS": 6956,
      "forgiven": 6957,
      "concerning": 6958,
      "चाल": 6959,
      "रोधी": 6960,
      "इन्हें": 6961,
      "Gard": 6962,
      "ट्रो": 6963,
      "Punjab": 6964,
      "आयोजन": 6965,
      "anger": 6966,
      "limited": 6967,
      "प्रेरित": 6968,
      "२००": 6969,
      "साम्रा": 6970,
      "85": 6971,
      "वादा": 6972,
      "week": 6973,
      "Sm": 6974,
      "जिनकी": 6975,
      "अस्ति": 6976,
      "उर्": 6977,
      "तौबा": 6978,
      "herit": 6979,
      "sex": 6980,
      "mentioned": 6981,
      "era": 6982,
      "produced": 6983,
      "झुठलाया": 6984,
      "agricultural": 6985,
      "Ob": 6986,
      "excell": 6987,
      "execut": 6988,
      "changed": 6989,
      "usually": 6990,
      "].": 6991,
      "labor": 6992,
      "सुंदर": 6993,
      "Off": 6994,
      "कल्पना": 6995,
      "certificate": 6996,
      "Ty": 6997,
      "etry": 6998,
      "youth": 6999,
      "बनाएँ": 7000,
      "श्रेष्ठ": 7001,
      "न्स": 7002,
      "presented": 7003,
      "generation": 7004,
      "दत्त": 7005,
      "1999": 7006,
      ":-": 7007,
      "33": 7008,
      "raise": 7009,
      "मूल्यांकन": 7010,
      "cra": 7011,
      "nical": 7012,
      "अनुमो": 7013,
      "माँग": 7014,
      ",\"": 7015,
      "mi": 7016,
      "भलाई": 7017,
      "IV": 7018,
      "जग": 7019,
      "ades": 7020,
      "आयुक्त": 7021,
      "ज़ू": 7022,
      "verses": 7023,
      "हराम": 7024,
      "सिद्धांत": 7025,
      "आये": 7026,
      "प्रावधान": 7027,
      "लगाने": 7028,
      "dated": 7029,
      "saf": 7030,
      "चरित": 7031,
      "सहेजें": 7032,
      "ट्रे": 7033,
      "गुज़र": 7034,
      "basic": 7035,
      "Chair": 7036,
      "direction": 7037,
      "भाँ": 7038,
      "प्रसन्नता": 7039,
      "शुभकामनाएं": 7040,
      "exerc": 7041,
      "500": 7042,
      "किरा": 7043,
      "बढ़कर": 7044,
      "commer": 7045,
      "cks": 7046,
      "भरोसा": 7047,
      "चुनाव": 7048,
      "दूध": 7049,
      "Copy": 7050,
      "touch": 7051,
      "engine": 7052,
      "पुराने": 7053,
      "चलो": 7054,
      "जाल": 7055,
      "collect": 7056,
      "sufficient": 7057,
      "Sim": 7058,
      "female": 7059,
      "पूर्ववर्ष": 7060,
      "ING": 7061,
      "Today": 7062,
      "विवे": 7063,
      "अक्सर": 7064,
      "proced": 7065,
      "समस्याओं": 7066,
      "Ved": 7067,
      "गुमरा": 7068,
      "Win": 7069,
      "thern": 7070,
      "pursu": 7071,
      "Ju": 7072,
      "समी": 7073,
      "Islamic": 7074,
      "lack": 7075,
      "ढूं": 7076,
      "ulated": 7077,
      "sho": 7078,
      "पेज": 7079,
      "learning": 7080,
      "Abrah": 7081,
      "हाद": 7082,
      "उपचार": 7083,
      "स्तंभ": 7084,
      "कराने": 7085,
      "MA": 7086,
      "base": 7087,
      "beaut": 7088,
      "Bh": 7089,
      "Dece": 7090,
      "लेखन": 7091,
      "crim": 7092,
      "वोल्यूशन": 7093,
      "हिस्से": 7094,
      "मिलती": 7095,
      "Abraham": 7096,
      "डिंग": 7097,
      "select": 7098,
      "custo": 7099,
      "अन्तर्": 7100,
      "कितने": 7101,
      "bond": 7102,
      "moon": 7103,
      "निर्देशिका": 7104,
      "चक्र": 7105,
      "quar": 7106,
      "running": 7107,
      "significant": 7108,
      "वेक्षण": 7109,
      "तिहासिक": 7110,
      "शख़्श": 7111,
      "severe": 7112,
      "मुक़ा": 7113,
      "\\\\": 7114,
      "parties": 7115,
      "ami": 7116,
      "Tax": 7117,
      "कुमार": 7118,
      "knew": 7119,
      "ट्रा": 7120,
      "शत्रु": 7121,
      "ancy": 7122,
      "ताप": 7123,
      "plants": 7124,
      "addition": 7125,
      "generally": 7126,
      "Resurrection": 7127,
      "fathers": 7128,
      "चीत": 7129,
      "परियोजनाओं": 7130,
      "oured": 7131,
      "forces": 7132,
      "faces": 7133,
      "1st": 7134,
      "कार्यक्रमों": 7135,
      "शीर्षक": 7136,
      "continued": 7137,
      "connected": 7138,
      "mob": 7139,
      "please": 7140,
      "aspect": 7141,
      "remove": 7142,
      "शिव": 7143,
      "पर्यटन": 7144,
      "January": 7145,
      "ained": 7146,
      "expected": 7147,
      "RO": 7148,
      "ply": 7149,
      "watch": 7150,
      "2011": 7151,
      "conce": 7152,
      "घे": 7153,
      "Corpor": 7154,
      "बख्श": 7155,
      "liber": 7156,
      "regarding": 7157,
      "अस्तित्व": 7158,
      "मज": 7159,
      "शर": 7160,
      "ulate": 7161,
      "यहू": 7162,
      "क़सम": 7163,
      "हिंदू": 7164,
      "संबो": 7165,
      "empt": 7166,
      "isement": 7167,
      "statement": 7168,
      "directory": 7169,
      "construction": 7170,
      "cli": 7171,
      "assign": 7172,
      "04": 7173,
      "लक्षण": 7174,
      "hosp": 7175,
      "उपाय": 7176,
      "December": 7177,
      "वाणि": 7178,
      "consist": 7179,
      "Just": 7180,
      "ख़र्च": 7181,
      "ower": 7182,
      "कितनी": 7183,
      "बदलें": 7184,
      "खुले": 7185,
      "responsibility": 7186,
      "Kashmir": 7187,
      "एवोल्यूशन": 7188,
      "नेतृत्व": 7189,
      "वाहि": 7190,
      "associated": 7191,
      "बजे": 7192,
      "novel": 7193,
      "green": 7194,
      "आतंकवाद": 7195,
      "मुला": 7196,
      "max": 7197,
      "Sal": 7198,
      "दस्तावेज": 7199,
      "विद्युत": 7200,
      "sold": 7201,
      "cross": 7202,
      "अभियान": 7203,
      "Script": 7204,
      "Auto": 7205,
      "wed": 7206,
      "istered": 7207,
      "गणराज्य": 7208,
      "destroyed": 7209,
      "नवान्": 7210,
      "ृंखला": 7211,
      "साधन": 7212,
      "इरा": 7213,
      "जायेगा": 7214,
      "ilit": 7215,
      "ches": 7216,
      "वीय": 7217,
      "दुआ": 7218,
      "बोझ": 7219,
      "vious": 7220,
      "उत्कृष्ट": 7221,
      "मान्यता": 7222,
      "मिश्र": 7223,
      "lege": 7224,
      "क़ी": 7225,
      "Jam": 7226,
      "बारी": 7227,
      "ini": 7228,
      "तकली": 7229,
      "prosper": 7230,
      "successful": 7231,
      "इजरायल": 7232,
      "rid": 7233,
      "सव": 7234,
      "प्रार्थ": 7235,
      "tried": 7236,
      "ideas": 7237,
      "इंजी": 7238,
      "अंतरण": 7239,
      "practice": 7240,
      "oted": 7241,
      "password": 7242,
      "appropri": 7243,
      "संग्र": 7244,
      "नवान्वे": 7245,
      "इले": 7246,
      "वित्र": 7247,
      "habit": 7248,
      "ड़ने": 7249,
      "वर्ड": 7250,
      "धारणा": 7251,
      "इत्यादि": 7252,
      "संगण": 7253,
      "session": 7254,
      "पड़ी": 7255,
      "हॉ": 7256,
      "उपन्यास": 7257,
      "द्वितीय": 7258,
      "मोह": 7259,
      "immediately": 7260,
      "Tem": 7261,
      "ख्य": 7262,
      "ष्क": 7263,
      "fit": 7264,
      "न्य": 7265,
      "दोस्त": 7266,
      "कमांड": 7267,
      "ज़ुल्म": 7268,
      "Mark": 7269,
      "According": 7270,
      "ains": 7271,
      "software": 7272,
      "omen": 7273,
      "email": 7274,
      "Supreme": 7275,
      "relevant": 7276,
      "भाँति": 7277,
      "गिन": 7278,
      "संस्थाओं": 7279,
      "होनी": 7280,
      "units": 7281,
      "rail": 7282,
      "blind": 7283,
      "डाउन": 7284,
      "अनुसरण": 7285,
      "Nove": 7286,
      "American": 7287,
      "poly": 7288,
      "कर्मचारी": 7289,
      "निशानी": 7290,
      "त्मिक": 7291,
      "कॉल": 7292,
      "animals": 7293,
      "06": 7294,
      "बिक्री": 7295,
      "Any": 7296,
      "poll": 7297,
      "Legisl": 7298,
      "प्रार्थना": 7299,
      "weight": 7300,
      "क्सी": 7301,
      "जातियों": 7302,
      "पूजा": 7303,
      "presence": 7304,
      "final": 7305,
      "Hy": 7306,
      "sult": 7307,
      "wishes": 7308,
      "dream": 7309,
      "¤": 7310,
      "symb": 7311,
      "strate": 7312,
      "Octo": 7313,
      "लाद": 7314,
      "जाग": 7315,
      "दिना": 7316,
      "concept": 7317,
      "बेटे": 7318,
      "भागों": 7319,
      "painful": 7320,
      "बढ": 7321,
      "निदेशक": 7322,
      "आपूर्ति": 7323,
      "रिंग": 7324,
      "Only": 7325,
      "Yet": 7326,
      "प्रचार": 7327,
      "स्की": 7328,
      "लिपि": 7329,
      "शुक्र": 7330,
      "मोमि": 7331,
      "October": 7332,
      "lose": 7333,
      "ज़ोर": 7334,
      "ogle": 7335,
      "companies": 7336,
      "Fund": 7337,
      "कन": 7338,
      "umbai": 7339,
      "encies": 7340,
      "पंचांग": 7341,
      "stances": 7342,
      "spend": 7343,
      "purch": 7344,
      "Group": 7345,
      "oting": 7346,
      "कौशल": 7347,
      "Provided": 7348,
      "Asse": 7349,
      "banks": 7350,
      "घरे": 7351,
      "range": 7352,
      "वृक्ष": 7353,
      "looking": 7354,
      "क्रांति": 7355,
      "Sa": 7356,
      "परहे": 7357,
      "मानक": 7358,
      "ईमानदारों": 7359,
      "custom": 7360,
      "ज़्या": 7361,
      "बातचीत": 7362,
      "बुराई": 7363,
      "रास्ता": 7364,
      "explo": 7365,
      "traditional": 7366,
      "opportunities": 7367,
      "फार्": 7368,
      "Start": 7369,
      "बनाते": 7370,
      "poetry": 7371,
      "Inte": 7372,
      "code": 7373,
      "जून": 7374,
      "लॉग": 7375,
      "ofindia": 7376,
      "anyone": 7377,
      "फिल्म": 7378,
      "famous": 7379,
      "ऐतिहासिक": 7380,
      "मामला": 7381,
      "कलन": 7382,
      "जात": 7383,
      "ल्टर": 7384,
      "विशेषता": 7385,
      "marks": 7386,
      "besto": 7387,
      "सप्ताह": 7388,
      "वाणिज्य": 7389,
      "mix": 7390,
      "न्दगी": 7391,
      "sym": 7392,
      "Explanation": 7393,
      "presidentofindia": 7394,
      "lu": 7395,
      "feet": 7396,
      "Tur": 7397,
      "serious": 7398,
      "flict": 7399,
      "प्रच": 7400,
      "साक्ष": 7401,
      "विद्यार्थियों": 7402,
      "सैनिक": 7403,
      "revelations": 7404,
      "team": 7405,
      "इकाई": 7406,
      "मज़ा": 7407,
      "shop": 7408,
      "अर्थात्": 7409,
      "Uttar": 7410,
      "cities": 7411,
      "gold": 7412,
      "ट्यू": 7413,
      "कीट": 7414,
      "तुर्": 7415,
      "medical": 7416,
      "attain": 7417,
      "पाकिस्तान": 7418,
      "सुबह": 7419,
      "घाटन": 7420,
      "forgiveness": 7421,
      "icket": 7422,
      "आइ": 7423,
      "आठ": 7424,
      "recomm": 7425,
      "particularly": 7426,
      "आध्या": 7427,
      "focus": 7428,
      "मिटाएँ": 7429,
      "जानने": 7430,
      "numbers": 7431,
      "ध्वनि": 7432,
      "हम्मद": 7433,
      "सुख": 7434,
      "डरते": 7435,
      "तोष": 7436,
      "tradition": 7437,
      "beautiful": 7438,
      "ids": 7439,
      "अत्यधिक": 7440,
      "आनंद": 7441,
      "workers": 7442,
      "includes": 7443,
      "industries": 7444,
      "उतर": 7445,
      "लिप": 7446,
      "भारती": 7447,
      "occup": 7448,
      "पलट": 7449,
      "November": 7450,
      "¤¯": 7451,
      "imag": 7452,
      "contains": 7453,
      "excl": 7454,
      "भगवान": 7455,
      "Red": 7456,
      "lif": 7457,
      "circum": 7458,
      "प्रोत्साह": 7459,
      "विरा": 7460,
      "disci": 7461,
      "उदार": 7462,
      "आयतें": 7463,
      "scientific": 7464,
      "pret": 7465,
      "types": 7466,
      "धीश": 7467,
      "Bang": 7468,
      "ulations": 7469,
      "ष्ट्र": 7470,
      "Sri": 7471,
      "ूबर": 7472,
      "संबंधों": 7473,
      "विशेषज्ञ": 7474,
      "teen": 7475,
      "Which": 7476,
      "sons": 7477,
      "increasing": 7478,
      "बुनियादी": 7479,
      "Lok": 7480,
      "Nar": 7481,
      "eye": 7482,
      "मीडिया": 7483,
      "Address": 7484,
      "िम": 7485,
      "insect": 7486,
      "Tamil": 7487,
      "बैंकों": 7488,
      "NAME": 7489,
      "ठिकाना": 7490,
      "ठे": 7491,
      "advance": 7492,
      "assistance": 7493,
      "sn": 7494,
      "सूर्य": 7495,
      "GN": 7496,
      "leng": 7497,
      "util": 7498,
      "legisl": 7499,
      "Message": 7500,
      "PS": 7501,
      "umn": 7502,
      "देखभाल": 7503,
      "स्थानों": 7504,
      "laid": 7505,
      "dial": 7506,
      "rise": 7507,
      "ऊंचा": 7508,
      "Ann": 7509,
      "Truth": 7510,
      "hun": 7511,
      "प्रतिक्रिया": 7512,
      "इतने": 7513,
      "bra": 7514,
      "पूज्य": 7515,
      "broad": 7516,
      "stead": 7517,
      "प्रभुत्व": 7518,
      "गुमराही": 7519,
      "bun": 7520,
      "जुड़े": 7521,
      "paper": 7522,
      "Ay": 7523,
      "adise": 7524,
      "डाले": 7525,
      "located": 7526,
      "cru": 7527,
      "gust": 7528,
      "गरीब": 7529,
      "मानो": 7530,
      "लोकप्रिय": 7531,
      "perhaps": 7532,
      "दयालु": 7533,
      "उपयोक्ता": 7534,
      "खन": 7535,
      "चाई": 7536,
      "गणना": 7537,
      "gods": 7538,
      "उद्यम": 7539,
      "कालिक": 7540,
      "greet": 7541,
      "हिंसा": 7542,
      "कानूनी": 7543,
      "टिप्": 7544,
      "2009": 7545,
      "medic": 7546,
      "granted": 7547,
      "arily": 7548,
      "ष्ठा": 7549,
      "सामर्थ": 7550,
      "collection": 7551,
      "फ्टवेयर": 7552,
      "attempt": 7553,
      "iff": 7554,
      "2004": 7555,
      "रिश्तों": 7556,
      "विषयों": 7557,
      "iter": 7558,
      "थोड़ा": 7559,
      "ंतरण": 7560,
      "award": 7561,
      "विजय": 7562,
      "speed": 7563,
      "2003": 7564,
      "ख्याल": 7565,
      "हिंदु": 7566,
      "सवाल": 7567,
      "fruit": 7568,
      "नाई": 7569,
      "कॉन्": 7570,
      "इकट्": 7571,
      "बाँ": 7572,
      "पहल": 7573,
      "Last": 7574,
      "bi": 7575,
      "करीब": 7576,
      "Folder": 7577,
      "नष्ट": 7578,
      "लोकतंत्र": 7579,
      "धीन": 7580,
      "repe": 7581,
      "महल": 7582,
      "पहाड़": 7583,
      "बनने": 7584,
      "हालॉ": 7585,
      "ration": 7586,
      "खिलाफ": 7587,
      "cutta": 7588,
      "आओ": 7589,
      "transport": 7590,
      "compet": 7591,
      "चेतना": 7592,
      "Create": 7593,
      "छूट": 7594,
      "accordance": 7595,
      "June": 7596,
      "Tag": 7597,
      "जहा": 7598,
      "विन्यास": 7599,
      "हस्त": 7600,
      "tember": 7601,
      "iation": 7602,
      "पवित्र": 7603,
      "ugin": 7604,
      "tool": 7605,
      "adop": 7606,
      "ternet": 7607,
      "पोषण": 7608,
      "contribution": 7609,
      "ipur": 7610,
      "techno": 7611,
      "पुस्ति": 7612,
      "चलने": 7613,
      "घात": 7614,
      "अद्यतन": 7615,
      "इंजीनिय": 7616,
      "eved": 7617,
      "भूल": 7618,
      "police": 7619,
      "husband": 7620,
      "दूसरों": 7621,
      "कहता": 7622,
      "फ़ैसला": 7623,
      "izing": 7624,
      "48": 7625,
      "उम्र": 7626,
      "Calcutta": 7627,
      "क़र्र": 7628,
      "sacr": 7629,
      "अमरी": 7630,
      "लेज": 7631,
      "sud": 7632,
      "agriculture": 7633,
      "शनल": 7634,
      "expenditure": 7635,
      "hours": 7636,
      "pil": 7637,
      "पूर्वी": 7638,
      "आध्यात्मिक": 7639,
      "पुस्तिका": 7640,
      "memory": 7641,
      "न्यूनतम": 7642,
      "Well": 7643,
      "Organ": 7644,
      "benefits": 7645,
      "September": 7646,
      "mort": 7647,
      "पढ़ने": 7648,
      "distin": 7649,
      "sco": 7650,
      "print": 7651,
      "Ker": 7652,
      "खतर": 7653,
      "centre": 7654,
      "ख़ुद": 7655,
      "काफिर": 7656,
      "क्षिक": 7657,
      "कलक": 7658,
      "violence": 7659,
      "moment": 7660,
      "apost": 7661,
      "न्‍": 7662,
      "संचालन": 7663,
      "मास": 7664,
      "ules": 7665,
      "टिल": 7666,
      "लगातार": 7667,
      "leading": 7668,
      "omin": 7669,
      "announ": 7670,
      "Did": 7671,
      "आजा": 7672,
      "ality": 7673,
      "सीधा": 7674,
      "directly": 7675,
      "¥": 7676,
      "expression": 7677,
      "config": 7678,
      "Pat": 7679,
      "दित": 7680,
      "asa": 7681,
      "सेवाएं": 7682,
      "लोकन": 7683,
      "घरेलू": 7684,
      "Di": 7685,
      "अनुकूल": 7686,
      "स्ट्रे": 7687,
      "स्त्रियों": 7688,
      "प्रायः": 7689,
      "पारि": 7690,
      "challeng": 7691,
      "स्टी": 7692,
      "क्रय": 7693,
      "La": 7694,
      "खण्ड": 7695,
      "नाट": 7696,
      "मेहरबान": 7697,
      "Loc": 7698,
      "गवाही": 7699,
      "मई": 7700,
      "निपट": 7701,
      "तीव्र": 7702,
      "परहेज़": 7703,
      "quick": 7704,
      "SH": 7705,
      "inj": 7706,
      "परामर्श": 7707,
      "administration": 7708,
      "प्रका": 7709,
      "प्रतिष्ठ": 7710,
      "प्रेत": 7711,
      "laws": 7712,
      "assets": 7713,
      "complain": 7714,
      "वर्धन": 7715,
      "promised": 7716,
      "पसन्द": 7717,
      "प्रोत्साहन": 7718,
      "एंड": 7719,
      "सिवाय": 7720,
      "amental": 7721,
      "हालॉकि": 7722,
      "honour": 7723,
      "transa": 7724,
      "अवि": 7725,
      "ingu": 7726,
      "sides": 7727,
      "समस्त": 7728,
      "आंतरिक": 7729,
      "Window": 7730,
      "हिंदी": 7731,
      "Mumbai": 7732,
      "नृत्य": 7733,
      "जोखि": 7734,
      "भाषाओं": 7735,
      "Children": 7736,
      "temporary": 7737,
      "Sched": 7738,
      "concl": 7739,
      "विद्यालयों": 7740,
      "असमर्थ": 7741,
      "चीज": 7742,
      "graphy": 7743,
      "mountains": 7744,
      "चर्य": 7745,
      "foot": 7746,
      "villages": 7747,
      "संसाधनों": 7748,
      "अर्थात": 7749,
      "middle": 7750,
      "ende": 7751,
      "वीर": 7752,
      "photo": 7753,
      "insp": 7754,
      "सहकारी": 7755,
      "प्रदू": 7756,
      "Vis": 7757,
      "attract": 7758,
      "heat": 7759,
      "ster": 7760,
      "नहर": 7761,
      "named": 7762,
      "AM": 7763,
      "अज्ञात": 7764,
      "मधु": 7765,
      "रद्द": 7766,
      "एकत्र": 7767,
      "orders": 7768,
      "balance": 7769,
      "repent": 7770,
      "separate": 7771,
      "table": 7772,
      "नबी": 7773,
      "ब्रे": 7774,
      "Messengers": 7775,
      "प्रारूप": 7776,
      "nations": 7777,
      "Its": 7778,
      "पारित": 7779,
      "operative": 7780,
      "measures": 7781,
      "घटा": 7782,
      "मछ": 7783,
      "लाता": 7784,
      "opened": 7785,
      "Maj": 7786,
      "गुम": 7787,
      "चिका": 7788,
      "मुंबई": 7789,
      "त्याग": 7790,
      "Thou": 7791,
      "कर्ताओं": 7792,
      "Cap": 7793,
      "हल्": 7794,
      "opinion": 7795,
      "उठाने": 7796,
      "कियों": 7797,
      "standard": 7798,
      "disc": 7799,
      "denied": 7800,
      "Bharat": 7801,
      "आग्रह": 7802,
      "करवा": 7803,
      "जाकर": 7804,
      "attention": 7805,
      "drug": 7806,
      "उतार": 7807,
      "Inter": 7808,
      "inside": 7809,
      "मुक": 7810,
      "inn": 7811,
      "forgive": 7812,
      "नागरिकों": 7813,
      "ऑनलाइन": 7814,
      "Bas": 7815,
      "सभ": 7816,
      "ैतिक": 7817,
      "thir": 7818,
      "रास्ते": 7819,
      "twenty": 7820,
      "Management": 7821,
      "विधे": 7822,
      "title": 7823,
      "Ter": 7824,
      "तुल": 7825,
      "गुजरात": 7826,
      "महत्त्वपूर्ण": 7827,
      "Rel": 7828,
      "तभी": 7829,
      "तमाम": 7830,
      "वसाय": 7831,
      "transgress": 7832,
      "plication": 7833,
      "निर्वाचन": 7834,
      "माबूद": 7835,
      "2020": 7836,
      "बीज": 7837,
      "Mic": 7838,
      "game": 7839,
      "button": 7840,
      "arrange": 7841,
      "Satan": 7842,
      "फ़्र": 7843,
      "Forgiving": 7844,
      "भागीदारी": 7845,
      "ंदा": 7846,
      "deemed": 7847,
      "तरीका": 7848,
      "Time": 7849,
      "Work": 7850,
      "देखकर": 7851,
      "thentic": 7852,
      "knowing": 7853,
      "straight": 7854,
      "cooperation": 7855,
      "Her": 7856,
      "screen": 7857,
      "वक": 7858,
      "EE": 7859,
      "largest": 7860,
      "til": 7861,
      "warm": 7862,
      "completed": 7863,
      "प्रेरणा": 7864,
      "इलेक्ट्र": 7865,
      "played": 7866,
      "रुपए": 7867,
      "तमिल": 7868,
      "यूसु": 7869,
      "highest": 7870,
      "निरी": 7871,
      "तुझे": 7872,
      "permission": 7873,
      "Shah": 7874,
      "ानु": 7875,
      "saved": 7876,
      "smo": 7877,
      "लंब": 7878,
      "supply": 7879,
      "घोषित": 7880,
      "शुरुआत": 7881,
      "aint": 7882,
      "pure": 7883,
      "icted": 7884,
      "लड़के": 7885,
      "मस्": 7886,
      "रजि": 7887,
      "सचिव": 7888,
      "ज़रुर": 7889,
      "कारक": 7890,
      "2010": 7891,
      "advant": 7892,
      "1956": 7893,
      "सामर्थ्य": 7894,
      "TP": 7895,
      "Ur": 7896,
      "ateful": 7897,
      "effort": 7898,
      "खुली": 7899,
      "लिखी": 7900,
      "115": 7901,
      "frame": 7902,
      "चंद्र": 7903,
      "नक़": 7904,
      "export": 7905,
      "लोगो": 7906,
      "officers": 7907,
      "taste": 7908,
      "ishn": 7909,
      "Text": 7910,
      "Western": 7911,
      "अगस्त": 7912,
      "पूछा": 7913,
      "मौत": 7914,
      "Sik": 7915,
      "ayan": 7916,
      "partners": 7917,
      "protection": 7918,
      "ae": 7919,
      "lex": 7920,
      "जाएंगे": 7921,
      "bot": 7922,
      "मुक़र्र": 7923,
      "joint": 7924,
      "pattern": 7925,
      "दश": 7926,
      "ॉप": 7927,
      "सदा": 7928,
      "iss": 7929,
      "org": 7930,
      "ilater": 7931,
      "Bab": 7932,
      "wills": 7933,
      "calendar": 7934,
      "bri": 7935,
      "someone": 7936,
      "Google": 7937,
      "Import": 7938,
      "milk": 7939,
      "गोल": 7940,
      "north": 7941,
      "उद्घाटन": 7942,
      "लड़ाई": 7943,
      "दस्तावेज़": 7944,
      "भौतिक": 7945,
      "परिस्थितियों": 7946,
      "Sol": 7947,
      "Vi": 7948,
      "आसानी": 7949,
      "सर्वोच्च": 7950,
      "acade": 7951,
      "अभिप्रेत": 7952,
      "longer": 7953,
      "शोध": 7954,
      "दयावान": 7955,
      "valu": 7956,
      "extent": 7957,
      "जॉ": 7958,
      "chastisement": 7959,
      "भोग": 7960,
      "ल्ल": 7961,
      "ख़ूब": 7962,
      "साम्राज्य": 7963,
      "length": 7964,
      "ध्": 7965,
      "दीर्घ": 7966,
      "enemy": 7967,
      "अका": 7968,
      "च्ची": 7969,
      "स्वतः": 7970,
      "polic": 7971,
      "performance": 7972,
      "iers": 7973,
      "अस्प": 7974,
      "otherwise": 7975,
      "apan": 7976,
      "स्ट्री": 7977,
      "खुश": 7978,
      "महिम": 7979,
      "तथ्य": 7980,
      "34": 7981,
      "shows": 7982,
      "pleasure": 7983,
      "Gujarat": 7984,
      "Aud": 7985,
      "ws": 7986,
      "राई": 7987,
      "संवाद": 7988,
      "बदलाव": 7989,
      "documents": 7990,
      "sins": 7991,
      "First": 7992,
      "प्रशंसा": 7993,
      "bab": 7994,
      "ying": 7995,
      "nut": 7996,
      "परो": 7997,
      "बाग": 7998,
      "south": 7999,
      "trial": 8000,
      "ग़ालिब": 8001,
      "औष": 8002,
      "बाबत": 8003,
      "consum": 8004,
      "नोट": 8005,
      "दयालुता": 8006,
      "चन्द": 8007,
      "न्यायाधीश": 8008,
      "rank": 8009,
      "cere": 8010,
      "mechan": 8011,
      "बिं": 8012,
      "लान": 8013,
      "entered": 8014,
      "मैदान": 8015,
      "appeal": 8016,
      "August": 8017,
      "म्स": 8018,
      "complex": 8019,
      "Bihar": 8020,
      "अक्ष": 8021,
      "commod": 8022,
      "subscri": 8023,
      "शंकर": 8024,
      "AB": 8025,
      "शाही": 8026,
      "किनारे": 8027,
      "वैध": 8028,
      "उपयोगी": 8029,
      "implementation": 8030,
      "hru": 8031,
      "दवा": 8032,
      "षा": 8033,
      "ज़त": 8034,
      "Krishna": 8035,
      "()": 8036,
      "ढे": 8037,
      "फसल": 8038,
      "join": 8039,
      "Home": 8040,
      "छह": 8041,
      "items": 8042,
      "प्रय": 8043,
      "विश्लेषण": 8044,
      "contr": 8045,
      "compass": 8046,
      "Back": 8047,
      "rupe": 8048,
      "included": 8049,
      "Rad": 8050,
      "Secret": 8051,
      "Had": 8052,
      "San": 8053,
      "perman": 8054,
      "विरोधी": 8055,
      "weather": 8056,
      "TR": 8057,
      "ja": 8058,
      "काग": 8059,
      "लामी": 8060,
      "अधिकारों": 8061,
      "टें": 8062,
      "सिंग": 8063,
      "लौटा": 8064,
      "rev": 8065,
      "ारों": 8066,
      "वर्षा": 8067,
      "struct": 8068,
      "appropriate": 8069,
      "मस": 8070,
      "स्पे": 8071,
      "height": 8072,
      "useful": 8073,
      "औरतों": 8074,
      "Image": 8075,
      "Agric": 8076,
      "Office": 8077,
      "ंजन": 8078,
      "asc": 8079,
      "कर्त": 8080,
      "वैसे": 8081,
      "warn": 8082,
      "Assist": 8083,
      "intellect": 8084,
      "ites": 8085,
      "secure": 8086,
      "appreci": 8087,
      "बोले": 8088,
      "istration": 8089,
      "vict": 8090,
      "रीति": 8091,
      "Port": 8092,
      "सीडी": 8093,
      "उत्पादों": 8094,
      "धों": 8095,
      "पालिका": 8096,
      "ball": 8097,
      "वादियों": 8098,
      "wered": 8099,
      "खुला": 8100,
      "पक्षीय": 8101,
      "Edit": 8102,
      "कुफ्फ़ार": 8103,
      "sudden": 8104,
      "देखता": 8105,
      "species": 8106,
      "जितना": 8107,
      "लिंक": 8108,
      "adu": 8109,
      "प्राथमिकता": 8110,
      "नूह": 8111,
      "Car": 8112,
      "कोवि": 8113,
      "वर्गी": 8114,
      "Bus": 8115,
      "furn": 8116,
      "वहीं": 8117,
      "कहाँ": 8118,
      "देखे": 8119,
      "महामहिम": 8120,
      "धियों": 8121,
      "वॉ": 8122,
      "फैसला": 8123,
      "Cert": 8124,
      "पीय": 8125,
      "Law": 8126,
      "xy": 8127,
      "reser": 8128,
      "journey": 8129,
      "Fl": 8130,
      "ador": 8131,
      "सरदार": 8132,
      "funds": 8133,
      "लेंगे": 8134,
      "advice": 8135,
      "संबोधित": 8136,
      "चली": 8137,
      "मस्ति": 8138,
      "dem": 8139,
      "marriage": 8140,
      "प्रतिनिधित": 8141,
      "मुक़ाबले": 8142,
      "ume": 8143,
      "minus": 8144,
      "mony": 8145,
      "ferences": 8146,
      "struggle": 8147,
      "educational": 8148,
      "Bu": 8149,
      "PA": 8150,
      "mical": 8151,
      "Policy": 8152,
      "uss": 8153,
      "hra": 8154,
      "जीत": 8155,
      "communic": 8156,
      "ilateral": 8157,
      "वली": 8158,
      "rog": 8159,
      "neur": 8160,
      "vind": 8161,
      "oga": 8162,
      "Langu": 8163,
      "gent": 8164,
      "साबित": 8165,
      "पृथ्": 8166,
      "democracy": 8167,
      "mouth": 8168,
      "संकट": 8169,
      "39": 8170,
      "labour": 8171,
      "”.": 8172,
      "dece": 8173,
      "उपक्रम": 8174,
      "पूर्वा": 8175,
      "दरवा": 8176,
      "ग्राहक": 8177,
      "जल्द": 8178,
      "master": 8179,
      "क्रिय": 8180,
      "hour": 8181,
      "फ्रा": 8182,
      "कितना": 8183,
      "ष्टा": 8184,
      "Finance": 8185,
      "Tra": 8186,
      "won": 8187,
      "ीनी": 8188,
      "भाषित": 8189,
      "CS": 8190,
      "बीमारी": 8191,
      "Descri": 8192,
      "mid": 8193,
      "equip": 8194,
      "SAW": 8195,
      "समृद्ध": 8196,
      "प्रकाशन": 8197,
      "पदा": 8198,
      "प्री": 8199,
      "करेगी": 8200,
      "मुझसे": 8201,
      "ff": 8202,
      "एकल": 8203,
      "आक्रमण": 8204,
      "दायी": 8205,
      "सिफार": 8206,
      "मोबा": 8207,
      "consideration": 8208,
      "Bomb": 8209,
      "फें": 8210,
      "साथी": 8211,
      "मैने": 8212,
      "शोक": 8213,
      "results": 8214,
      "समझौता": 8215,
      "आलो": 8216,
      "ड़ते": 8217,
      "बीमार": 8218,
      "utes": 8219,
      "Indians": 8220,
      "शहरी": 8221,
      "apart": 8222,
      "numer": 8223,
      "wa": 8224,
      "अध्याय": 8225,
      "आना": 8226,
      "नेताओं": 8227,
      "हाई": 8228,
      "लील": 8229,
      "curren": 8230,
      "mist": 8231,
      "अनुरोध": 8232,
      "reading": 8233,
      "परिणामस्वरूप": 8234,
      "नेहरू": 8235,
      "37": 8236,
      "icial": 8237,
      "विपरी": 8238,
      "एकता": 8239,
      "Unable": 8240,
      "fields": 8241,
      "employees": 8242,
      "isdom": 8243,
      "बेस": 8244,
      "अन्दर": 8245,
      "operations": 8246,
      "actions": 8247,
      "शौ": 8248,
      "शारी": 8249,
      "functions": 8250,
      "विद्यमान": 8251,
      "heavy": 8252,
      "believing": 8253,
      "drive": 8254,
      "site": 8255,
      "उधार": 8256,
      "unique": 8257,
      "Pass": 8258,
      "yan": 8259,
      "विपरीत": 8260,
      "map": 8261,
      "perfect": 8262,
      "बीर": 8263,
      "जनसंख्या": 8264,
      "टेली": 8265,
      "नज़र": 8266,
      "रेट": 8267,
      "अनुरूप": 8268,
      "उपबंधों": 8269,
      "bul": 8270,
      "inary": 8271,
      "growing": 8272,
      "stated": 8273,
      "stories": 8274,
      "uman": 8275,
      "चीज़ों": 8276,
      "Paradise": 8277,
      "जाओगे": 8278,
      "हला": 8279,
      "constant": 8280,
      "shr": 8281,
      "पंजाब": 8282,
      "कर्तव्य": 8283,
      "प्रतिनिधित्व": 8284,
      "पृथ्वी": 8285,
      "Power": 8286,
      "होंगी": 8287,
      "rom": 8288,
      "कालय": 8289,
      "Bill": 8290,
      "अक्षम": 8291,
      "भरे": 8292,
      "ज़ल": 8293,
      "जिनको": 8294,
      "कारात्मक": 8295,
      "कूटशब्द": 8296,
      "revolution": 8297,
      "चुने": 8298,
      "यक़ीनी": 8299,
      "defined": 8300,
      "ढूंढ": 8301,
      "entry": 8302,
      "likely": 8303,
      "यूरो": 8304,
      "जोखिम": 8305,
      "endment": 8306,
      "समाप्ति": 8307,
      "territ": 8308,
      "views": 8309,
      "Account": 8310,
      "enced": 8311,
      "More": 8312,
      "resol": 8313,
      "कुरान": 8314,
      "मोबाइल": 8315,
      "ching": 8316,
      "मेन": 8317,
      "सर्वेक्षण": 8318,
      "सर्वाधिक": 8319,
      "bon": 8320,
      "gardens": 8321,
      "ूल": 8322,
      "ैर्य": 8323,
      "नाश": 8324,
      "schemes": 8325,
      "आनन्द": 8326,
      "Science": 8327,
      "कीन": 8328,
      "सरकारों": 8329,
      "परिवर्तित": 8330,
      "hypo": 8331,
      "सुल": 8332,
      "registered": 8333,
      "बन्दगी": 8334,
      "वट": 8335,
      "सना": 8336,
      "प्रतीत": 8337,
      "committed": 8338,
      "counter": 8339,
      "media": 8340,
      "पत्रिका": 8341,
      "technical": 8342,
      "July": 8343,
      "utter": 8344,
      "देशी": 8345,
      "आरम्भ": 8346,
      "ashtra": 8347,
      "राजनैतिक": 8348,
      "Path": 8349,
      "प्रतिभा": 8350,
      "sphere": 8351,
      "संगठनों": 8352,
      "मुक़र्रर": 8353,
      "urance": 8354,
      "trees": 8355,
      "आश्चर्य": 8356,
      "Chairman": 8357,
      "औलाद": 8358,
      "सलाम": 8359,
      "हथ": 8360,
      "staff": 8361,
      "Head": 8362,
      "processing": 8363,
      "ifying": 8364,
      "Assembly": 8365,
      "Nay": 8366,
      "किलो": 8367,
      "cot": 8368,
      "drawn": 8369,
      "भक्ति": 8370,
      "जना": 8371,
      "exc": 8372,
      "पर्व": 8373,
      "thinking": 8374,
      "धक": 8375,
      "प्रदाय": 8376,
      "rol": 8377,
      "arer": 8378,
      "payable": 8379,
      "Over": 8380,
      "jun": 8381,
      "िक़": 8382,
      "door": 8383,
      "virt": 8384,
      "storage": 8385,
      ".—": 8386,
      "अहम": 8387,
      "मक्": 8388,
      "asp": 8389,
      "iry": 8390,
      "पंजीकरण": 8391,
      "holding": 8392,
      "syn": 8393,
      "LD": 8394,
      "eder": 8395,
      "web": 8396,
      "ज़रा": 8397,
      "aining": 8398,
      "Remove": 8399,
      "जरूर": 8400,
      "praise": 8401,
      "कब": 8402,
      "ोस": 8403,
      "propos": 8404,
      "Nehru": 8405,
      "बैक": 8406,
      "सुविधाओं": 8407,
      "Post": 8408,
      "Delete": 8409,
      "Guru": 8410,
      "55": 8411,
      "क़िया": 8412,
      "ump": 8413,
      "terrorism": 8414,
      "Pan": 8415,
      "input": 8416,
      "prh": 8417,
      "adopted": 8418,
      "seem": 8419,
      "गोया": 8420,
      "gate": 8421,
      "ग्रंथ": 8422,
      "sort": 8423,
      "leaves": 8424,
      "मुश्": 8425,
      "temper": 8426,
      "succeed": 8427,
      "हिन्दु": 8428,
      "ishing": 8429,
      "सृजन": 8430,
      "Hist": 8431,
      "पहुँचे": 8432,
      "उठाए": 8433,
      "inner": 8434,
      "track": 8435,
      "abs": 8436,
      "grateful": 8437,
      "divided": 8438,
      "आवास": 8439,
      "प्रतीक्षा": 8440,
      "recomp": 8441,
      "मुं": 8442,
      "गैस": 8443,
      "contained": 8444,
      "उपभोक्ता": 8445,
      "Bombay": 8446,
      "गौर": 8447,
      "परिवहन": 8448,
      "फिरऔन": 8449,
      "bruary": 8450,
      "communication": 8451,
      "आवाज़": 8452,
      "अब्": 8453,
      "कड़ी": 8454,
      "CON": 8455,
      "Pa": 8456,
      "1947": 8457,
      "प्राधिकारी": 8458,
      "Description": 8459,
      "diction": 8460,
      "advis": 8461,
      "हमसे": 8462,
      "uled": 8463,
      "काफ़ी": 8464,
      "Excell": 8465,
      "yer": 8466,
      "दरा": 8467,
      "धैर्य": 8468,
      "events": 8469,
      "उद्योगों": 8470,
      "Ke": 8471,
      "जरिए": 8472,
      "del": 8473,
      "हाइ": 8474,
      "consequ": 8475,
      "involved": 8476,
      "Secretary": 8477,
      "नमू": 8478,
      "हैंः": 8479,
      "waste": 8480,
      "square": 8481,
      "विभाजन": 8482,
      "घंटे": 8483,
      "शारीरिक": 8484,
      "iency": 8485,
      "हँ": 8486,
      "इन्कार": 8487,
      "ूर": 8488,
      "दरत": 8489,
      "ज़िम्मे": 8490,
      "February": 8491,
      "औसत": 8492,
      "कोल": 8493,
      "aces": 8494,
      "सब्": 8495,
      "सजदा": 8496,
      "cells": 8497,
      "अमेरिकी": 8498,
      "दर्शक": 8499,
      "profit": 8500,
      "Ah": 8501,
      "engaged": 8502,
      "कार्यान्वयन": 8503,
      "inet": 8504,
      "शिकार": 8505,
      "बिहार": 8506,
      "questions": 8507,
      "BC": 8508,
      "gas": 8509,
      "capt": 8510,
      "नियंत्रित": 8511,
      "declared": 8512,
      "दशक": 8513,
      "emphas": 8514,
      "hib": 8515,
      "powerful": 8516,
      "military": 8517,
      "कश्मीर": 8518,
      "Nep": 8519,
      "domestic": 8520,
      "निगर": 8521,
      "temples": 8522,
      "helped": 8523,
      "PRO": 8524,
      "Kol": 8525,
      "cash": 8526,
      "China": 8527,
      "famil": 8528,
      "बिंदु": 8529,
      "स्को": 8530,
      "extreme": 8531,
      "reference": 8532,
      "जिले": 8533,
      "पाठ्यक्रम": 8534,
      "Ear": 8535,
      "ras": 8536,
      "हत्या": 8537,
      "iling": 8538,
      "lived": 8539,
      "स्थि": 8540,
      "उच्चतम": 8541,
      "Rajas": 8542,
      "oo": 8543,
      "खान": 8544,
      "images": 8545,
      "अधिसूचना": 8546,
      "scul": 8547,
      "Yes": 8548,
      "असम": 8549,
      "नेअ": 8550,
      "chand": 8551,
      "Stand": 8552,
      "Nath": 8553,
      "रानी": 8554,
      "सीसी": 8555,
      "grand": 8556,
      "चेताव": 8557,
      "जिनसे": 8558,
      "closed": 8559,
      "exists": 8560,
      "brid": 8561,
      "शैक्षिक": 8562,
      "causes": 8563,
      "ET": 8564,
      "Pand": 8565,
      "जमीन": 8566,
      "Ger": 8567,
      "कुफ़्र": 8568,
      "archite": 8569,
      "divine": 8570,
      "बज": 8571,
      "onder": 8572,
      "fruits": 8573,
      "कना": 8574,
      "देर": 8575,
      "रहमत": 8576,
      "sculpt": 8577,
      "beg": 8578,
      "बाबू": 8579,
      "बुद्ध": 8580,
      "श्रृंखला": 8581,
      "ots": 8582,
      "ils": 8583,
      "obed": 8584,
      "skill": 8585,
      "नुक": 8586,
      "minister": 8587,
      "points": 8588,
      "neigh": 8589,
      "ईमानदार": 8590,
      "developing": 8591,
      "मिनट": 8592,
      "Fore": 8593,
      "hearing": 8594,
      "लेट": 8595,
      "Assam": 8596,
      "मुद्दों": 8597,
      "officer": 8598,
      "रॉ": 8599,
      "जैव": 8600,
      "atha": 8601,
      "friendly": 8602,
      "animal": 8603,
      "नयी": 8604,
      "त्तम": 8605,
      "needed": 8606,
      "promote": 8607,
      "¤¹": 8608,
      "ज़ाहिर": 8609,
      "घड़ी": 8610,
      "रस": 8611,
      "300": 8612,
      "nuc": 8613,
      "enable": 8614,
      "चालू": 8615,
      "सुभाष": 8616,
      "aily": 8617,
      "policies": 8618,
      "ipt": 8619,
      "त्कार": 8620,
      "cloud": 8621,
      "अंक": 8622,
      "spl": 8623,
      "refu": 8624,
      "veget": 8625,
      "amongst": 8626,
      "उठाया": 8627,
      "Free": 8628,
      "अली": 8629,
      "सराह": 8630,
      "ays": 8631,
      "earned": 8632,
      "भरा": 8633,
      "रआन": 8634,
      "हटकर": 8635,
      "moving": 8636,
      "calls": 8637,
      "lad": 8638,
      "एकी": 8639,
      "189": 8640,
      "पेंशन": 8641,
      "commercial": 8642,
      "न्वित": 8643,
      "roll": 8644,
      "shape": 8645,
      "ज़िन्दगी": 8646,
      "तोड़": 8647,
      "Thr": 8648,
      "Enable": 8649,
      "gather": 8650,
      "भक्त": 8651,
      "shares": 8652,
      "घटनाओं": 8653,
      "चुनौती": 8654,
      "सन्तान": 8655,
      "ड्स": 8656,
      "समीक्षा": 8657,
      "ino": 8658,
      "तूने": 8659,
      "expressed": 8660,
      "इंटरनेट": 8661,
      "families": 8662,
      "sometimes": 8663,
      "ंतों": 8664,
      "मांस": 8665,
      "पुष्टि": 8666,
      "बदलने": 8667,
      "सॉफ्टवेयर": 8668,
      "deduction": 8669,
      "depart": 8670,
      "प्ला": 8671,
      "Web": 8672,
      "द्रा": 8673,
      "दर्ज": 8674,
      "Men": 8675,
      "ष्णु": 8676,
      "इंडि": 8677,
      "नेअमत": 8678,
      "Exchange": 8679,
      "MP": 8680,
      "tid": 8681,
      "सेटिंग": 8682,
      "सहज": 8683,
      "truly": 8684,
      "वसायिक": 8685,
      "Beli": 8686,
      "voice": 8687,
      "अकबर": 8688,
      "inent": 8689,
      "नाइ": 8690,
      "season": 8691,
      "holds": 8692,
      "”-": 8693,
      "external": 8694,
      "प्रोत्साहित": 8695,
      "कार्यवाही": 8696,
      "शीलता": 8697,
      "महाराष्ट्र": 8698,
      "सिफारिश": 8699,
      "एक्": 8700,
      "See": 8701,
      "प्रशास": 8702,
      "केरल": 8703,
      "Bes": 8704,
      "messengers": 8705,
      "relationship": 8706,
      "influence": 8707,
      "निगरानी": 8708,
      "info": 8709,
      "अनुप": 8710,
      "dance": 8711,
      "अगला": 8712,
      "CP": 8713,
      "मंग": 8714,
      "prise": 8715,
      "चारिक": 8716,
      "श्रमिक": 8717,
      "तारा": 8718,
      "ख्वाह": 8719,
      "stop": 8720,
      "model": 8721,
      "consciousness": 8722,
      "refuge": 8723,
      "Prin": 8724,
      "जहन्नम": 8725,
      "wives": 8726,
      "‍त": 8727,
      "नेशनल": 8728,
      "करोगे": 8729,
      "Unto": 8730,
      "विशेषकर": 8731,
      "छात्रों": 8732,
      "Kerala": 8733,
      "ंव": 8734,
      "तीत": 8735,
      "choose": 8736,
      "facilit": 8737,
      "expand": 8738,
      "Palest": 8739,
      "तेरी": 8740,
      "उत्तरा": 8741,
      "निष्क्रिय": 8742,
      "38": 8743,
      "root": 8744,
      "pover": 8745,
      "prison": 8746,
      "मूल्यों": 8747,
      "रेलवे": 8748,
      "कोष": 8749,
      "organisation": 8750,
      "रोकने": 8751,
      "magic": 8752,
      "van": 8753,
      "समर्पित": 8754,
      "circumstances": 8755,
      "अन्यथा": 8756,
      "settle": 8757,
      "पैग़म्बरों": 8758,
      "average": 8759,
      "सचे": 8760,
      "seems": 8761,
      "शिखर": 8762,
      "अभिव्यक्ति": 8763,
      "सुनने": 8764,
      "कलकत्ता": 8765,
      "jur": 8766,
      "नॉ": 8767,
      "iled": 8768,
      "इसको": 8769,
      "visible": 8770,
      "standards": 8771,
      "शरीक": 8772,
      "response": 8773,
      "killed": 8774,
      "Hel": 8775,
      "ignor": 8776,
      "marked": 8777,
      "fee": 8778,
      "plate": 8779,
      "interests": 8780,
      "बजाय": 8781,
      "ading": 8782,
      "adequ": 8783,
      "Gandhiji": 8784,
      "cat": 8785,
      "mig": 8786,
      "atma": 8787,
      "earn": 8788,
      "compon": 8789,
      "desires": 8790,
      "गारों": 8791,
      "additional": 8792,
      "remained": 8793,
      "तकनीक": 8794,
      "satisf": 8795,
      "दिनांक": 8796,
      "Rev": 8797,
      "विधेयक": 8798,
      "हरि": 8799,
      "ordinary": 8800,
      "icated": 8801,
      "संयंत्र": 8802,
      "क़्": 8803,
      "कनेक्शन": 8804,
      "pit": 8805,
      "गाय": 8806,
      "series": 8807,
      "profession": 8808,
      "threat": 8809,
      "मस्तिष्क": 8810,
      "ktop": 8811,
      "कहान": 8812,
      "महात्मा": 8813,
      "कराया": 8814,
      "determined": 8815,
      "online": 8816,
      "preneur": 8817,
      "मिलेगा": 8818,
      "क्रिप्": 8819,
      "नक़ल": 8820,
      "होम": 8821,
      "क्षकों": 8822,
      "nes": 8823,
      "राज्यपाल": 8824,
      "refers": 8825,
      "covery": 8826,
      "मुसी": 8827,
      "जुलाई": 8828,
      "store": 8829,
      "remains": 8830,
      "Might": 8831,
      "lest": 8832,
      "गुफा": 8833,
      "pped": 8834,
      "Check": 8835,
      "उड़": 8836,
      "दोबारा": 8837,
      "medium": 8838,
      "Mail": 8839,
      "वरि": 8840,
      "inery": 8841,
      "चिह्न": 8842,
      "ology": 8843,
      "आकर": 8844,
      "तस्वी": 8845,
      "Type": 8846,
      "School": 8847,
      "मारे": 8848,
      "abilities": 8849,
      "variety": 8850,
      "sell": 8851,
      "न्द्रनाथ": 8852,
      "gree": 8853,
      "दूँ": 8854,
      "भंडारण": 8855,
      "egg": 8856,
      "taught": 8857,
      "लिन": 8858,
      "rejected": 8859,
      "दस्त": 8860,
      "मती": 8861,
      "रेश": 8862,
      "ज़िन्दा": 8863,
      "surface": 8864,
      "DO": 8865,
      "द्री": 8866,
      "Conference": 8867,
      "शहरों": 8868,
      "mutual": 8869,
      "Japan": 8870,
      "inaug": 8871,
      "स्वि": 8872,
      "sections": 8873,
      "stock": 8874,
      "Knowing": 8875,
      "BAR": 8876,
      "यदे": 8877,
      "स्मार": 8878,
      "extended": 8879,
      "मंजू": 8880,
      "लगते": 8881,
      "icked": 8882,
      "Also": 8883,
      "अचान": 8884,
      "चार्": 8885,
      "नारा": 8886,
      "arrow": 8887,
      "जाम": 8888,
      "समग्र": 8889,
      "कृतज्ञ": 8890,
      "जलवायु": 8891,
      "skin": 8892,
      "auty": 8893,
      "टेन": 8894,
      "भरी": 8895,
      "entr": 8896,
      "urban": 8897,
      ".%": 8898,
      "ंपरिक": 8899,
      "edge": 8900,
      "App": 8901,
      "वर्तन": 8902,
      "fat": 8903,
      "star": 8904,
      "elements": 8905,
      "क़ुरआन": 8906,
      "heed": 8907,
      "टीम": 8908,
      "आराम": 8909,
      "Mer": 8910,
      "dep": 8911,
      "इनका": 8912,
      "स्वस्थ": 8913,
      "DV": 8914,
      "trying": 8915,
      "larger": 8916,
      "Distr": 8917,
      "इसने": 8918,
      "ague": 8919,
      "पृष्ठभूमि": 8920,
      "प्रारंभिक": 8921,
      "कदापि": 8922,
      "प्रतिनिधि": 8923,
      "chosen": 8924,
      "levels": 8925,
      "सम्बन्धी": 8926,
      "station": 8927,
      "Rajasthan": 8928,
      "Elect": 8929,
      "ford": 8930,
      "vation": 8931,
      "डू": 8932,
      "हवाई": 8933,
      "तथापि": 8934,
      "appointment": 8935,
      "संलग्न": 8936,
      "डाउनलोड": 8937,
      "निभा": 8938,
      "जाया": 8939,
      "cultiv": 8940,
      "अचानक": 8941,
      "न्दु": 8942,
      "akes": 8943,
      "मियान": 8944,
      "बुल": 8945,
      "menu": 8946,
      "Maharashtra": 8947,
      "बटन": 8948,
      "Corporation": 8949,
      "रौशन": 8950,
      "usive": 8951,
      "approv": 8952,
      "output": 8953,
      "चीनी": 8954,
      "आसपास": 8955,
      "धातु": 8956,
      "Sah": 8957,
      "ष्‍": 8958,
      "European": 8959,
      "साव": 8960,
      "proud": 8961,
      "rew": 8962,
      "नेकी": 8963,
      "नियुक्ति": 8964,
      "योजनाओं": 8965,
      "distribution": 8966,
      "सुझाव": 8967,
      "टॉ": 8968,
      "hell": 8969,
      "परमाण": 8970,
      "संबद्ध": 8971,
      "hak": 8972,
      "गाड़": 8973,
      "umber": 8974,
      "प्रेस": 8975,
      "solute": 8976,
      "machine": 8977,
      "बला": 8978,
      "भेजें": 8979,
      "quant": 8980,
      "evening": 8981,
      "looked": 8982,
      "block": 8983,
      "ora": 8984,
      "worked": 8985,
      "Stat": 8986,
      "स्वीकृति": 8987,
      "opening": 8988,
      "परिभाषित": 8989,
      "चुप": 8990,
      "Change": 8991,
      "sectors": 8992,
      "अपमान": 8993,
      "विनिमय": 8994,
      "नुकसान": 8995,
      "चें": 8996,
      "।-": 8997,
      "utions": 8998,
      "पारंपरिक": 8999,
      "crops": 9000,
      "aja": 9001,
      "Because": 9002,
      "प्रयत्न": 9003,
      "शुदा": 9004,
      "behav": 9005,
      "दाहि": 9006,
      "whosoever": 9007,
      "ताला": 9008,
      "लीय": 9009,
      "griev": 9010,
      "tro": 9011,
      "आमत": 9012,
      "निवास": 9013,
      "Soci": 9014,
      "लंबे": 9015,
      "गणित": 9016,
      "प्रबंधक": 9017,
      "target": 9018,
      "electric": 9019,
      "दरमियान": 9020,
      "निष्ठ": 9021,
      "difference": 9022,
      "distance": 9023,
      "गुनाहों": 9024,
      "described": 9025,
      "lawful": 9026,
      "फैला": 9027,
      "burden": 9028,
      "independence": 9029,
      "sale": 9030,
      "eties": 9031,
      "brings": 9032,
      "चिंता": 9033,
      "km": 9034,
      "संविदा": 9035,
      "रूपा": 9036,
      "दोहरा": 9037,
      "ंडी": 9038,
      "Nav": 9039,
      "काला": 9040,
      "aksh": 9041,
      "anc": 9042,
      "अल्प": 9043,
      "विश्वविद्यालयों": 9044,
      "associate": 9045,
      "अनुदान": 9046,
      "पर्वत": 9047,
      "समानता": 9048,
      "नवान्वेषण": 9049,
      "pred": 9050,
      "west": 9051,
      "लाइस": 9052,
      "imper": 9053,
      "चलाने": 9054,
      "बेच": 9055,
      "समर्थित": 9056,
      "dust": 9057,
      "illi": 9058,
      "मुश": 9059,
      "oblig": 9060,
      "paign": 9061,
      "reflect": 9062,
      "वाक़िफ": 9063,
      "प्राधिकरण": 9064,
      "GE": 9065,
      "IF": 9066,
      "अनुपात": 9067,
      "फरवरी": 9068,
      "ronic": 9069,
      "cop": 9070,
      "यानी": 9071,
      "पेड़": 9072,
      "Hindus": 9073,
      "cattle": 9074,
      "ढ़ा": 9075,
      "string": 9076,
      "clearly": 9077,
      "observed": 9078,
      "आमतौर": 9079,
      "pill": 9080,
      "सौर": 9081,
      "समन्व": 9082,
      "charges": 9083,
      "soft": 9084,
      "fine": 9085,
      "क्यू": 9086,
      "फर्": 9087,
      "entit": 9088,
      "गामी": 9089,
      "teachers": 9090,
      "review": 9091,
      "रेख": 9092,
      "truthful": 9093,
      "Special": 9094,
      "multi": 9095,
      "जड़": 9096,
      "poems": 9097,
      "पुष्": 9098,
      "188": 9099,
      "Ham": 9100,
      "Sir": 9101,
      "आईटी": 9102,
      "Mission": 9103,
      "उत्तरी": 9104,
      "brothers": 9105,
      "बिलकुल": 9106,
      "सदीय": 9107,
      "intellig": 9108,
      "65": 9109,
      "्यवाद": 9110,
      "approved": 9111,
      "सब्र": 9112,
      "worth": 9113,
      "राजस्थान": 9114,
      "समझने": 9115,
      "useum": 9116,
      "पुरानी": 9117,
      "borrow": 9118,
      "risk": 9119,
      "died": 9120,
      "अफ़": 9121,
      "annual": 9122,
      "objective": 9123,
      "voc": 9124,
      "abroad": 9125,
      "applications": 9126,
      "hidden": 9127,
      "context": 9128,
      "अवज्ञा": 9129,
      "डिजा": 9130,
      "Mary": 9131,
      "घाटे": 9132,
      "holders": 9133,
      "moral": 9134,
      "नस्": 9135,
      "delive": 9136,
      "संसदीय": 9137,
      "श्व": 9138,
      "keeping": 9139,
      "symbol": 9140,
      "इकट्ठा": 9141,
      "ousing": 9142,
      "els": 9143,
      "मोहन": 9144,
      "शक्तियों": 9145,
      "listen": 9146,
      "चुनौ": 9147,
      "क़ियामत": 9148,
      "dex": 9149,
      "पाओ": 9150,
      "unity": 9151,
      "ifice": 9152,
      "elf": 9153,
      "व्यावसायिक": 9154,
      "fellow": 9155,
      "launched": 9156,
      "sleep": 9157,
      "CA": 9158,
      "बस्ती": 9159,
      "independent": 9160,
      "परमाणु": 9161,
      "cular": 9162,
      "rare": 9163,
      "vast": 9164,
      "साझा": 9165,
      "कंपनियों": 9166,
      "जोड़ने": 9167,
      "Ra": 9168,
      "संत": 9169,
      "association": 9170,
      "walk": 9171,
      "वाना": 9172,
      "worthy": 9173,
      "रसूलों": 9174,
      "messenger": 9175,
      "Akbar": 9176,
      "अनक़रीब": 9177,
      "देखी": 9178,
      "fell": 9179,
      "ially": 9180,
      "ibility": 9181,
      "कम्पनी": 9182,
      "dim": 9183,
      "पक्": 9184,
      "ंत्रिक": 9185,
      "introduced": 9186,
      "मुलाकात": 9187,
      "corrupt": 9188,
      "आकर्षित": 9189,
      "चरित्र": 9190,
      "tidings": 9191,
      "Iran": 9192,
      "pu": 9193,
      "ऑफ़": 9194,
      "1992": 9195,
      "क्षमाशील": 9196,
      "wisdom": 9197,
      "अंतरा": 9198,
      "enn": 9199,
      "भाविक": 9200,
      "bled": 9201,
      "Services": 9202,
      "57": 9203,
      "Key": 9204,
      "सबके": 9205,
      "membr": 9206,
      "exercise": 9207,
      "ficiency": 9208,
      "characters": 9209,
      "removed": 9210,
      "Make": 9211,
      "Pres": 9212,
      "ईमेल": 9213,
      "spring": 9214,
      "प्रशासनिक": 9215,
      "Mag": 9216,
      "presents": 9217,
      "maximum": 9218,
      "सनीय": 9219,
      "submit": 9220,
      "संगम": 9221,
      "औप": 9222,
      "homes": 9223,
      "Sum": 9224,
      "hya": 9225,
      "लिखे": 9226,
      "लूत": 9227,
      "majority": 9228,
      "deliver": 9229,
      "चढ़ा": 9230,
      "प्रविष्ट": 9231,
      "safety": 9232,
      "औऱ": 9233,
      "भावी": 9234,
      "उपस्थिति": 9235,
      "confidence": 9236,
      "आरोप": 9237,
      "गौ": 9238,
      "धारी": 9239,
      "Health": 9240,
      "Tagore": 9241,
      "poverty": 9242,
      "spent": 9243,
      "desc": 9244,
      "ज़्यादा": 9245,
      "मस्जि": 9246,
      "amed": 9247,
      "दाखिल": 9248,
      "ests": 9249,
      "शाम": 9250,
      "enjoy": 9251,
      "सिक्": 9252,
      "academic": 9253,
      "Kum": 9254,
      "demon": 9255,
      "अनुसूचित": 9256,
      "charged": 9257,
      "element": 9258,
      "RI": 9259,
      "inf": 9260,
      "लास": 9261,
      "मानना": 9262,
      "race": 9263,
      "टिका": 9264,
      "pleased": 9265,
      "flag": 9266,
      "remote": 9267,
      "boo": 9268,
      "songs": 9269,
      "शिक": 9270,
      "istics": 9271,
      "बारगाह": 9272,
      "logies": 9273,
      "rupees": 9274,
      "जम्": 9275,
      "जटिल": 9276,
      "trou": 9277,
      "रेशन": 9278,
      "शिल्प": 9279,
      "दिखाता": 9280,
      "चेतावनी": 9281,
      "fresh": 9282,
      "आमंत्र": 9283,
      "ico": 9284,
      "कारो": 9285,
      "इनकी": 9286,
      "empty": 9287,
      "मुकद": 9288,
      "bour": 9289,
      "consu": 9290,
      "मुक्ति": 9291,
      "बीह": 9292,
      "affairs": 9293,
      "Second": 9294,
      "Water": 9295,
      "मध्यम": 9296,
      "oral": 9297,
      "convey": 9298,
      "settings": 9299,
      "नंबर": 9300,
      "army": 9301,
      "throughout": 9302,
      "Both": 9303,
      "easily": 9304,
      "वश": 9305,
      "थोड़े": 9306,
      "बाह्य": 9307,
      "ऑडियो": 9308,
      "सेल": 9309,
      "beauty": 9310,
      "spa": 9311,
      "motion": 9312,
      "hide": 9313,
      "antic": 9314,
      "ंडा": 9315,
      "पेक्ष": 9316,
      "ourselves": 9317,
      "Rama": 9318,
      "literary": 9319,
      "नवा": 9320,
      "पका": 9321,
      "त्‍": 9322,
      "uries": 9323,
      "goal": 9324,
      "दिखाने": 9325,
      "joy": 9326,
      "organization": 9327,
      "delivered": 9328,
      "मानवीय": 9329,
      "परिचित": 9330,
      "procedure": 9331,
      "47": 9332,
      "साझे": 9333,
      "सुदृढ़": 9334,
      "Social": 9335,
      "मरण": 9336,
      "philosophy": 9337,
      ">>": 9338,
      "Rail": 9339,
      "reh": 9340,
      "पीड़": 9341,
      "ideal": 9342,
      "preced": 9343,
      "तत्वदर्शी": 9344,
      "बख्शने": 9345,
      "offered": 9346,
      "जेल": 9347,
      "birds": 9348,
      "Str": 9349,
      "ईमानवालों": 9350,
      "अपेक्षित": 9351,
      "प्रथा": 9352,
      "शिशु": 9353,
      "studies": 9354,
      "glad": 9355,
      "vic": 9356,
      "आकृति": 9357,
      "वसू": 9358,
      "जिहाद": 9359,
      "tenance": 9360,
      "assigned": 9361,
      "दुखद": 9362,
      "42": 9363,
      "nur": 9364,
      "करू": 9365,
      "Mahatma": 9366,
      "चूंकि": 9367,
      "सभ्यता": 9368,
      "sid": 9369,
      "वस्त्र": 9370,
      "enge": 9371,
      "breast": 9372,
      "अज": 9373,
      "पट्": 9374,
      "बहि": 9375,
      "माला": 9376,
      "soil": 9377,
      "Date": 9378,
      "slow": 9379,
      "नहरें": 9380,
      "इश": 9381,
      "avid": 9382,
      "seeking": 9383,
      "संपादक": 9384,
      "Data": 9385,
      "dut": 9386,
      "उक्त": 9387,
      "प्रवाह": 9388,
      "ख़िल": 9389,
      "ba": 9390,
      "late": 9391,
      "nine": 9392,
      "yield": 9393,
      "सफे": 9394,
      "congrat": 9395,
      "disbelieved": 9396,
      "खड़ी": 9397,
      "यूँ": 9398,
      "department": 9399,
      "dry": 9400,
      "iny": 9401,
      "बुरे": 9402,
      "श्रद्धा": 9403,
      "greatest": 9404,
      "surround": 9405,
      "ढांचे": 9406,
      "Display": 9407,
      "ience": 9408,
      "कही": 9409,
      "वाणी": 9410,
      "extra": 9411,
      "Environment": 9412,
      "मुश्किल": 9413,
      "History": 9414,
      "bing": 9415,
      "audi": 9416,
      "प्रतिभूति": 9417,
      "venant": 9418,
      "जनन": 9419,
      "rapid": 9420,
      "बस्ति": 9421,
      "acious": 9422,
      "ception": 9423,
      "घटक": 9424,
      "ented": 9425,
      "स्थाना": 9426,
      "compreh": 9427,
      "वर्गों": 9428,
      "चैन": 9429,
      "नीन": 9430,
      "गिरफ्": 9431,
      "distingu": 9432,
      "innovation": 9433,
      "District": 9434,
      "Bad": 9435,
      "गों": 9436,
      "डरो": 9437,
      "सावधान": 9438,
      "authentic": 9439,
      "बढ़ती": 9440,
      "अन्ततः": 9441,
      "मिलियन": 9442,
      "bug": 9443,
      "micro": 9444,
      "रोगी": 9445,
      "विविधता": 9446,
      "hic": 9447,
      "थान": 9448,
      "matic": 9449,
      "bodies": 9450,
      "ysis": 9451,
      "hospital": 9452,
      "जन्नत": 9453,
      "देखना": 9454,
      "नीतियों": 9455,
      "travel": 9456,
      "Nat": 9457,
      "eting": 9458,
      "Default": 9459,
      "afr": 9460,
      "ghan": 9461,
      "कस": 9462,
      "सड़क": 9463,
      "रहित": 9464,
      "तयशुदा": 9465,
      "DVD": 9466,
      "ahar": 9467,
      "owner": 9468,
      "फ्रे": 9469,
      "atab": 9470,
      "ails": 9471,
      "फ़ॉन्ट": 9472,
      "primary": 9473,
      "प्रभुत्वशाली": 9474,
      "सारिक": 9475,
      "खोलने": 9476,
      "pressed": 9477,
      "avoid": 9478,
      "समन्वय": 9479,
      "Dep": 9480,
      "आफ": 9481,
      "rock": 9482,
      "consult": 9483,
      "prises": 9484,
      "namely": 9485,
      "calcul": 9486,
      "gains": 9487,
      "Each": 9488,
      "River": 9489,
      "µà": 9490,
      "eval": 9491,
      "attend": 9492,
      "initiatives": 9493,
      "affected": 9494,
      "\"\"": 9495,
      "शासक": 9496,
      "forbidden": 9497,
      "aur": 9498,
      "लिमि": 9499,
      "sett": 9500,
      "kinds": 9501,
      "वसी": 9502,
      "निः": 9503,
      "extend": 9504,
      "folders": 9505,
      "merely": 9506,
      "¤¦": 9507,
      "ira": 9508,
      "Among": 9509,
      "schools": 9510,
      "articles": 9511,
      "युवाओं": 9512,
      "सांसारिक": 9513,
      "Arch": 9514,
      "atter": 9515,
      "कर्ष": 9516,
      "wherein": 9517,
      "लंबी": 9518,
      "conver": 9519,
      "Himal": 9520,
      "स्वीकृत": 9521,
      "मृत": 9522,
      "आवाज": 9523,
      "लियम": 9524,
      "परिचय": 9525,
      "mainly": 9526,
      "विरासत": 9527,
      "भेंट": 9528,
      "agreed": 9529,
      "प्रतिबद्ध": 9530,
      "blessings": 9531,
      "altern": 9532,
      "Lim": 9533,
      "MB": 9534,
      "frequ": 9535,
      "oath": 9536,
      "vital": 9537,
      "ड्यू": 9538,
      "सिविल": 9539,
      "रुचि": 9540,
      "souls": 9541,
      "ड्ड": 9542,
      "विभाजित": 9543,
      "HTML": 9544,
      "ड्राइ": 9545,
      "Opt": 9546,
      "टरी": 9547,
      "itis": 9548,
      "replied": 9549,
      "bunal": 9550,
      "alty": 9551,
      "देशा": 9552,
      "enses": 9553,
      "guil": 9554,
      "शोर": 9555,
      "Commun": 9556,
      "लियां": 9557,
      "Great": 9558,
      "cand": 9559,
      "daily": 9560,
      "rates": 9561,
      "पने": 9562,
      "सरी": 9563,
      "generations": 9564,
      "मिलेगी": 9565,
      "विज्ञ": 9566,
      "practices": 9567,
      "east": 9568,
      "ताज": 9569,
      "Gre": 9570,
      "कुर": 9571,
      "profits": 9572,
      "reduced": 9573,
      "sustain": 9574,
      "प्रतिष्ठित": 9575,
      "Since": 9576,
      "इल्म": 9577,
      "attribut": 9578,
      "aling": 9579,
      "sole": 9580,
      "kingdom": 9581,
      "क़िस्म": 9582,
      "jan": 9583,
      "अभाव": 9584,
      "ब्यू": 9585,
      "aters": 9586,
      "रहेगी": 9587,
      "cook": 9588,
      "150": 9589,
      "happen": 9590,
      "Send": 9591,
      "मिट": 9592,
      "क़त": 9593,
      "minor": 9594,
      "फिली": 9595,
      "Play": 9596,
      "गांवों": 9597,
      "Two": 9598,
      "raw": 9599,
      "बरसा": 9600,
      "टिस": 9601,
      "सम्पूर्ण": 9602,
      "छाया": 9603,
      "cow": 9604,
      "alted": 9605,
      "बाकी": 9606,
      "राजधानी": 9607,
      "undertaking": 9608,
      "thank": 9609,
      "घि": 9610,
      "geo": 9611,
      "स्वाभाविक": 9612,
      "follows": 9613,
      "joined": 9614,
      "Besides": 9615,
      "Ash": 9616,
      "लेगा": 9617,
      "ears": 9618,
      "welfare": 9619,
      "समझौते": 9620,
      "Ba": 9621,
      "FOR": 9622,
      "शिक्षक": 9623,
      "returns": 9624,
      "निरीक्षण": 9625,
      "वती": 9626,
      "stre": 9627,
      "मादा": 9628,
      "minimum": 9629,
      "भेजने": 9630,
      "Programme": 9631,
      "¤": 9632,
      "machinery": 9633,
      "टका": 9634,
      "धम": 9635,
      "compl": 9636,
      "सम्भव": 9637,
      "ख्ते": 9638,
      "discipl": 9639,
      "फ़रिश्ते": 9640,
      "मिलते": 9641,
      "देवता": 9642,
      "Hour": 9643,
      "व्यस्त": 9644,
      "happened": 9645,
      "feeling": 9646,
      "challenges": 9647,
      "ape": 9648,
      "Independ": 9649,
      "forever": 9650,
      "सोस": 9651,
      "Subhas": 9652,
      "Bengali": 9653,
      "भले": 9654,
      "library": 9655,
      "अय": 9656,
      "excess": 9657,
      "नैतिक": 9658,
      "mobile": 9659,
      "तस्वीर": 9660,
      "Bl": 9661,
      "wild": 9662,
      "Though": 9663,
      "solution": 9664,
      "installed": 9665,
      "Aust": 9666,
      "ula": 9667,
      "दुश्": 9668,
      "carrying": 9669,
      "Division": 9670,
      "नजर": 9671,
      "creating": 9672,
      "पुस्तकालय": 9673,
      "अस्थायी": 9674,
      "claimed": 9675,
      "विनष्ट": 9676,
      "Non": 9677,
      "OC": 9678,
      "Pri": 9679,
      "Prom": 9680,
      "turns": 9681,
      "मौजि": 9682,
      "थोड़ी": 9683,
      "संपादित": 9684,
      "चेहरे": 9685,
      "regional": 9686,
      "सितंबर": 9687,
      "appeared": 9688,
      "Gl": 9689,
      "खाओ": 9690,
      "girl": 9691,
      "Khan": 9692,
      "ंची": 9693,
      "रूद्ध": 9694,
      "willing": 9695,
      "ख़ौ": 9696,
      "इड": 9697,
      "ensu": 9698,
      "नाते": 9699,
      "एकमात्र": 9700,
      "regions": 9701,
      "passing": 9702,
      "Bhag": 9703,
      "Network": 9704,
      "रोज़": 9705,
      "प्रेषित": 9706,
      "excellent": 9707,
      "सफेद": 9708,
      "66": 9709,
      "अम्": 9710,
      "पसी": 9711,
      "क़्त": 9712,
      "सतह": 9713,
      "Word": 9714,
      "Don": 9715,
      "भंग": 9716,
      "match": 9717,
      "कैसा": 9718,
      "शर्तों": 9719,
      "recompense": 9720,
      "hair": 9721,
      "uta": 9722,
      "column": 9723,
      "अदालत": 9724,
      "OS": 9725,
      "ॉँ": 9726,
      "करूँ": 9727,
      "उपखंड": 9728,
      "दुर": 9729,
      "मछली": 9730,
      "Ce": 9731,
      "cance": 9732,
      "sought": 9733,
      "निकाला": 9734,
      "मुसीबत": 9735,
      "उन्न": 9736,
      "बच्चा": 9737,
      "ERS": 9738,
      "सुविधाएं": 9739,
      "ंकित": 9740,
      "asi": 9741,
      "imal": 9742,
      "notification": 9743,
      "resource": 9744,
      "plat": 9745,
      "अन्तर": 9746,
      "authorities": 9747,
      "impact": 9748,
      "Foreign": 9749,
      "wants": 9750,
      "गन": 9751,
      "depos": 9752,
      "दोनो": 9753,
      "सकेंगे": 9754,
      "receipt": 9755,
      "respective": 9756,
      "teacher": 9757,
      "description": 9758,
      "sand": 9759,
      "अवर": 9760,
      "सले": 9761,
      "iles": 9762,
      "समुद्री": 9763,
      "पाँच": 9764,
      "अवतरित": 9765,
      "eases": 9766,
      "लकड़ी": 9767,
      "प्लगइन": 9768,
      "¤": 9769,
      "मिसाल": 9770,
      "hot": 9771,
      "आहार": 9772,
      "ठहर": 9773,
      "colour": 9774,
      "सहमति": 9775,
      "festival": 9776,
      "Language": 9777,
      "बेहि": 9778,
      "चार्य": 9779,
      "campaign": 9780,
      "कच": 9781,
      "पटा": 9782,
      "वेशन": 9783,
      "शरण": 9784,
      "covenant": 9785,
      "हिकमत": 9786,
      "Def": 9787,
      "battle": 9788,
      "पंच": 9789,
      "संपादन": 9790,
      "actor": 9791,
      "organiz": 9792,
      "highly": 9793,
      "1948": 9794,
      "Financial": 9795,
      "Ste": 9796,
      "zone": 9797,
      "इंच": 9798,
      "memor": 9799,
      "फ़ाइलें": 9800,
      "completely": 9801,
      "गठित": 9802,
      "टुकड़े": 9803,
      "यूसुफ": 9804,
      "cold": 9805,
      "notes": 9806,
      "upper": 9807,
      "समूहों": 9808,
      "टैब": 9809,
      "तलाश": 9810,
      "उंड": 9811,
      "पठ": 9812,
      "फूल": 9813,
      "pag": 9814,
      "पणी": 9815,
      "डाय": 9816,
      "chemical": 9817,
      "positive": 9818,
      "garden": 9819,
      "cou": 9820,
      "किस्म": 9821,
      "evol": 9822,
      "prepar": 9823,
      "missions": 9824,
      "बन्दे": 9825,
      "परिवर्त": 9826,
      "rant": 9827,
      "प्रतियोग": 9828,
      "critical": 9829,
      "huge": 9830,
      "Joh": 9831,
      "निंग": 9832,
      "Official": 9833,
      "Certificate": 9834,
      "mur": 9835,
      "आयी": 9836,
      "इमार": 9837,
      "concern": 9838,
      "tong": 9839,
      "thered": 9840,
      "सीन": 9841,
      "matically": 9842,
      "लिमिटेड": 9843,
      "Jose": 9844,
      "lord": 9845,
      "psy": 9846,
      "कड़": 9847,
      "संध्या": 9848,
      "tees": 9849,
      "actual": 9850,
      "submitted": 9851,
      "मॉडल": 9852,
      "टूट": 9853,
      "सर्वोत्तम": 9854,
      "समृद्धि": 9855,
      "vention": 9856,
      "ckon": 9857,
      "changing": 9858,
      "पालने": 9859,
      "ache": 9860,
      "अनुग्रह": 9861,
      "क़ायम": 9862,
      "चौड़ाई": 9863,
      "फ़रमा": 9864,
      "तुरंत": 9865,
      "dialog": 9866,
      "ंध्र": 9867,
      "courage": 9868,
      "Peace": 9869,
      "dispute": 9870,
      "दैनिक": 9871,
      ")?": 9872,
      "¤": 9873,
      "Artic": 9874,
      "बादी": 9875,
      "बनाता": 9876,
      "aji": 9877,
      "partnership": 9878,
      "ancing": 9879,
      "निवार": 9880,
      "forget": 9881,
      "टिन": 9882,
      "1998": 9883,
      "प्रचलित": 9884,
      "individuals": 9885,
      "जिम्मेदारी": 9886,
      "Rules": 9887,
      "ंटी": 9888,
      "inform": 9889,
      "degree": 9890,
      "हिता": 9891,
[...]
